{
  "version": "1.0",
  "truncation": null,
  "padding": null,
  "added_tokens": [
    {
      "id": 0,
      "content": "[QUANTITY]",
      "single_word": false,
      "lstrip": false,
      "rstrip": false,
      "normalized": false,
      "special": true
    },
    {
      "id": 1,
      "content": "[UNITPRICEAMOUNT]",
      "single_word": false,
      "lstrip": false,
      "rstrip": false,
      "normalized": false,
      "special": true
    },
    {
      "id": 2,
      "content": "[DATE]",
      "single_word": false,
      "lstrip": false,
      "rstrip": false,
      "normalized": false,
      "special": true
    },
    {
      "id": 3,
      "content": "[INCOTERMS]",
      "single_word": false,
      "lstrip": false,
      "rstrip": false,
      "normalized": false,
      "special": true
    },
    {
      "id": 4,
      "content": "[PAD]",
      "single_word": false,
      "lstrip": false,
      "rstrip": false,
      "normalized": false,
      "special": true
    },
    {
      "id": 5,
      "content": "[CLS]",
      "single_word": false,
      "lstrip": false,
      "rstrip": false,
      "normalized": false,
      "special": true
    },
    {
      "id": 6,
      "content": "[SEP]",
      "single_word": false,
      "lstrip": false,
      "rstrip": false,
      "normalized": false,
      "special": true
    }
  ],
  "normalizer": {
    "type": "BertNormalizer",
    "clean_text": true,
    "handle_chinese_chars": true,
    "strip_accents": null,
    "lowercase": true
  },
  "pre_tokenizer": {
    "type": "WhitespaceSplit"
  },
  "post_processor": {
    "type": "TemplateProcessing",
    "single": [
      {
        "SpecialToken": {
          "id": "[CLS]",
          "type_id": 0
        }
      },
      {
        "Sequence": {
          "id": "A",
          "type_id": 0
        }
      },
      {
        "SpecialToken": {
          "id": "[SEP]",
          "type_id": 0
        }
      }
    ],
    "pair": [
      {
        "SpecialToken": {
          "id": "[CLS]",
          "type_id": 0
        }
      },
      {
        "Sequence": {
          "id": "A",
          "type_id": 0
        }
      },
      {
        "SpecialToken": {
          "id": "[SEP]",
          "type_id": 0
        }
      },
      {
        "Sequence": {
          "id": "B",
          "type_id": 1
        }
      },
      {
        "SpecialToken": {
          "id": "[SEP]",
          "type_id": 1
        }
      }
    ],
    "special_tokens": {
      "[CLS]": {
        "id": "[CLS]",
        "ids": [
          5
        ],
        "tokens": [
          "[CLS]"
        ]
      },
      "[SEP]": {
        "id": "[SEP]",
        "ids": [
          6
        ],
        "tokens": [
          "[SEP]"
        ]
      }
    }
  },
  "decoder": {
    "type": "WordPiece",
    "prefix": "##",
    "cleanup": true
  },
  "model": {
    "type": "WordPiece",
    "unk_token": "[UNK]",
    "continuing_subword_prefix": "##",
    "max_input_chars_per_word": 100,
    "vocab": {
      "[QUANTITY]": 0,
      "[UNITPRICEAMOUNT]": 1,
      "[DATE]": 2,
      "[INCOTERMS]": 3,
      "[PAD]": 4,
      "[CLS]": 5,
      "[SEP]": 6,
      "%": 7,
      "&": 8,
      "'": 9,
      "(": 10,
      ")": 11,
      "+": 12,
      "-": 13,
      ".": 14,
      "/": 15,
      "0": 16,
      "1": 17,
      "2": 18,
      "3": 19,
      "4": 20,
      "5": 21,
      "6": 22,
      "7": 23,
      "8": 24,
      "9": 25,
      ";": 26,
      "=": 27,
      ">": 28,
      "@": 29,
      "[": 30,
      "]": 31,
      "_": 32,
      "a": 33,
      "b": 34,
      "c": 35,
      "d": 36,
      "e": 37,
      "f": 38,
      "g": 39,
      "h": 40,
      "i": 41,
      "j": 42,
      "k": 43,
      "l": 44,
      "m": 45,
      "n": 46,
      "o": 47,
      "p": 48,
      "q": 49,
      "r": 50,
      "s": 51,
      "t": 52,
      "u": 53,
      "v": 54,
      "w": 55,
      "x": 56,
      "y": 57,
      "z": 58,
      "##a": 59,
      "##v": 60,
      "##i": 61,
      "##t": 62,
      "##y": 63,
      "##)": 64,
      "##e": 65,
      "##m": 66,
      "##-": 67,
      "##d": 68,
      "##u": 69,
      "##l": 70,
      "##s": 71,
      "##n": 72,
      "##8": 73,
      "##h": 74,
      "##c": 75,
      "##7": 76,
      "##0": 77,
      "##4": 78,
      "##2": 79,
      "##o": 80,
      "##3": 81,
      "##5": 82,
      "##g": 83,
      "##p": 84,
      "##1": 85,
      "##r": 86,
      "##9": 87,
      "##j": 88,
      "##x": 89,
      "##/": 90,
      "##f": 91,
      "##z": 92,
      "##.": 93,
      "##b": 94,
      "##6": 95,
      "##k": 96,
      "##w": 97,
      "##(": 98,
      "##'": 99,
      "##q": 100,
      "##+": 101,
      "##_": 102,
      "##%": 103,
      "##]": 104,
      "##;": 105,
      "##er": 106,
      "##nt": 107,
      "##it": 108,
      "##ic": 109,
      "##in": 110,
      "##or": 111,
      "##ice": 112,
      "##at": 113,
      "##ar": 114,
      "per": 115,
      "##ant": 116,
      "##ity": 117,
      "##uant": 118,
      "##uantity": 119,
      "##ot": 120,
      "[q": 121,
      "##uantity]": 122,
      "[quantity]": 123,
      "##ate": 124,
      "##am": 125,
      "##nit": 126,
      "##pr": 127,
      "##ou": 128,
      "##erm": 129,
      "##erms": 130,
      "##cot": 131,
      "##coterms": 132,
      "##incoterms": 133,
      "[incoterms": 134,
      "[incoterms]": 135,
      "##ount": 136,
      "[u": 137,
      "##iceam": 138,
      "##nitpr": 139,
      "##ount]": 140,
      "[unitpr": 141,
      "##iceamount]": 142,
      "[unitpriceamount]": 143,
      "##ac": 144,
      "in": 145,
      "no": 146,
      "##ty": 147,
      "##ated": 148,
      "##an": 149,
      "##en": 150,
      "at": 151,
      "qty": 152,
      "dated": 153,
      "no.": 154,
      "##ort": 155,
      "as": 156,
      "##on": 157,
      "##st": 158,
      "us": 159,
      "usd": 160,
      "##ene": 161,
      "##ro": 162,
      "##fic": 163,
      "pa": 164,
      "##ach": 165,
      "##'s": 166,
      "##ary": 167,
      "##fici": 168,
      "bene": 169,
      "##al": 170,
      "benefici": 171,
      "beneficiary": 172,
      "##ist": 173,
      "##achi": 174,
      "##arachi": 175,
      "karachi": 176,
      "pro": 177,
      "##ma": 178,
      "beneficiary's": 179,
      "##istan": 180,
      "##kistan": 181,
      "kg": 182,
      "pakistan": 183,
      "inv": 184,
      "##for": 185,
      "##oice": 186,
      "invoice": 187,
      "##forma": 188,
      "proforma": 189,
      "of": 190,
      "##fr": 191,
      "cfr": 192,
      "##et": 193,
      "##20": 194,
      "##19": 195,
      "##port": 196,
      "co": 197,
      "##es": 198,
      "##he": 199,
      "mt": 200,
      "##ed": 201,
      "port": 202,
      "##as": 203,
      "an": 204,
      "##ea": 205,
      "pc": 206,
      "##il": 207,
      "##im": 208,
      "##ton": 209,
      "sea": 210,
      "seaport": 211,
      "the": 212,
      "##ol": 213,
      "kgs": 214,
      "and": 215,
      "##de": 216,
      "rate": 217,
      "##ing": 218,
      "##pl": 219,
      "##2019": 220,
      "##el": 221,
      "##00": 222,
      "m/": 223,
      "##ur": 224,
      "qas": 225,
      "qasim": 226,
      "[d": 227,
      "##ion": 228,
      "##ate]": 229,
      "[date]": 230,
      "##12": 231,
      "##ir": 232,
      "st": 233,
      "##act": 234,
      "##ra": 235,
      "##ent": 236,
      "com": 237,
      "##pt": 238,
      "##01": 239,
      "##pe": 240,
      "cont": 241,
      "##ract": 242,
      "##ail": 243,
      "pct": 244,
      "##ob": 245,
      "for": 246,
      "or": 247,
      "det": 248,
      "detail": 249,
      "m.": 250,
      "##-2019": 251,
      "air": 252,
      "m.ton": 253,
      "##ation": 254,
      "unit": 255,
      "contract": 256,
      "##oly": 257,
      "##re": 258,
      "##le": 259,
      "##ales": 260,
      "pcs": 261,
      "##-2019.": 262,
      "##is": 263,
      "m/ton": 264,
      "##ul": 265,
      "airport": 266,
      "##um": 267,
      "sales": 268,
      "##der": 269,
      "##ch": 270,
      "##11": 271,
      "##lo": 272,
      "##ical": 273,
      "cpt": 274,
      "la": 275,
      "poly": 276,
      "##ial": 277,
      "al": 278,
      "##yl": 279,
      "##ag": 280,
      "##ore": 281,
      "ch": 282,
      "inde": 283,
      "fob": 284,
      "##us": 285,
      "##ig": 286,
      "##ut": 287,
      "m/s": 288,
      "ra": 289,
      "##-20": 290,
      "indent": 291,
      "##ete": 292,
      "##plete": 293,
      "complete": 294,
      "ph": 295,
      "pk": 296,
      "##ari": 297,
      "order": 298,
      "##ab": 299,
      "pkr": 300,
      "ac": 301,
      "##th": 302,
      "##hore": 303,
      "pr": 304,
      "lahore": 305,
      "##ppl": 306,
      "tot": 307,
      "##eam": 308,
      "##ack": 309,
      "total": 310,
      "mts": 311,
      "##id": 312,
      "##rade": 313,
      "##ard": 314,
      "raw": 315,
      "##od": 316,
      "##ylene": 317,
      "##ct": 318,
      "pur": 319,
      "##ase": 320,
      "keam": 321,
      "##ine": 322,
      "keamari": 323,
      "##/2019": 324,
      "grade": 325,
      "##co": 326,
      "##ith": 327,
      "re": 328,
      "kg.": 329,
      "lb": 330,
      "set": 331,
      "##ater": 332,
      "##igh": 333,
      "met": 334,
      "pl": 335,
      "with": 336,
      "appl": 337,
      "##ess": 338,
      "any": 339,
      "##ace": 340,
      "ste": 341,
      "applic": 342,
      "##arm": 343,
      "applicant": 344,
      "ex": 345,
      "##-12": 346,
      "##ib": 347,
      "bag": 348,
      "##chase": 349,
      "purchase": 350,
      "##10": 351,
      "m.tons": 352,
      "steel": 353,
      "sp": 354,
      "##per": 355,
      "mater": 356,
      "material": 357,
      "##ax": 358,
      "##em": 359,
      "##art": 360,
      "##utical": 361,
      "##aceutical": 362,
      "##armaceutical": 363,
      "##op": 364,
      "cot": 365,
      "##ld": 366,
      "##and": 367,
      "cotton": 368,
      "(p": 369,
      "sh": 370,
      "##ci": 371,
      "##-12-2019.": 372,
      "##/19": 373,
      "pharmaceutical": 374,
      "m/tons": 375,
      "pakistan.": 376,
      "chin": 377,
      "##iz": 378,
      "##est": 379,
      "##ers": 380,
      "##ow": 381,
      "applicant's": 382,
      "she": 383,
      "##iv": 384,
      "##-19": 385,
      "##ric": 386,
      "##eth": 387,
      "pack": 388,
      "##s)": 389,
      "##ile": 390,
      "(1": 391,
      "spe": 392,
      "##cl": 393,
      "con": 394,
      "##02": 395,
      "m/s.": 396,
      "mo": 397,
      "sc": 398,
      "eur": 399,
      "min": 400,
      "part": 401,
      "##ight": 402,
      "##ies": 403,
      "fib": 404,
      "##/1": 405,
      "seaport/": 406,
      "##cent": 407,
      "##ents": 408,
      "pi": 409,
      "units": 410,
      "##ium": 411,
      "##oll": 412,
      "plus": 413,
      "sheet": 414,
      "bl": 415,
      "allo": 416,
      "br": 417,
      "lim": 418,
      "##ip": 419,
      "details": 420,
      "china": 421,
      "limit": 422,
      "bags": 423,
      "##ap": 424,
      "##if": 425,
      "##-01": 426,
      "##ath": 427,
      "ad": 428,
      "che": 429,
      "mach": 430,
      "##ery": 431,
      "limited": 432,
      "paper": 433,
      "acc": 434,
      "int": 435,
      "pal": 436,
      "##essor": 437,
      "bo": 438,
      "##ulk": 439,
      "speci": 440,
      "parts": 441,
      "bulk": 442,
      "##vt": 443,
      "ton": 444,
      "##fication": 445,
      "ne": 446,
      "sy": 447,
      "##ther": 448,
      "seaport/port": 449,
      "(2": 450,
      "den": 451,
      "quantity": 452,
      "##03": 453,
      "percent": 454,
      "comp": 455,
      "mm": 456,
      "roll": 457,
      "##-11": 458,
      "##se": 459,
      "##ern": 460,
      "##arn": 461,
      "all": 462,
      "##ethylene": 463,
      "specification": 464,
      "##ex": 465,
      "##ize": 466,
      "##ester": 467,
      "chem": 468,
      "palm": 469,
      "##ad": 470,
      "##ry": 471,
      "##du": 472,
      "polyester": 473,
      "th": 474,
      "yarn": 475,
      "##ub": 476,
      "##ly": 477,
      "##18": 478,
      "max": 479,
      "##/20": 480,
      "##ang": 481,
      "##ia": 482,
      "##ue": 483,
      "accessor": 484,
      "##++": 485,
      "##ational": 486,
      "polyethylene": 487,
      "(1)": 488,
      "intern": 489,
      "accessories": 490,
      "##int": 491,
      "##ph": 492,
      "##prop": 493,
      "##ple": 494,
      "sta": 495,
      "international": 496,
      "1.": 497,
      "##propylene": 498,
      "on": 499,
      "(2)": 500,
      "is": 501,
      "size": 502,
      "##ect": 503,
      "##path": 504,
      "##pathic": 505,
      "##uf": 506,
      "##04": 507,
      "##120": 508,
      "##rap": 509,
      "##ai": 510,
      "##ast": 511,
      "##ide": 512,
      "##/s": 513,
      "##/p": 514,
      "##one": 515,
      "mt.": 516,
      "##ime": 517,
      "(pvt": 518,
      "de": 519,
      "##23": 520,
      "stand": 521,
      "exw": 522,
      "standard": 523,
      "other": 524,
      "##bd": 525,
      "##att": 526,
      "##-2020": 527,
      "scrap": 528,
      "staple": 529,
      "to": 530,
      "##i-": 531,
      "##ov": 532,
      "lbs": 533,
      "lit": 534,
      "##un": 535,
      "##qu": 536,
      "chemical": 537,
      "2.": 538,
      "ar": 539,
      "##ix": 540,
      "##sm": 541,
      "##ss": 542,
      "##om": 543,
      "##ron": 544,
      "##fe": 545,
      "coated": 546,
      "##ver": 547,
      "##53": 548,
      "##/-": 549,
      "##elt": 550,
      "fre": 551,
      "hot": 552,
      "##ud": 553,
      "ah": 554,
      "##td": 555,
      "##mt": 556,
      "##ood": 557,
      "##ri": 558,
      "machine": 559,
      "chemicals": 560,
      "##09": 561,
      "##/01": 562,
      "##fin": 563,
      "allopathic": 564,
      "car": 565,
      "ty": 566,
      "##ak": 567,
      "##+/-": 568,
      "coil": 569,
      "##ldpe": 570,
      "fiber": 571,
      "##os": 572,
      "##pk": 573,
      "##onents": 574,
      "bot": 575,
      "high": 576,
      "ltd": 577,
      "##ain": 578,
      "##lor": 579,
      "##45": 580,
      "##p-": 581,
      "##/00": 582,
      "##ass": 583,
      "##ivate": 584,
      "dens": 585,
      "##-11-2019.": 586,
      "##-2020.": 587,
      "cd": 588,
      "dy": 589,
      "man": 590,
      "##oc": 591,
      "sheets": 592,
      "density": 593,
      "qu": 594,
      "##da": 595,
      "##08": 596,
      "##/c": 597,
      "dated.": 598,
      "##ese": 599,
      "##ber": 600,
      "rolled": 601,
      "cro": 602,
      "mob": 603,
      "##-2": 604,
      "polypropylene": 605,
      "price": 606,
      "##/2019-20": 607,
      "mobile": 608,
      "(3": 609,
      "cn": 610,
      "fab": 611,
      "res": 612,
      "##14": 613,
      "##are": 614,
      "produ": 615,
      "##1912": 616,
      "##ill": 617,
      "##del": 618,
      "##able": 619,
      "cny": 620,
      "fabric": 621,
      "(pr": 622,
      "eu": 623,
      "pp": 624,
      "tr": 625,
      "##ce": 626,
      "phone": 627,
      "model": 628,
      "##60": 629,
      "usp": 630,
      "##ell": 631,
      "##actur": 632,
      "prime": 633,
      "packed": 634,
      "admt": 635,
      "board": 636,
      "specifications": 637,
      "##ufactur": 638,
      "pow": 639,
      "val": 640,
      "##ded": 641,
      "##ca": 642,
      "##c-": 643,
      "##29": 644,
      "##50": 645,
      "##13": 646,
      "##ject": 647,
      "##arg": 648,
      "##dec": 649,
      "arfe": 650,
      "arfeen": 651,
      "be": 652,
      "equ": 653,
      "oil": 654,
      "rbd": 655,
      "so": 656,
      "##s.": 657,
      "##jan": 658,
      "##eav": 659,
      "components": 660,
      "lo": 661,
      "se": 662,
      "##red": 663,
      "##ong": 664,
      "acid": 665,
      "manufactur": 666,
      "crop": 667,
      "by": 668,
      "dt": 669,
      "##io": 670,
      "##-3": 671,
      "##52": 672,
      "##/or": 673,
      "##ite": 674,
      "##001": 675,
      "print": 676,
      "meter": 677,
      "black": 678,
      "tons": 679,
      "(pvt)": 680,
      "(g": 681,
      "gsm": 682,
      "un": 683,
      "wh": 684,
      "##40": 685,
      "##/m": 686,
      "##rom": 687,
      "##els": 688,
      "##003": 689,
      "meters": 690,
      "fibre": 691,
      "am": 692,
      "cl": 693,
      "en": 694,
      "gst": 695,
      "sl": 696,
      "##mm": 697,
      "##/12": 698,
      "and/or": 699,
      "##low": 700,
      "type": 701,
      "euro": 702,
      "(4": 703,
      "le": 704,
      "lldpe": 705,
      "pf": 706,
      "##hai": 707,
      "##70": 708,
      "##''": 709,
      "##ator": 710,
      "pct)": 711,
      "lbs)": 712,
      "shang": 713,
      "##-01-2020.": 714,
      "##ivate)": 715,
      "product": 716,
      "(private)": 717,
      "value": 718,
      "shanghai": 719,
      "bar": 720,
      "vial": 721,
      "##ment": 722,
      "##dpe": 723,
      "##rate": 724,
      "##.)": 725,
      "ass": 726,
      "##2001": 727,
      "##odium": 728,
      "metric": 729,
      "alloy": 730,
      "dis": 731,
      "sd": 732,
      "sk": 733,
      "##yd": 734,
      "##-1": 735,
      "##dl": 736,
      "##ug": 737,
      "##89": 738,
      "##22": 739,
      "##/h": 740,
      "##/g": 741,
      "##zol": 742,
      "infin": 743,
      "port/": 744,
      "##ire": 745,
      "bright": 746,
      "box": 747,
      "both": 748,
      "(3)": 749,
      "infinix": 750,
      "(+/-": 751,
      "batt": 752,
      "ole": 753,
      "##yc": 754,
      "##l-": 755,
      "##ft": 756,
      "##62": 757,
      "sets": 758,
      "##++++": 759,
      "resin": 760,
      "##jection": 761,
      "dr": 762,
      "good": 763,
      "sol": 764,
      "##ian": 765,
      "incoterms": 766,
      "pc.": 767,
      "m/ton.": 768,
      "spare": 769,
      "coils": 770,
      "manufacturing": 771,
      "battery": 772,
      "fca": 773,
      "gl": 774,
      "mic": 775,
      "na": 776,
      "su": 777,
      "##-r": 778,
      "##ert": 779,
      "inch": 780,
      "incl": 781,
      "cond": 782,
      "machin": 783,
      "olein": 784,
      "(5": 785,
      "fl": 786,
      "gen": 787,
      "it": 788,
      "iron": 789,
      "sul": 790,
      "x6": 791,
      "##ay": 792,
      "##5-": 793,
      "##51": 794,
      "##1911": 795,
      "##ure": 796,
      "charg": 797,
      "##emb": 798,
      "##ext": 799,
      "one": 800,
      "white": 801,
      "barr": 802,
      "12": 803,
      "m2": 804,
      "med": 805,
      "sid": 806,
      "sodium": 807,
      "weav": 808,
      "##tl": 809,
      "##mp": 810,
      "##sc": 811,
      "##pa": 812,
      "##/2": 813,
      "##ans": 814,
      "##umin": 815,
      "brand": 816,
      "##/2020": 817,
      "weaving": 818,
      "ab": 819,
      "sab": 820,
      "##tr": 821,
      "##58": 822,
      "##112": 823,
      "##ality": 824,
      "code": 825,
      "free": 826,
      "freight": 827,
      "sabic": 828,
      "(w": 829,
      "are": 830,
      "bas": 831,
      "low": 832,
      "ml": 833,
      "mot": 834,
      "red": 835,
      "sq": 836,
      "text": 837,
      "##ape": 838,
      "##-s": 839,
      "##ding": 840,
      "##33": 841,
      "##ould": 842,
      "packing": 843,
      "packag": 844,
      "polyethylene)": 845,
      "quality": 846,
      "power": 847,
      "##embly": 848,
      "motor": 849,
      "20": 850,
      "3.": 851,
      "card": 852,
      "des": 853,
      "pre": 854,
      "##ear": 855,
      "##80": 856,
      "##/jan": 857,
      "##bl": 858,
      "##68": 859,
      "##ition": 860,
      "ins": 861,
      "##ption": 862,
      "##ised": 863,
      "shred": 864,
      "chinese": 865,
      "pfi-": 866,
      "drum": 867,
      "gener": 868,
      "shredded": 869,
      "(f": 870,
      "ap": 871,
      "bor": 872,
      "cif": 873,
      "do": 874,
      "fil": 875,
      "gr": 876,
      "mar": 877,
      "melt": 878,
      "mak": 879,
      "mould": 880,
      "##ef": 881,
      "##-00": 882,
      "##07": 883,
      "##ps": 884,
      "##/r": 885,
      "##b)": 886,
      "##bon": 887,
      "##inn": 888,
      "##stem": 889,
      "##aly": 890,
      "contain": 891,
      "rem": 892,
      "##ized": 893,
      "conf": 894,
      "blue": 895,
      "neon": 896,
      "(pvt.)": 897,
      "includ": 898,
      "sulph": 899,
      "sqm": 900,
      "melting": 901,
      "(r": 902,
      "dry": 903,
      "ess": 904,
      "gre": 905,
      "hon": 906,
      "m3": 907,
      "vis": 908,
      "##-dec": 909,
      "##cri": 910,
      "##42": 911,
      "##17": 912,
      "##/3": 913,
      "##/co": 914,
      "##fa": 915,
      "##fs": 916,
      "##br": 917,
      "##ick": 918,
      "##inal": 919,
      "indu": 920,
      "##ached": 921,
      "##ential": 922,
      "unit.": 923,
      "minus": 924,
      "system": 925,
      "liter": 926,
      "(4)": 927,
      "assembly": 928,
      "essential": 929,
      "honda": 930,
      "##cription": 931,
      "indust": 932,
      "''": 933,
      "cr": 934,
      "di": 935,
      "line": 936,
      "ter": 937,
      "tur": 938,
      "##mation": 939,
      "##-a": 940,
      "##hyd": 941,
      "##57": 942,
      "##py": 943,
      "##.00": 944,
      "##(s)": 945,
      "nos": 946,
      "##enz": 947,
      "##rol": 948,
      "cold": 949,
      "##irmation": 950,
      "str": 951,
      "comb": 952,
      "orig": 953,
      "##leached": 954,
      "##cose": 955,
      "##ipment": 956,
      "##eltable": 957,
      "##mm)": 958,
      "goods": 959,
      "glass": 960,
      "condition": 961,
      "viscose": 962,
      "(a": 963,
      "(l": 964,
      "(s": 965,
      "(h": 966,
      "cal": 967,
      "np-": 968,
      "sil": 969,
      "sub": 970,
      "we": 971,
      "wid": 972,
      "##eed": 973,
      "##-n": 974,
      "##lt": 975,
      "##l/": 976,
      "##44": 977,
      "##16": 978,
      "##/k": 979,
      "performa": 980,
      "##our": 981,
      "##all": 982,
      "##19120": 983,
      "##lex": 984,
      "##ish": 985,
      "##ular": 986,
      "(poly": 987,
      "##/1912": 988,
      "quot": 989,
      "solar": 990,
      "packaging": 991,
      "description": 992,
      "confirmation": 993,
      "width": 994,
      "(m": 995,
      "ever": 996,
      "hdpe": 997,
      "ii": 998,
      "mon": 999,
      "ser": 1000,
      "tax": 1001,
      "up": 1002,
      "##ied": 1003,
      "##ting": 1004,
      "##ey": 1005,
      "##-p": 1006,
      "##-9": 1007,
      "##ck": 1008,
      "##ose": 1009,
      "##bo": 1010,
      "##67": 1011,
      "##ous": 1012,
      "##star": 1013,
      "##esh": 1014,
      "##abad": 1015,
      "grade)": 1016,
      "rejection": 1017,
      "##ive": 1018,
      "new": 1019,
      "##astic": 1020,
      "carbon": 1021,
      "printing": 1022,
      "##/g/2019": 1023,
      "textile": 1024,
      "motorc": 1025,
      "making": 1026,
      "remeltable": 1027,
      "combed": 1028,
      "quotation": 1029,
      "cg": 1030,
      "cle": 1031,
      "cap": 1032,
      "he": 1033,
      "im": 1034,
      "not": 1035,
      "par": 1036,
      "sa": 1037,
      "##ter": 1038,
      "##-10": 1039,
      "##lam": 1040,
      "##led": 1041,
      "##c/": 1042,
      "##21": 1043,
      "##35": 1044,
      "##kin": 1045,
      "##(+/-": 1046,
      "##ntract": 1047,
      "##ind": 1048,
      "##ane": 1049,
      "##ens": 1050,
      "color": 1051,
      "##000": 1052,
      "##loss": 1053,
      "##age": 1054,
      "chlor": 1055,
      "trans": 1056,
      "vials": 1057,
      "sides": 1058,
      "##-dec-2019.": 1059,
      "(polypropylene": 1060,
      "(n": 1061,
      "11": 1062,
      "aut": 1063,
      "bleached": 1064,
      "cell": 1065,
      "fb": 1066,
      "ht": 1067,
      "knit": 1068,
      "mg": 1069,
      "pan": 1070,
      "year": 1071,
      "##-m": 1072,
      "##46": 1073,
      "##15": 1074,
      "##kd": 1075,
      "##ance": 1076,
      "##isture": 1077,
      "coat": 1078,
      "ster": 1079,
      "plastic": 1080,
      "add": 1081,
      "islam": 1082,
      "liters": 1083,
      "ltd.": 1084,
      "##/ht": 1085,
      "mono": 1086,
      "islamabad": 1087,
      "(6": 1088,
      "13": 1089,
      "ag": 1090,
      "bp": 1091,
      "ec": 1092,
      "fr": 1093,
      "hp": 1094,
      "me": 1095,
      "ncl": 1096,
      "pul": 1097,
      "ro": 1098,
      "sw": 1099,
      "sur": 1100,
      "##vice": 1101,
      "##uary": 1102,
      "##no": 1103,
      "##85": 1104,
      "##75": 1105,
      "##og": 1106,
      "##gas": 1107,
      "##pc": 1108,
      "##/9": 1109,
      "##ff": 1110,
      "##amin": 1111,
      "##ond": 1112,
      "##row": 1113,
      "invoice/co": 1114,
      "##125": 1115,
      "alumin": 1116,
      "moisture": 1117,
      "limited.": 1118,
      "compact": 1119,
      "isri": 1120,
      "machinery": 1121,
      "(polypropylene)": 1122,
      "'kin": 1123,
      "(d": 1124,
      "(c": 1125,
      "19": 1126,
      "26": 1127,
      "bel": 1128,
      "gu": 1129,
      "hcl": 1130,
      "jh": 1131,
      "jpy": 1132,
      "pum": 1133,
      "ron": 1134,
      "sam": 1135,
      "whe": 1136,
      "xpk": 1137,
      "##ep": 1138,
      "##mer": 1139,
      "##mari": 1140,
      "##-l": 1141,
      "##-0": 1142,
      "##-5": 1143,
      "##less": 1144,
      "##30": 1145,
      "##r.": 1146,
      "##/b": 1147,
      "##66": 1148,
      "##itan": 1149,
      "##otco": 1150,
      "inn": 1151,
      "usc": 1152,
      "##ream": 1153,
      "##lect": 1154,
      "lab": 1155,
      "mogas": 1156,
      "dec": 1157,
      "##att)": 1158,
      "ahl": 1159,
      "ahtl": 1160,
      "carton": 1161,
      "eng": 1162,
      "12-12-2019.": 1163,
      "##inning": 1164,
      "turk": 1165,
      "'kinmari": 1166,
      "xpk-": 1167,
      "(b": 1168,
      "02": 1169,
      "03": 1170,
      "4.": 1171,
      "ca": 1172,
      "cents": 1173,
      "hard": 1174,
      "net": 1175,
      "pet": 1176,
      "s5": 1177,
      "tm": 1178,
      "##ech": 1179,
      "##ms": 1180,
      "##-02": 1181,
      "##-03": 1182,
      "##-09": 1183,
      "##-jan": 1184,
      "##ust": 1185,
      "##77": 1186,
      "##25": 1187,
      "##26": 1188,
      "##38": 1189,
      "##39": 1190,
      "##gan": 1191,
      "##pi": 1192,
      "##1b": 1193,
      "##rene": 1194,
      "##xide": 1195,
      "##.s.": 1196,
      "##erg": 1197,
      "##eric": 1198,
      "##ins": 1199,
      "##oth": 1200,
      "##amic": 1201,
      "##oun": 1202,
      "non": 1203,
      "##eter": 1204,
      "##etic": 1205,
      "##ellow": 1206,
      "##ise": 1207,
      "##ult": 1208,
      "##thal": 1209,
      "reg": 1210,
      "ext": 1211,
      "pi003": 1212,
      "##ather": 1213,
      "rolls": 1214,
      "deg": 1215,
      "lite": 1216,
      "ahl-": 1217,
      "powder": 1218,
      "dtex": 1219,
      "leather": 1220,
      "(5)": 1221,
      "x652": 1222,
      "charges": 1223,
      "barrels": 1224,
      "##pakistan": 1225,
      "carded": 1226,
      "borstar": 1227,
      "weight": 1228,
      "sterile": 1229,
      "invoice/contract": 1230,
      "below": 1231,
      "##otco)": 1232,
      "innio": 1233,
      "turkey": 1234,
      "##erican": 1235,
      "(as": 1236,
      "bun": 1237,
      "bbl": 1238,
      "cor": 1239,
      "el": 1240,
      "elect": 1241,
      "fo": 1242,
      "ffa": 1243,
      "lot": 1244,
      "tw": 1245,
      "top": 1246,
      "titan": 1247,
      "wire": 1248,
      "yellow": 1249,
      "##e)": 1250,
      "##ments": 1251,
      "##-x": 1252,
      "##-f": 1253,
      "##-6": 1254,
      "##sd": 1255,
      "##sis": 1256,
      "##cal": 1257,
      "##col": 1258,
      "##56": 1259,
      "##gery": 1260,
      "##/l": 1261,
      "##/10": 1262,
      "##/dec": 1263,
      "##itic": 1264,
      "##pro": 1265,
      "pak": 1266,
      "col": 1267,
      "##0000": 1268,
      "compr": 1269,
      "##iso": 1270,
      "chrom": 1271,
      "##utic": 1272,
      "private": 1273,
      "##axed": 1274,
      "##ember": 1275,
      "(ph": 1276,
      "syn": 1277,
      "palmitic": 1278,
      "##pk19": 1279,
      "end": 1280,
      "##ycle": 1281,
      "##++++++++": 1282,
      "inches": 1283,
      "barrel": 1284,
      "##apeutic": 1285,
      "generation": 1286,
      "(fotco)": 1287,
      "marlex": 1288,
      "including": 1289,
      "##hydrate": 1290,
      "origin": 1291,
      "silic": 1292,
      "motorcycle": 1293,
      "aluminium": 1294,
      "pump": 1295,
      "palmitic)": 1296,
      "(ar": 1297,
      "09": 1298,
      "ant": 1299,
      "bra": 1300,
      "ct": 1301,
      "cert": 1302,
      "cef": 1303,
      "dty": 1304,
      "em": 1305,
      "fin": 1306,
      "fly": 1307,
      "gpt": 1308,
      "jen": 1309,
      "pvt": 1310,
      "qing": 1311,
      "ring": 1312,
      "sg": 1313,
      "##eph": 1314,
      "##-04": 1315,
      "##86": 1316,
      "##47": 1317,
      "##49": 1318,
      "##5-12-2019.": 1319,
      "##100": 1320,
      "##96": 1321,
      "##bach": 1322,
      "##ble": 1323,
      "##qty": 1324,
      "##ork": 1325,
      "nos.": 1326,
      "##ale": 1327,
      "##allo": 1328,
      "##19112": 1329,
      "cost": 1330,
      "mtr": 1331,
      "##ead": 1332,
      "##imum": 1333,
      "##009": 1334,
      "acg": 1335,
      "acud": 1336,
      "##com": 1337,
      "refin": 1338,
      "reels": 1339,
      "meth": 1340,
      "##cium": 1341,
      "typ": 1342,
      "##dao": 1343,
      "##illed": 1344,
      "equal": 1345,
      "equipment": 1346,
      "products": 1347,
      "skd": 1348,
      "##dles": 1349,
      "micron": 1350,
      "suppl": 1351,
      "machines": 1352,
      "medium": 1353,
      "##/jan-20": 1354,
      "sulphate": 1355,
      "industry": 1356,
      "##/kg": 1357,
      "##loss/m": 1358,
      "knitting": 1359,
      "coat''": 1360,
      "##-09-2019.": 1361,
      "##ound": 1362,
      "##thalic": 1363,
      "(arb)": 1364,
      "jenbach": 1365,
      "qingdao": 1366,
      "refined": 1367,
      "jenbacher": 1368,
      "(ther": 1369,
      "(allo": 1370,
      "08": 1371,
      "bin": 1372,
      "bow": 1373,
      "core": 1374,
      "dio": 1375,
      "ft": 1376,
      "feed": 1377,
      "hos": 1378,
      "hong": 1379,
      "ir": 1380,
      "jap": 1381,
      "mod": 1382,
      "rub": 1383,
      "sj": 1384,
      "sing": 1385,
      "ult": 1386,
      "vin": 1387,
      "wood": 1388,
      "##a)": 1389,
      "##air": 1390,
      "##ific": 1391,
      "##t)": 1392,
      "##e/": 1393,
      "##-g": 1394,
      "##ude": 1395,
      "##sf": 1396,
      "##82": 1397,
      "##cy": 1398,
      "##cd": 1399,
      "##43": 1400,
      "##5.": 1401,
      "##par": 1402,
      "##ring": 1403,
      "##/w": 1404,
      "##zil": 1405,
      "##.r.": 1406,
      "##(mm)": 1407,
      "##nth": 1408,
      "##inc": 1409,
      "##anese": 1410,
      "##eng": 1411,
      "proc": 1412,
      "##205": 1413,
      "##19.": 1414,
      "analy": 1415,
      "##ingbo": 1416,
      "##ions": 1417,
      "control": 1418,
      "m.ton.": 1419,
      "##rev": 1420,
      "spinning": 1421,
      "scre": 1422,
      "minimum": 1423,
      "syring": 1424,
      "##pathic)": 1425,
      "##ove": 1426,
      "##ov-2019.": 1427,
      "##/010": 1428,
      "seal": 1429,
      "printed": 1430,
      "(gloss/m": 1431,
      "lev": 1432,
      "film": 1433,
      "crude": 1434,
      "tereph": 1435,
      "calcium": 1436,
      "everzol": 1437,
      "chloride": 1438,
      "pulp": 1439,
      "wheel": 1440,
      "##-jan-2020.": 1441,
      "titanium": 1442,
      "##cal/kg": 1443,
      "brazil": 1444,
      "finish": 1445,
      "(therapeutic": 1446,
      "(allopathic)": 1447,
      "dioxide": 1448,
      "rubber": 1449,
      "syringe": 1450,
      "(gloss/matt)": 1451,
      "terephthalic": 1452,
      "(8": 1453,
      "(9": 1454,
      "05-12-2019.": 1455,
      "10": 1456,
      "16": 1457,
      "aa": 1458,
      "cred": 1459,
      "cps": 1460,
      "ep": 1461,
      "eth": 1462,
      "grow": 1463,
      "h10": 1464,
      "hyd": 1465,
      "kong": 1466,
      "kcal/kg": 1467,
      "late": 1468,
      "ldpe": 1469,
      "po": 1470,
      "sm": 1471,
      "side": 1472,
      "zinc": 1473,
      "##ve": 1474,
      "##-w": 1475,
      "##ux": 1476,
      "##c/2019-20": 1477,
      "##76": 1478,
      "##0)": 1479,
      "##41": 1480,
      "##31": 1481,
      "##55": 1482,
      "##poly": 1483,
      "##101": 1484,
      "##/n": 1485,
      "##zer": 1486,
      "##.a": 1487,
      "##.s": 1488,
      "##.2019": 1489,
      "##out": 1490,
      "ind": 1491,
      "##ann": 1492,
      "##anol": 1493,
      "invert": 1494,
      "##2000": 1495,
      "cool": 1496,
      "##old": 1497,
      "##201912": 1498,
      "##2019120": 1499,
      "##irc": 1500,
      "##ailand": 1501,
      "##ises": 1502,
      "##los": 1503,
      "##/19-20": 1504,
      "##-1911": 1505,
      "concent": 1506,
      "##/162": 1507,
      "pipe": 1508,
      "##ift": 1509,
      "accor": 1510,
      "synth": 1511,
      "denim": 1512,
      "thailand": 1513,
      "dyes": 1514,
      "##ock": 1515,
      "soft": 1516,
      "american": 1517,
      "above": 1518,
      "basis": 1519,
      "containers": 1520,
      "grey": 1521,
      "linear": 1522,
      "##enzing": 1523,
      "(hd": 1524,
      "caps": 1525,
      "auto": 1526,
      "panel": 1527,
      "(6)": 1528,
      "engine": 1529,
      "supply": 1530,
      "analysis": 1531,
      "credit": 1532,
      "growth": 1533,
      "concentrate": 1534,
      "synthetic": 1535,
      "(t": 1536,
      "(+": 1537,
      "(in": 1538,
      "+)": 1539,
      "07": 1540,
      "ara": 1541,
      "back": 1542,
      "blow": 1543,
      "cf": 1544,
      "gc": 1545,
      "gas": 1546,
      "gly": 1547,
      "gai": 1548,
      "hc": 1549,
      "lenzing": 1550,
      "mal": 1551,
      "mid": 1552,
      "mesh": 1553,
      "p/": 1554,
      "rg": 1555,
      "rut": 1556,
      "tj": 1557,
      "term": 1558,
      "tan": 1559,
      "tape": 1560,
      "tech": 1561,
      "ws": 1562,
      "water": 1563,
      "waxed": 1564,
      "yard": 1565,
      "##az": 1566,
      "##ade": 1567,
      "##vc": 1568,
      "##-t": 1569,
      "##-z": 1570,
      "##-co": 1571,
      "##-ap": 1572,
      "##lan": 1573,
      "##sp": 1574,
      "##880": 1575,
      "##cf": 1576,
      "##ced": 1577,
      "##cap": 1578,
      "##rial": 1579,
      "##99": 1580,
      "##/11": 1581,
      "##fl": 1582,
      "##b.)": 1583,
      "##organ": 1584,
      "##atic": 1585,
      "injection": 1586,
      "##end": 1587,
      "##202001": 1588,
      "##pl/s": 1589,
      "##charg": 1590,
      "##-201b": 1591,
      "##coated": 1592,
      "spun": 1593,
      "brass": 1594,
      "##ipper": 1595,
      "##apore": 1596,
      "##aste": 1597,
      "##/pi": 1598,
      "toy": 1599,
      "##530": 1600,
      "##ldpe)": 1601,
      "cd70": 1602,
      "##/ckd": 1603,
      "skins": 1604,
      "##dling": 1605,
      "##ugs": 1606,
      "port/port": 1607,
      "boxes": 1608,
      "na/19": 1609,
      "##ays": 1610,
      "##mponents": 1611,
      "pfi-00": 1612,
      "##/rbd": 1613,
      "container": 1614,
      "included": 1615,
      "industrial": 1616,
      "(a.r.": 1617,
      "##-nov-2019.": 1618,
      "iii": 1619,
      "service": 1620,
      "clean": 1621,
      "(not": 1622,
      "xpk-tr": 1623,
      "##/dec-19": 1624,
      "colour": 1625,
      "typical": 1626,
      "singapore": 1627,
      "ultra": 1628,
      "process": 1629,
      "brazilian": 1630,
      "(+)": 1631,
      "+)qty": 1632,
      "gaipl/s": 1633,
      "malays": 1634,
      "(a.r.b.)": 1635,
      "(incoterms": 1636,
      "(ldpe)": 1637,
      "06": 1638,
      "24": 1639,
      "ak": 1640,
      "aver": 1641,
      "bit": 1642,
      "bab": 1643,
      "ce": 1644,
      "cc": 1645,
      "cry": 1646,
      "circ": 1647,
      "del": 1648,
      "dies": 1649,
      "dream": 1650,
      "ed": 1651,
      "ent": 1652,
      "fer": 1653,
      "fur": 1654,
      "from": 1655,
      "fsc": 1656,
      "gift": 1657,
      "heav": 1658,
      "h.s": 1659,
      "iv": 1660,
      "lin": 1661,
      "less": 1662,
      "light": 1663,
      "mix": 1664,
      "mult": 1665,
      "nc": 1666,
      "oct": 1667,
      "pe": 1668,
      "sv": 1669,
      "ss": 1670,
      "sale": 1671,
      "tin": 1672,
      "terms": 1673,
      "tol": 1674,
      "##aw": 1675,
      "##ik": 1676,
      "##ider": 1677,
      "##tg": 1678,
      "##tpc": 1679,
      "##yon": 1680,
      "##mal": 1681,
      "##-e": 1682,
      "##-8": 1683,
      "##-b": 1684,
      "##up": 1685,
      "##uty": 1686,
      "##li": 1687,
      "##lot": 1688,
      "##su": 1689,
      "##so": 1690,
      "##n11": 1691,
      "##83": 1692,
      "##hm": 1693,
      "##hd": 1694,
      "##72": 1695,
      "##48": 1696,
      "##opl": 1697,
      "##500": 1698,
      "##ge": 1699,
      "##xac": 1700,
      "##/v": 1701,
      "##zan": 1702,
      "##by": 1703,
      "##65": 1704,
      "##600": 1705,
      "##wise": 1706,
      "##era": 1707,
      "##ering": 1708,
      "##ating": 1709,
      "##arant": 1710,
      "##erming": 1711,
      "nov": 1712,
      "##ster": 1713,
      "prop": 1714,
      "##hem": 1715,
      "port.": 1716,
      "##ash": 1717,
      "##oln11": 1718,
      "##ural": 1719,
      "comm": 1720,
      "##pex": 1721,
      "##ree": 1722,
      "##ules": 1723,
      "##ulator": 1724,
      "##lock": 1725,
      "##loxac": 1726,
      "la880": 1727,
      "##use": 1728,
      "rayon": 1729,
      "##-2001": 1730,
      "##odor": 1731,
      "purp": 1732,
      "rev": 1733,
      "metal": 1734,
      "plate": 1735,
      "spc": 1736,
      "shipment": 1737,
      "##estuf": 1738,
      "##ethane": 1739,
      "speed": 1740,
      "mini": 1741,
      "##ipments": 1742,
      "##ified": 1743,
      "mm)": 1744,
      "chem/162": 1745,
      "##/sdl": 1746,
      "##/pak": 1747,
      "deodor": 1748,
      "otherwise": 1749,
      "##udia": 1750,
      "bottl": 1751,
      "cdw": 1752,
      "dyestuf": 1753,
      "##1460": 1754,
      "##290)": 1755,
      "equipments": 1756,
      "cloth": 1757,
      "##/12/2019": 1758,
      "sdr": 1759,
      "##zole": 1760,
      "box)": 1761,
      "goods.": 1762,
      "micro": 1763,
      "drums": 1764,
      "mark": 1765,
      "(r)": 1766,
      "(r290)": 1767,
      "dryer": 1768,
      "terylene": 1769,
      "##-10-2019.": 1770,
      "fb1460": 1771,
      "frit": 1772,
      "surgery": 1773,
      "guarant": 1774,
      "03-12-2019.": 1775,
      "extract": 1776,
      "bundles": 1777,
      "corp": 1778,
      "silicon": 1779,
      "09-12-2019.": 1780,
      "equals": 1781,
      "##ength": 1782,
      "h1045": 1783,
      "latex": 1784,
      "inverter": 1785,
      "p/i": 1786,
      "rutile": 1787,
      "average": 1788,
      "diesel": 1789,
      "heavy": 1790,
      "##tgj": 1791,
      "##tpcr": 1792,
      "##lotrene": 1793,
      "##ermingled": 1794,
      "##loxacin": 1795,
      "bottles": 1796,
      "guaranteed": 1797,
      "(7": 1798,
      "(pl": 1799,
      "(lo": 1800,
      "(co": 1801,
      "(10": 1802,
      "/port": 1803,
      "17": 1804,
      "29": 1805,
      "bales": 1806,
      "bus": 1807,
      "base": 1808,
      "cm": 1809,
      "cent": 1810,
      "each": 1811,
      "ful": 1812,
      "gm": 1813,
      "gra": 1814,
      "gudia": 1815,
      "hy": 1816,
      "hum": 1817,
      "jtgj": 1818,
      "ll": 1819,
      "lov": 1820,
      "mill": 1821,
      "morgan": 1822,
      "num": 1823,
      "ningbo": 1824,
      "out": 1825,
      "pt": 1826,
      "ppr": 1827,
      "pou": 1828,
      "rh": 1829,
      "rice": 1830,
      "rot": 1831,
      "rod": 1832,
      "s.": 1833,
      "sbr": 1834,
      "ten": 1835,
      "test": 1836,
      "wo": 1837,
      "##ah": 1838,
      "##af": 1839,
      "##aire": 1840,
      "##vy": 1841,
      "##ven": 1842,
      "##iol": 1843,
      "##ts": 1844,
      "##ml": 1845,
      "##-h": 1846,
      "##-4": 1847,
      "##land": 1848,
      "##size": 1849,
      "##ness": 1850,
      "##8-11-2019.": 1851,
      "##c)": 1852,
      "##74": 1853,
      "##79": 1854,
      "##24": 1855,
      "##54": 1856,
      "##gi": 1857,
      "##go": 1858,
      "##gr": 1859,
      "##pf": 1860,
      "##rz": 1861,
      "##xpk19": 1862,
      "##/4": 1863,
      "##/5": 1864,
      "##/f": 1865,
      "##/ind": 1866,
      "##fer": 1867,
      "##.i": 1868,
      "##bc": 1869,
      "##k-": 1870,
      "##wing": 1871,
      "##erpr": 1872,
      "##ital": 1873,
      "##inv": 1874,
      "##orator": 1875,
      "##atin": 1876,
      "##ar)": 1877,
      "##ota": 1878,
      "##ame": 1879,
      "##amine": 1880,
      "##ameter": 1881,
      "##print": 1882,
      "##acity": 1883,
      "ash": 1884,
      "use": 1885,
      "##role": 1886,
      "karachi-": 1887,
      "##form": 1888,
      "offs": 1889,
      "##2020": 1890,
      "coal": 1891,
      "mt(+/-": 1892,
      "##ed)": 1893,
      "##ole": 1894,
      "##olat": 1895,
      "##dept": 1896,
      "##1238": 1897,
      "##ray": 1898,
      "##raft": 1899,
      "##enta": 1900,
      "##usion": 1901,
      "set.": 1902,
      "export": 1903,
      "##ible": 1904,
      "##ibond": 1905,
      "(popl": 1906,
      "sheep": 1907,
      "##ivery": 1908,
      "##-1912": 1909,
      "cones": 1910,
      "min.": 1911,
      "##/112": 1912,
      "##ips": 1913,
      "ton.": 1914,
      "sy-ap": 1915,
      "than": 1916,
      "thxpk19": 1917,
      "issu": 1918,
      "##/part": 1919,
      "##/psf": 1920,
      "##230": 1921,
      "art": 1922,
      "##osph": 1923,
      "dyed": 1924,
      "produced": 1925,
      "load": 1926,
      "sewing": 1927,
      "uncoated": 1928,
      "##/min": 1929,
      "disp": 1930,
      "na/1912": 1931,
      "##-rz": 1932,
      "item": 1933,
      "medic": 1934,
      "sided": 1935,
      "20-12-2019.": 1936,
      "pre-f": 1937,
      "inset": 1938,
      "pfi-003": 1939,
      "api": 1940,
      "apb": 1941,
      "sulphur": 1942,
      "original": 1943,
      "(lld": 1944,
      "everlan": 1945,
      "road": 1946,
      "laborator": 1947,
      "december": 1948,
      "petrole": 1949,
      "##ergy": 1950,
      "foil": 1951,
      "two": 1952,
      "compressor": 1953,
      "chrome": 1954,
      "synergy": 1955,
      "sg/19": 1956,
      "micronaire": 1957,
      "japanese": 1958,
      "sjz": 1959,
      "##revised": 1960,
      "cps/": 1961,
      "glycol": 1962,
      "middling": 1963,
      "tj530": 1964,
      "toyota": 1965,
      "services": 1966,
      "baby": 1967,
      "circular": 1968,
      "enterpr": 1969,
      "##zania": 1970,
      "##/sdl/1912": 1971,
      "dyestuffs": 1972,
      "sdrw": 1973,
      "human": 1974,
      "jtgjrz": 1975,
      "lovibond": 1976,
      "number": 1977,
      "offset": 1978,
      "(poplar)": 1979,
      "sy-api-": 1980,
      "issued": 1981,
      "##/psf/ind": 1982,
      "pre-filled": 1983,
      "petroleum": 1984,
      "enterprises": 1985,
      "jtgjrz-rz": 1986,
      "(ld": 1987,
      "14": 1988,
      "22": 1989,
      "23": 1990,
      "5.": 1991,
      "az": 1992,
      "cb": 1993,
      "cit": 1994,
      "cream": 1995,
      "dc": 1996,
      "dig": 1997,
      "dair": 1998,
      "fe": 1999,
      "gs": 2000,
      "jan": 2001,
      "l-": 2002,
      "lyc": 2003,
      "ms": 2004,
      "mf": 2005,
      "mang": 2006,
      "nf": 2007,
      "op": 2008,
      "rm": 2009,
      "sin": 2010,
      "s120": 2011,
      "tp": 2012,
      "tra": 2013,
      "tai": 2014,
      "zipper": 2015,
      "##a19": 2016,
      "##va": 2017,
      "##ii": 2018,
      "##te": 2019,
      "##t.": 2020,
      "##ted": 2021,
      "##me": 2022,
      "##mo": 2023,
      "##meth": 2024,
      "##-pk": 2025,
      "##-inv": 2026,
      "##lc": 2027,
      "##les": 2028,
      "##nect": 2029,
      "##cion": 2030,
      "##cre": 2031,
      "##06": 2032,
      "##ox": 2033,
      "##oz": 2034,
      "##ok": 2035,
      "##318": 2036,
      "##59": 2037,
      "##5b": 2038,
      "##gx": 2039,
      "##po": 2040,
      "##ryl": 2041,
      "##rif": 2042,
      "##rous": 2043,
      "##js)": 2044,
      "##j/2019-20": 2045,
      "##/t": 2046,
      "##/09": 2047,
      "##bk": 2048,
      "##ors": 2049,
      "##oration": 2050,
      "##atch": 2051,
      "##atural": 2052,
      "##arcion": 2053,
      "##outh": 2054,
      "##ouse": 2055,
      "inf": 2056,
      "no.3": 2057,
      "asia": 2058,
      "##ons": 2059,
      "##onent": 2060,
      "##mazol": 2061,
      "kg)": 2062,
      "##19001": 2063,
      "##19.00": 2064,
      "cop": 2065,
      "##hed": 2066,
      "##eable": 2067,
      "##ollow": 2068,
      "##plate": 2069,
      "##pling": 2070,
      "##201911": 2071,
      "##ioned": 2072,
      "steam": 2073,
      "stop": 2074,
      "##pt)": 2075,
      "##pean": 2076,
      "##isc": 2077,
      "rad": 2078,
      "prid": 2079,
      "pure": 2080,
      "recap": 2081,
      "remazol": 2082,
      "bag.": 2083,
      "spar": 2084,
      "spir": 2085,
      "material)": 2086,
      "##ement": 2087,
      "##opp": 2088,
      "##-19120": 2089,
      "(15": 2090,
      "##/1205": 2091,
      "pi/psf/ind": 2092,
      "added": 2093,
      "compound": 2094,
      "component": 2095,
      "thick": 2096,
      "##/2018": 2097,
      "##uff": 2098,
      "##/sub": 2099,
      "##/p-inv": 2100,
      "##oven": 2101,
      "bott": 2102,
      "##/007": 2103,
      "##/001": 2104,
      "##-25": 2105,
      "soe": 2106,
      "under": 2107,
      "amount": 2108,
      "slub": 2109,
      "slugs": 2110,
      "european": 2111,
      "assy": 2112,
      "discharg": 2113,
      "##/hm": 2114,
      "navy": 2115,
      "charger": 2116,
      "##330": 2117,
      "moulded": 2118,
      "''lotrene": 2119,
      "##(s).": 2120,
      "conditioning": 2121,
      "##ose)": 2122,
      "cg125": 2123,
      "impex": 2124,
      "cellular": 2125,
      "##amination": 2126,
      "sampling": 2127,
      "##-019": 2128,
      "##/b01": 2129,
      "ahl/ckd": 2130,
      "02-12-2019.": 2131,
      "regain": 2132,
      "(pharmaceutical": 2133,
      "palmitic)5.": 2134,
      "ctn": 2135,
      "mtrs": 2136,
      "08-01-2020.": 2137,
      "iris": 2138,
      "16-12-2019.": 2139,
      "hydro": 2140,
      "##.2019.": 2141,
      "cooling": 2142,
      "terminal": 2143,
      "tanzania": 2144,
      "##/rbdoln11": 2145,
      "delivery": 2146,
      "deodorised": 2147,
      "corporation": 2148,
      "(loose)": 2149,
      "##/minus": 2150,
      "laboratory": 2151,
      "sg/19/1205": 2152,
      "january": 2153,
      "lycra": 2154,
      "sinarcion": 2155,
      "pridor": 2156,
      "thickness": 2157,
      "''lotrene''": 2158,
      "palmitic)5.0": 2159,
      "(mm)": 2160,
      "(iso": 2161,
      "01": 2162,
      "6.": 2163,
      "af": 2164,
      "bu": 2165,
      "ber": 2166,
      "blo": 2167,
      "bppl": 2168,
      "bct": 2169,
      "bang": 2170,
      "belt": 2171,
      "bopp": 2172,
      "cy": 2173,
      "c(": 2174,
      "clos": 2175,
      "ds": 2176,
      "date": 2177,
      "dou": 2178,
      "dia": 2179,
      "f2": 2180,
      "fract": 2181,
      "fast": 2182,
      "food": 2183,
      "gy": 2184,
      "g5": 2185,
      "js": 2186,
      "jf": 2187,
      "kw": 2188,
      "kraft": 2189,
      "li": 2190,
      "ly": 2191,
      "lc": 2192,
      "lub": 2193,
      "lms": 2194,
      "ment": 2195,
      "mag": 2196,
      "may": 2197,
      "nor": 2198,
      "ox": 2199,
      "over": 2200,
      "pic": 2201,
      "r66": 2202,
      "r/w": 2203,
      "s12": 2204,
      "sem": 2205,
      "s1911": 2206,
      "s16": 2207,
      "sby": 2208,
      "s/sdl/1912": 2209,
      "south": 2210,
      "tc": 2211,
      "tow": 2212,
      "tric": 2213,
      "ur": 2214,
      "u.s.": 2215,
      "waste": 2216,
      "##av": 2217,
      "##aic": 2218,
      "##azole": 2219,
      "##v/2019": 2220,
      "##i/2019-20": 2221,
      "##ijs)": 2222,
      "##to": 2223,
      "##ycl": 2224,
      "##)/2018": 2225,
      "##ece": 2226,
      "##mk": 2227,
      "##-c": 2228,
      "##-7": 2229,
      "##-id": 2230,
      "##-mt": 2231,
      "##-68": 2232,
      "##dance": 2233,
      "##uco": 2234,
      "##let": 2235,
      "##sion": 2236,
      "##87": 2237,
      "##81": 2238,
      "##hy": 2239,
      "##hr": 2240,
      "##her": 2241,
      "##han": 2242,
      "##hpk19": 2243,
      "##ces": 2244,
      "##cell": 2245,
      "##786": 2246,
      "##020": 2247,
      "##400": 2248,
      "##460": 2249,
      "##2)": 2250,
      "##27": 2251,
      "##2b": 2252,
      "##289": 2253,
      "##got": 2254,
      "##gen": 2255,
      "##gical": 2256,
      "##1.": 2257,
      "##912": 2258,
      "##/ex": 2259,
      "##/fa": 2260,
      "##fb": 2261,
      "##69": 2262,
      "##631": 2263,
      "##6fb": 2264,
      "##(t)": 2265,
      "##itch": 2266,
      "##ic/1": 2267,
      "##amp": 2268,
      "##amma": 2269,
      "##amide": 2270,
      "##acet": 2271,
      "##ty)": 2272,
      "##any": 2273,
      "##ank": 2274,
      "##ande": 2275,
      "##enol": 2276,
      "##stall": 2277,
      "prof": 2278,
      "##map": 2279,
      "##max": 2280,
      "kg(": 2281,
      "off": 2282,
      "##200": 2283,
      "##portation": 2284,
      "##eds": 2285,
      "##east": 2286,
      "##olt": 2287,
      "##olar": 2288,
      "##ura": 2289,
      "##ured": 2290,
      "##actor": 2291,
      "##pect": 2292,
      "##ulon": 2293,
      "##116fb": 2294,
      "##log": 2295,
      "##uss": 2296,
      "##usive": 2297,
      "raff": 2298,
      "##-2021": 2299,
      "prim": 2300,
      "press": 2301,
      "plant": 2302,
      "exce": 2303,
      "ex-w": 2304,
      "##102": 2305,
      "spande": 2306,
      "connect": 2307,
      "sc-id": 2308,
      "plus/minus": 2309,
      "blade": 2310,
      "intermingled": 2311,
      "pallet": 2312,
      "##-11bk": 2313,
      "this": 2314,
      "##/2001": 2315,
      "##iaz": 2316,
      "##astatin": 2317,
      "##/pc": 2318,
      "device": 2319,
      "##/009": 2320,
      "cdd": 2321,
      "dyeable": 2322,
      "trb": 2323,
      "so03": 2324,
      "##/misc": 2325,
      "cla": 2326,
      "slider": 2327,
      "##/1219": 2328,
      "##70-04": 2329,
      "product)": 2330,
      "##ycin": 2331,
      "(5.": 2332,
      "its": 2333,
      "charge": 2334,
      "##uminous": 2335,
      "freezer": 2336,
      "(wijs)": 2337,
      "textured": 2338,
      "2019.": 2339,
      "pfi-th": 2340,
      "dope": 2341,
      "##ickled": 2342,
      "strength": 2343,
      "##ltry": 2344,
      "motorcycl": 2345,
      "clear": 2346,
      "note": 2347,
      "sae": 2348,
      "##c/04": 2349,
      "##enser": 2350,
      "transportation": 2351,
      "autom": 2352,
      "##/htj/2019-20": 2353,
      "##/hti/2019-20": 2354,
      "monohydrate": 2355,
      "ecic/1": 2356,
      "switch": 2357,
      "##uary-20": 2358,
      "(dty)": 2359,
      "26-12-2019.": 2360,
      "26-11-2019.": 2361,
      "ahtl/part": 2362,
      "xpk-map": 2363,
      "degree": 2364,
      "ahl-cd": 2365,
      "x652b": 2366,
      "bbls": 2367,
      "elast": 2368,
      "##++++++++++++++++": 2369,
      "certific": 2370,
      "emot": 2371,
      "modules": 2372,
      "screen": 2373,
      "level": 2374,
      "(8)": 2375,
      "point": 2376,
      "accordance": 2377,
      "basis)": 2378,
      "hc116fb": 2379,
      "malaysia": 2380,
      "bituminous": 2381,
      "cryo": 2382,
      "ncv": 2383,
      "oct-2021": 2384,
      "tinplate": 2385,
      "purpose": 2386,
      "(7)": 2387,
      "centrif": 2388,
      "llc/04": 2389,
      "item)": 2390,
      "sjzse": 2391,
      "jtgjrz-rz1912": 2392,
      "dairy": 2393,
      "open": 2394,
      "bottle": 2395,
      "##/hmc/2019-20": 2396,
      "sg/19/1205/01": 2397,
      "blood": 2398,
      "bppl/p-inv": 2399,
      "bctmp": 2400,
      "c(size": 2401,
      "double": 2402,
      "fractions": 2403,
      "mentioned": 2404,
      "normal": 2405,
      "##/fav/2019": 2406,
      "raffia": 2407,
      "ex-work": 2408,
      "spandex": 2409,
      "sc-idhpk19": 2410,
      "motorcycles": 2411,
      "ahl-cd70-04": 2412,
      "certificate": 2413,
      "centrifug": 2414,
      "(v": 2415,
      "(e": 2416,
      "(st": 2417,
      "(11": 2418,
      "/or": 2419,
      "04": 2420,
      "28-11-2019.": 2421,
      "av": 2422,
      "bod": 2423,
      "bill": 2424,
      "benz": 2425,
      "brow": 2426,
      "cer": 2427,
      "cart": 2428,
      "cad": 2429,
      "cable": 2430,
      "ckd": 2431,
      "cpc": 2432,
      "dd": 2433,
      "dn": 2434,
      "dh": 2435,
      "doll": 2436,
      "eg": 2437,
      "fd": 2438,
      "fs": 2439,
      "fir": 2440,
      "fill": 2441,
      "final": 2442,
      "filled": 2443,
      "follow": 2444,
      "factor": 2445,
      "gw": 2446,
      "gent": 2447,
      "garm": 2448,
      "ginn": 2449,
      "gloss": 2450,
      "g.s.": 2451,
      "gold": 2452,
      "hv": 2453,
      "hm": 2454,
      "hd": 2455,
      "hs": 2456,
      "hgx": 2457,
      "if": 2458,
      "imp": 2459,
      "jet": 2460,
      "kva": 2461,
      "lm": 2462,
      "lx": 2463,
      "mem": 2464,
      "matt": 2465,
      "main": 2466,
      "pu": 2467,
      "pot": 2468,
      "pel": 2469,
      "penta": 2470,
      "pickled": 2471,
      "qf": 2472,
      "rfs": 2473,
      "russ": 2474,
      "si": 2475,
      "sn": 2476,
      "siz": 2477,
      "s/9": 2478,
      "ti": 2479,
      "t19": 2480,
      "tel": 2481,
      "tem": 2482,
      "tub": 2483,
      "time": 2484,
      "tri": 2485,
      "ul": 2486,
      "upl": 2487,
      "volat": 2488,
      "wel": 2489,
      "wag": 2490,
      "wip": 2491,
      "wash": 2492,
      "x-": 2493,
      "xn": 2494,
      "yl": 2495,
      "##aine": 2496,
      "##a02": 2497,
      "##ves": 2498,
      "##vastatin": 2499,
      "##ier": 2500,
      "##iel": 2501,
      "##ient": 2502,
      "##ters": 2503,
      "##yer": 2504,
      "##mg": 2505,
      "##mb": 2506,
      "##mers": 2507,
      "##-v": 2508,
      "##-o": 2509,
      "##-j": 2510,
      "##-(": 2511,
      "##-re": 2512,
      "##-18": 2513,
      "##-001": 2514,
      "##-80": 2515,
      "##df": 2516,
      "##dle": 2517,
      "##uc": 2518,
      "##uene": 2519,
      "##uel": 2520,
      "##la": 2521,
      "##l)": 2522,
      "##ll": 2523,
      "##s-01": 2524,
      "##n8": 2525,
      "##not": 2526,
      "##namic": 2527,
      "##8g": 2528,
      "##ht": 2529,
      "##hic": 2530,
      "##hes": 2531,
      "##cc": 2532,
      "##cial": 2533,
      "##012": 2534,
      "##28": 2535,
      "##2.": 2536,
      "##2230": 2537,
      "##opr": 2538,
      "##oil": 2539,
      "##34": 2540,
      "##3.": 2541,
      "##36": 2542,
      "##320": 2543,
      "##301": 2544,
      "##510": 2545,
      "##p/": 2546,
      "##pol": 2547,
      "##ping": 2548,
      "##1x": 2549,
      "##rh": 2550,
      "##rc": 2551,
      "##91": 2552,
      "##/0": 2553,
      "##/23": 2554,
      "##.m": 2555,
      "##.12": 2556,
      "##bu": 2557,
      "##bumin": 2558,
      "##b-pk": 2559,
      "##k/": 2560,
      "##wn": 2561,
      "##wo": 2562,
      "##wan": 2563,
      "##way": 2564,
      "##whm": 2565,
      "##(r": 2566,
      "##que": 2567,
      "##itol": 2568,
      "##ict)": 2569,
      "##ink": 2570,
      "##ines": 2571,
      "##inol": 2572,
      "##inless": 2573,
      "##oring": 2574,
      "##orific": 2575,
      "##ature": 2576,
      "##otov": 2577,
      "ingot": 2578,
      "no(s).": 2579,
      "##anel": 2580,
      "##str": 2581,
      "##alv": 2582,
      "project": 2583,
      "##1900": 2584,
      "##1922": 2585,
      "cover": 2586,
      "##edle": 2587,
      "anhyd": 2588,
      "##ilt": 2589,
      "##ol-t": 2590,
      "##ingang": 2591,
      "##el)": 2592,
      "##004": 2593,
      "##ury": 2594,
      "##urethane": 2595,
      "##ionine": 2596,
      "contamination": 2597,
      "pct.": 2598,
      "##obe": 2599,
      "organ": 2600,
      "pcs.": 2601,
      "##ulated": 2602,
      "##ulation": 2603,
      "##ument": 2604,
      "lading": 2605,
      "polyurethane": 2606,
      "##ialy": 2607,
      "albumin": 2608,
      "##ylon": 2609,
      "photov": 2610,
      "acryl": 2611,
      "##odity": 2612,
      "##ctor": 2613,
      "purified": 2614,
      "##cope": 2615,
      "##ithrom": 2616,
      "refr": 2617,
      "within": 2618,
      "without": 2619,
      "stear": 2620,
      "excell": 2621,
      "bags)": 2622,
      "##103": 2623,
      "##perature": 2624,
      "materials": 2625,
      "shenz": 2626,
      "##-1908": 2627,
      "##rict": 2628,
      "##ether": 2629,
      "cons": 2630,
      "##/18": 2631,
      "##/16": 2632,
      "##/100": 2633,
      "##-01-20": 2634,
      "adhes": 2635,
      "needle": 2636,
      "symb": 2637,
      "##-115": 2638,
      "##adar": 2639,
      "##1801": 2640,
      "stainless": 2641,
      "size(mm)": 2642,
      "##040": 2643,
      "##/po": 2644,
      "##23j": 2645,
      "scrap)": 2646,
      "##ung": 2647,
      "##quid": 2648,
      "##/011": 2649,
      "##451": 2650,
      "##assium": 2651,
      "dynamic": 2652,
      "##ocs": 2653,
      "##ocell": 2654,
      "(prime": 2655,
      "##c-sd": 2656,
      "##50c": 2657,
      "bear": 2658,
      "soy": 2659,
      "loom": 2660,
      "sec": 2661,
      "manufacturer": 2662,
      "(gpt)": 2663,
      "unw": 2664,
      "##/m2": 2665,
      "class": 2666,
      "vial.": 2667,
      "discre": 2668,
      "italy": 2669,
      "x675": 2670,
      "x650c": 2671,
      "medical": 2672,
      "based": 2673,
      "boron": 2674,
      "doz": 2675,
      "filter": 2676,
      "moulding": 2677,
      "##/rpol": 2678,
      "##ized)": 2679,
      "##/components": 2680,
      "dihydrate": 2681,
      "(aocs": 2682,
      "(solar": 2683,
      "(sl)": 2684,
      "calorific": 2685,
      "##191204": 2686,
      "carbonate": 2687,
      "import": 2688,
      "transpar": 2689,
      "11-12-2019.": 2690,
      "fb2230": 2691,
      "knitted": 2692,
      "coating": 2693,
      "13-12-2019.": 2694,
      "agen": 2695,
      "agent": 2696,
      "room": 2697,
      "swrh": 2698,
      "surgical": 2699,
      "##ogy": 2700,
      "19-12-2019.": 2701,
      "jhb": 2702,
      "ahtl/c": 2703,
      "engobe": 2704,
      "(bci": 2705,
      "##-030": 2706,
      "non-": 2707,
      "ahl-whm": 2708,
      "x652a": 2709,
      "##pakistan.": 2710,
      "bundle": 2711,
      "electric": 2712,
      "##geryd": 2713,
      "##proforma": 2714,
      "anti-": 2715,
      "##complete": 2716,
      "vin/112": 2717,
      "##-grade": 2718,
      "controll": 2719,
      "screw": 2720,
      "(9)": 2721,
      "10-12-2019.": 2722,
      "smart": 2723,
      "##polymer": 2724,
      "##.a01": 2725,
      "according": 2726,
      "panels)": 2727,
      "engineering": 2728,
      "rgb-pk": 2729,
      "yards": 2730,
      "##-components": 2731,
      "na/1911": 2732,
      "processed": 2733,
      "gaipl/s/1219": 2734,
      "akulon": 2735,
      "feroz": 2736,
      "liner": 2737,
      "toluene": 2738,
      "##6006": 2739,
      "commodity": 2740,
      "spcc-sd": 2741,
      "##tpcr-r": 2742,
      "(plus": 2743,
      "(10)": 2744,
      "29-11-2019.": 2745,
      "full": 2746,
      "gml/": 2747,
      "poultry": 2748,
      "tenacity": 2749,
      "##bcr": 2750,
      "thxpk19289": 2751,
      "##osphate": 2752,
      "loading": 2753,
      "##revised)": 2754,
      "14-jan-2020.": 2755,
      "digital": 2756,
      "mfi": 2757,
      "taiwan": 2758,
      "stopper": 2759,
      "spares": 2760,
      "spirit": 2761,
      "soe/19": 2762,
      "closed": 2763,
      "liquid": 2764,
      "s191102": 2765,
      "##oltaic": 2766,
      "##-11bk03": 2767,
      "##/pc/pak": 2768,
      "trb-115": 2769,
      "clause": 2770,
      "(5.25": 2771,
      "automatic": 2772,
      "elastane": 2773,
      "sjzse19.00": 2774,
      "brown": 2775,
      "ceramic": 2776,
      "dollar": 2777,
      "gental": 2778,
      "garments": 2779,
      "g.s.t.": 2780,
      "hgx-030": 2781,
      "potassium": 2782,
      "sizes": 2783,
      "s/93": 2784,
      "temperature": 2785,
      "waggeryd": 2786,
      "wipes": 2787,
      "x-ray": 2788,
      "##ol-two": 2789,
      "organic": 2790,
      "photovoltaic": 2791,
      "##ithromycin": 2792,
      "excellent": 2793,
      "symbol-two": 2794,
      "discrep": 2795,
      "transparent": 2796,
      "(am": 2797,
      "(ea": 2798,
      "(12": 2799,
      "(pt": 2800,
      "(ad": 2801,
      "(dept": 2802,
      "+/-": 2803,
      ".complete": 2804,
      "/1238": 2805,
      "/proforma": 2806,
      "18": 2807,
      "15": 2808,
      "27": 2809,
      "48g": 2810,
      "a/c": 2811,
      "a631": 2812,
      "berm": 2813,
      "bet": 2814,
      "ci-": 2815,
      "dl": 2816,
      "dal": 2817,
      "dra": 2818,
      "dod": 2819,
      "dif": 2820,
      "dl-": 2821,
      "duty": 2822,
      "eb": 2823,
      "eff": 2824,
      "fa": 2825,
      "fg": 2826,
      "f1": 2827,
      "fire": 2828,
      "ge": 2829,
      "g3": 2830,
      "gf": 2831,
      "gb": 2832,
      "germ": 2833,
      "ha": 2834,
      "ho": 2835,
      "hr": 2836,
      "h19": 2837,
      "hem": 2838,
      "hom": 2839,
      "h/c": 2840,
      "hour": 2841,
      "h.s.": 2842,
      "iu": 2843,
      "ih": 2844,
      "ig": 2845,
      "ima": 2846,
      "jl": 2847,
      "km": 2848,
      "kor": 2849,
      "kod": 2850,
      "ls": 2851,
      "loc": 2852,
      "l/c": 2853,
      "lips": 2854,
      "ma": 2855,
      "mer": 2856,
      "mel": 2857,
      "more": 2858,
      "mug": 2859,
      "mef": 2860,
      "made": 2861,
      "ni": 2862,
      "nt": 2863,
      "n-": 2864,
      "nim": 2865,
      "nick": 2866,
      "nik": 2867,
      "name": 2868,
      "natural": 2869,
      "nylon": 2870,
      "o-r": 2871,
      "pd": 2872,
      "p1": 2873,
      "pol": 2874,
      "pef": 2875,
      "pvc": 2876,
      "p6006": 2877,
      "rw": 2878,
      "rel": 2879,
      "rack": 2880,
      "rib": 2881,
      "sr": 2882,
      "sf": 2883,
      "sty": 2884,
      "sim": 2885,
      "sel": 2886,
      "sod": 2887,
      "tk": 2888,
      "til": 2889,
      "tab": 2890,
      "t2.": 2891,
      "ue": 2892,
      "uro": 2893,
      "u.m": 2894,
      "ve": 2895,
      "vpt": 2896,
      "wet": 2897,
      "west": 2898,
      "wrap": 2899,
      "ware": 2900,
      "will": 2901,
      "wise": 2902,
      "work": 2903,
      "w/v": 2904,
      "xi": 2905,
      "xingang": 2906,
      "yig": 2907,
      "y-z": 2908,
      "zt": 2909,
      "##v)": 2910,
      "##vey": 2911,
      "##ipl": 2912,
      "##iator": 2913,
      "##tf": 2914,
      "##y/": 2915,
      "##ev": 2916,
      "##eg": 2917,
      "##eal": 2918,
      "##eight": 2919,
      "##m)": 2920,
      "##m/": 2921,
      "##med": 2922,
      "##-53": 2923,
      "##-14": 2924,
      "##-13": 2925,
      "##dd": 2926,
      "##dam": 2927,
      "##uish": 2928,
      "##uah": 2929,
      "##lon": 2930,
      "##las": 2931,
      "##lad": 2932,
      "##sw": 2933,
      "##sor": 2934,
      "##sp-": 2935,
      "##s-co": 2936,
      "##sera": 2937,
      "##sprint": 2938,
      "##ne/": 2939,
      "##88": 2940,
      "##8ac": 2941,
      "##h-": 2942,
      "##hl": 2943,
      "##hw": 2944,
      "##hen": 2945,
      "##hal": 2946,
      "##hamma": 2947,
      "##cm": 2948,
      "##cp": 2949,
      "##caly": 2950,
      "##culated": 2951,
      "##71": 2952,
      "##05": 2953,
      "##4b": 2954,
      "##410": 2955,
      "##o)": 2956,
      "##of": 2957,
      "##3k": 2958,
      "##ga": 2959,
      "##gro": 2960,
      "##grade": 2961,
      "##gc/2019-20": 2962,
      "##pin": 2963,
      "##pst": 2964,
      "##pes": 2965,
      "##pack": 2966,
      "##pura": 2967,
      "##rn": 2968,
      "##rical": 2969,
      "##read": 2970,
      "##97": 2971,
      "##90": 2972,
      "##9120": 2973,
      "##just": 2974,
      "##xb": 2975,
      "##xon": 2976,
      "##xif": 2977,
      "##/us": 2978,
      "##/51": 2979,
      "##/dept": 2980,
      "##/786": 2981,
      "##f.": 2982,
      "##f's": 2983,
      "##flex": 2984,
      "##fied": 2985,
      "##zor": 2986,
      "##ze/": 2987,
      "##.o": 2988,
      "##..": 2989,
      "##.c/": 2990,
      "##bin": 2991,
      "##bb)": 2992,
      "##bleached": 2993,
      "##bury": 2994,
      "##61": 2995,
      "##611": 2996,
      "##660": 2997,
      "##662": 2998,
      "##ke": 2999,
      "##km": 3000,
      "##kn": 3001,
      "##ket": 3002,
      "##kok": 3003,
      "##ware": 3004,
      "##ered": 3005,
      "##erance": 3006,
      "##ities": 3007,
      "##ich": 3008,
      "##icam": 3009,
      "##icle": 3010,
      "##ina": 3011,
      "##inder": 3012,
      "##indles": 3013,
      "##arma": 3014,
      "##anter": 3015,
      "##amen": 3016,
      "##coterm": 3017,
      "##acial": 3018,
      "inject": 3019,
      "inbu": 3020,
      "no8ac": 3021,
      "##anical": 3022,
      "##enamic": 3023,
      "atlas": 3024,
      "no.19": 3025,
      "as/19": 3026,
      "##ones": 3027,
      "##stic": 3028,
      "##stan": 3029,
      "usd1.": 3030,
      "pass": 3031,
      "beneficiarys": 3032,
      "beneficiary.": 3033,
      "##istor": 3034,
      "##isted": 3035,
      "##isting": 3036,
      "##ets": 3037,
      "##20/rbdoln11": 3038,
      "##20460": 3039,
      "##190": 3040,
      "##19-01": 3041,
      "coke": 3042,
      "##ilk": 3043,
      "##imal": 3044,
      "seaportpakistan": 3045,
      "##oline": 3046,
      "kgs(+/-": 3047,
      "##pl19": 3048,
      "##planter": 3049,
      "##008": 3050,
      "##urities": 3051,
      "##1211": 3052,
      "station": 3053,
      "stick": 3054,
      "strict": 3055,
      "##actam": 3056,
      "##ptus": 3057,
      "##013": 3058,
      "##obal": 3059,
      "orang": 3060,
      "orient": 3061,
      "##-2019-12": 3062,
      "##-2019120": 3063,
      "##leece": 3064,
      "##ission": 3065,
      "##ulic": 3066,
      "##ulose": 3067,
      "##chlor": 3068,
      "alk": 3069,
      "##agno": 3070,
      "chf": 3071,
      "index": 3072,
      "##usd": 3073,
      "##iger": 3074,
      "razor": 3075,
      "##-200": 3076,
      "##-201": 3077,
      "##-2018": 3078,
      "phase": 3079,
      "acet": 3080,
      "acetic": 3081,
      "##ppler": 3082,
      "##idazole": 3083,
      "##ction": 3084,
      "purity": 3085,
      "##code": 3086,
      "##cover": 3087,
      "recy": 3088,
      "recover": 3089,
      "metron": 3090,
      "metamin": 3091,
      "applian": 3092,
      "steering": 3093,
      "extr": 3094,
      "m.tons)": 3095,
      "spind": 3096,
      "##pers": 3097,
      "##perse": 3098,
      "##emari": 3099,
      "##oph": 3100,
      "(pack": 3101,
      "sho": 3102,
      "ship": 3103,
      "shall": 3104,
      "shock": 3105,
      "shiel": 3106,
      "##cies": 3107,
      "##/19/10": 3108,
      "shell": 3109,
      "##clud": 3110,
      "condu": 3111,
      "convey": 3112,
      "##025": 3113,
      "mohamma": 3114,
      "moxif": 3115,
      "mining": 3116,
      "##/13": 3117,
      "bles": 3118,
      "bluish": 3119,
      "broth": 3120,
      "##apse": 3121,
      "##-015b": 3122,
      "adjust": 3123,
      "cheese": 3124,
      "check": 3125,
      "specified": 3126,
      "(220460": 3127,
      "##0374": 3128,
      "therm": 3129,
      "thread": 3130,
      "max.": 3131,
      "##/2000": 3132,
      "##phis": 3133,
      "only": 3134,
      "oncol": 3135,
      "iso": 3136,
      "##/sl": 3137,
      "##ixime": 3138,
      "##sm.": 3139,
      "##omer": 3140,
      "##53c": 3141,
      "##/0120/rbdoln11": 3142,
      "##p-35": 3143,
      "##/003": 3144,
      "dye": 3145,
      "##ocoll": 3146,
      "##080": 3147,
      "##/cgc/2019-20": 3148,
      "##-28": 3149,
      "respect": 3150,
      "##191224": 3151,
      "eucaly": 3152,
      "tran": 3153,
      "##132": 3154,
      "##ong/2000": 3155,
      "dtm": 3156,
      "(glos": 3157,
      "(gel)": 3158,
      "##/12-19": 3159,
      "eurostar": 3160,
      "products)": 3161,
      "shanghai/n": 3162,
      "##899": 3163,
      "##/huah": 3164,
      "brightland": 3165,
      "solut": 3166,
      "glacial": 3167,
      "inclusive": 3168,
      "condom": 3169,
      "condenser": 3170,
      "flanel": 3171,
      "x653c": 3172,
      "##5-9": 3173,
      "##191120": 3174,
      "##191112": 3175,
      "12-11-2019.": 3176,
      "##/211": 3177,
      "abm": 3178,
      "absor": 3179,
      "##5835": 3180,
      "(waste": 3181,
      "basf": 3182,
      "package": 3183,
      "power)": 3184,
      "prem": 3185,
      "##/january-20": 3186,
      "ins/12": 3187,
      "insulator": 3188,
      "generas": 3189,
      "generator": 3190,
      "gram": 3191,
      "##-005": 3192,
      "##079": 3193,
      "green": 3194,
      "grease": 3195,
      "##/3112": 3196,
      "##brid": 3197,
      "systems": 3198,
      "diameter": 3199,
      "diagno": 3200,
      "silver": 3201,
      "subst": 3202,
      "submers": 3203,
      "##191209": 3204,
      "(mic": 3205,
      "(matt)": 3206,
      "tax)": 3207,
      "##-pak": 3208,
      "##-902": 3209,
      "##box": 3210,
      "newsprint": 3211,
      "carbonless": 3212,
      "para": 3213,
      "parameter": 3214,
      "safe": 3215,
      "transplanter": 3216,
      "addit": 3217,
      "monoethylene": 3218,
      "13-09-2019.": 3219,
      "frame": 3220,
      "hp08": 3221,
      "pulp-": 3222,
      "##nox": 3223,
      "##125f": 3224,
      "(dry": 3225,
      "(chem": 3226,
      "19-11-2019.": 3227,
      "same": 3228,
      "sample": 3229,
      "##epur": 3230,
      "decimal": 3231,
      "cartons": 3232,
      "02-01-2020.": 3233,
      "cav": 3234,
      "cause": 3235,
      "hardgro": 3236,
      "##3901": 3237,
      "electrical": 3238,
      "lotrene": 3239,
      "compress": 3240,
      "synapse": 3241,
      "endo": 3242,
      "anti": 3243,
      "certified": 3244,
      "cefixime": 3245,
      "##00952": 3246,
      "methanol": 3247,
      "ft6": 3248,
      "japan": 3249,
      "##19.5835": 3250,
      "finish)": 3251,
      "(90": 3252,
      "##ock)": 3253,
      "arauco": 3254,
      "backup": 3255,
      "cfb": 3256,
      "gcea": 3257,
      "gasoil": 3258,
      "wsi": 3259,
      "##/pi/19-20": 3260,
      "na/1910": 3261,
      "xpk-tr2001": 3262,
      "gaipl/s/0120/rbdoln11": 3263,
      "malaysian": 3264,
      "24-12-2019.": 3265,
      "ed-g": 3266,
      "ferro": 3267,
      "further": 3268,
      "svpst": 3269,
      "tolerance": 3270,
      "##utyl": 3271,
      "##hd)": 3272,
      "la880tr": 3273,
      "rev1": 3274,
      "metalized": 3275,
      "plates": 3276,
      "surgery/": 3277,
      "grain": 3278,
      "hybrid": 3279,
      "s.b": 3280,
      "sbr/dept": 3281,
      "##ferent": 3282,
      "karachi-pakistan.": 3283,
      "dispos": 3284,
      "apb/2": 3285,
      "cps/03": 3286,
      "cps/04": 3287,
      "lovibond)": 3288,
      "sy-api-10": 3289,
      "22-11-2019.": 3290,
      "azithromycin": 3291,
      "cb125f": 3292,
      "dcmm": 3293,
      "manganese": 3294,
      "trading": 3295,
      "##methionine": 3296,
      "##oxy": 3297,
      "infusion": 3298,
      "copco": 3299,
      "radiator": 3300,
      "pi/psf/ind/9": 3301,
      "discharge)": 3302,
      "##330p-35": 3303,
      "buyer": 3304,
      "bangkok": 3305,
      "gyne/": 3306,
      "jsc-": 3307,
      "luban": 3308,
      "pict": 3309,
      "s166": 3310,
      "s/sdl/1912/rpol": 3311,
      "urethane": 3312,
      "##ces/": 3313,
      "##2bs": 3314,
      "##acetam": 3315,
      "##stalline": 3316,
      "##logy/": 3317,
      "bppl/p-inv/12-19": 3318,
      "(stock)": 3319,
      "fd0374": 3320,
      "first": 3321,
      "filler": 3322,
      "factory": 3323,
      "ginned": 3324,
      "golden": 3325,
      "impurities": 3326,
      "lx191120": 3327,
      "memphis": 3328,
      "matter": 3329,
      "russian": 3330,
      "upl-2020": 3331,
      "volatile": 3332,
      "yl330p-35": 3333,
      "##a021x": 3334,
      "##s-01mk": 3335,
      "##hicles": 3336,
      "##.12.2019.": 3337,
      "##k/45": 3338,
      "##(r)": 3339,
      "ingots": 3340,
      "anhydrous": 3341,
      "acrylic": 3342,
      "refriger": 3343,
      "shenzhen": 3344,
      "adhesive": 3345,
      "(prime)": 3346,
      "bearing": 3347,
      "second": 3348,
      "unwaxed": 3349,
      "x675tpcr-r": 3350,
      "agencies": 3351,
      "ahtl/chem": 3352,
      "ahl-whm-019": 3353,
      "anti-sera": 3354,
      "controller": 3355,
      "ferozepur": 3356,
      "dollars": 3357,
      "discrepant": 3358,
      "(american": 3359,
      "(ea3k": 3360,
      "(12bb)": 3361,
      "(pta)": 3362,
      "(adb)": 3363,
      "(depth": 3364,
      "48gsm.": 3365,
      "a63119.5835": 3366,
      "bermocoll": 3367,
      "ci-29": 3368,
      "different": 3369,
      "dl-methionine": 3370,
      "effect": 3371,
      "germany": 3372,
      "h19sw": 3373,
      "hours": 3374,
      "h.s.code": 3375,
      "image": 3376,
      "jlp": 3377,
      "korea": 3378,
      "lipsol": 3379,
      "melamine": 3380,
      "mughal": 3381,
      "mefenamic": 3382,
      "o-ring": 3383,
      "pefc": 3384,
      "self": 3385,
      "tabs": 3386,
      "ue-902": 3387,
      "urology/": 3388,
      "u.m.": 3389,
      "vehicles": 3390,
      "westbury": 3391,
      "xiamen": 3392,
      "yigli": 3393,
      "##ealed": 3394,
      "##ladesh": 3395,
      "##s-coc-": 3396,
      "inbuilt": 3397,
      "no8aca021x": 3398,
      "usd1.320": 3399,
      "sticker": 3400,
      "orange": 3401,
      "oriented": 3402,
      "##chloride": 3403,
      "metronidazole": 3404,
      "metamino": 3405,
      "appliances/": 3406,
      "extrusion": 3407,
      "spindle": 3408,
      "##cluding": 3409,
      "conveyor": 3410,
      "mohammad": 3411,
      "moxifloxacin": 3412,
      "oncology": 3413,
      "respectiv": 3414,
      "eucalyptus": 3415,
      "(gloss)": 3416,
      "shanghai/ningbo": 3417,
      "##/huahong/2000": 3418,
      "absorber": 3419,
      "diagnostic": 3420,
      "submersible": 3421,
      "causeway": 3422,
      "hardgrove": 3423,
      "gaipl/s/0120/rbdoln1158": 3424,
      "svpst/pi/19-20": 3425,
      "sbr/dept.c/": 3426,
      "s/sdl/1912/rpol18": 3427,
      "yl330p-35b": 3428,
      "(ea3khd)": 3429,
      "a63119.58359": 3430,
      "mughalpura": 3431,
      "'a": 3432,
      "(k": 3433,
      "(ac": 3434,
      "(20": 3435,
      "(im": 3436,
      "(us": 3437,
      "(cl": 3438,
      "(fe": 3439,
      "(bl": 3440,
      "(revised)": 3441,
      "-1": 3442,
      "-2019": 3443,
      "05-": 3444,
      "18-11-2019.": 3445,
      "31": 3446,
      "5100": 3447,
      "7.": 3448,
      "apr": 3449,
      "aal": 3450,
      "aid": 3451,
      "aft": 3452,
      "ba": 3453,
      "bd": 3454,
      "bob": 3455,
      "band": 3456,
      "bci": 3457,
      "bio": 3458,
      "brom": 3459,
      "bank": 3460,
      "ci": 3461,
      "c-": 3462,
      "c.": 3463,
      "count": 3464,
      "can": 3465,
      "cel": 3466,
      "cyl": 3467,
      "cab": 3468,
      "case": 3469,
      "crate": 3470,
      "du": 3471,
      "dj": 3472,
      "dro": 3473,
      "doc": 3474,
      "dell": 3475,
      "dust": 3476,
      "dialy": 3477,
      "es": 3478,
      "ef": 3479,
      "eco": 3480,
      "esc": 3481,
      "e1b": 3482,
      "fit": 3483,
      "face": 3484,
      "fcl": 3485,
      "flex": 3486,
      "fuel": 3487,
      "fleece": 3488,
      "gear": 3489,
      "g-e": 3490,
      "hb": 3491,
      "hk": 3492,
      "har": 3493,
      "hma": 3494,
      "hil": 3495,
      "hol": 3496,
      "h-3": 3497,
      "h-6": 3498,
      "hsd": 3499,
      "id": 3500,
      "io": 3501,
      "ice": 3502,
      "jis": 3503,
      "jsd": 3504,
      "ky": 3505,
      "kl": 3506,
      "ks": 3507,
      "kn": 3508,
      "kore": 3509,
      "kemari": 3510,
      "lu": 3511,
      "lk": 3512,
      "lor": 3513,
      "lea": 3514,
      "long": 3515,
      "lug": 3516,
      "l-p": 3517,
      "l500": 3518,
      "listed": 3519,
      "my": 3520,
      "mc": 3521,
      "mount": 3522,
      "mers": 3523,
      "must": 3524,
      "merg": 3525,
      "mrc": 3526,
      "milk": 3527,
      "nl": 3528,
      "nit": 3529,
      "nether": 3530,
      "os": 3531,
      "oc": 3532,
      "o/": 3533,
      "opt": 3534,
      "oper": 3535,
      "old": 3536,
      "oile": 3537,
      "pn": 3538,
      "p7": 3539,
      "por": 3540,
      "pac": 3541,
      "pen": 3542,
      "ple": 3543,
      "pib": 3544,
      "piv": 3545,
      "p/01": 3546,
      "pesh": 3547,
      "q-": 3548,
      "ry": 3549,
      "rn": 3550,
      "rb": 3551,
      "rpl": 3552,
      "roc": 3553,
      "read": 3554,
      "r662": 3555,
      "sor": 3556,
      "sar": 3557,
      "spr": 3558,
      "ston": 3559,
      "spl": 3560,
      "s03": 3561,
      "squ": 3562,
      "sell": 3563,
      "tu": 3564,
      "t/": 3565,
      "trade": 3566,
      "tcl": 3567,
      "tire": 3568,
      "taz": 3569,
      "t-80": 3570,
      "unt": 3571,
      "ucf": 3572,
      "vx": 3573,
      "vit": 3574,
      "vac": 3575,
      "wn": 3576,
      "wp": 3577,
      "wx": 3578,
      "wq": 3579,
      "was": 3580,
      "wis": 3581,
      "watt": 3582,
      "wc-": 3583,
      "xl": 3584,
      "x1912": 3585,
      "yar": 3586,
      "zh": 3587,
      "##ae": 3588,
      "##a.": 3589,
      "##a1912": 3590,
      "##a-r": 3591,
      "##vo": 3592,
      "##vir": 3593,
      "##v/2019-20": 3594,
      "##v-a": 3595,
      "##i)": 3596,
      "##ifici": 3597,
      "##iet": 3598,
      "##ification": 3599,
      "##tx": 3600,
      "##tern": 3601,
      "##t/2019-20": 3602,
      "##y-": 3603,
      "##yj": 3604,
      "##yro": 3605,
      "##ylo": 3606,
      "##).": 3607,
      "##e19": 3608,
      "##ept": 3609,
      "##eans": 3610,
      "##eve": 3611,
      "##even": 3612,
      "##met": 3613,
      "##ml-": 3614,
      "##ml/": 3615,
      "##-d": 3616,
      "##-ac": 3617,
      "##-120": 3618,
      "##-23": 3619,
      "##-08": 3620,
      "##-br": 3621,
      "##-ii": 3622,
      "##dn": 3623,
      "##d/": 3624,
      "##dul": 3625,
      "##d/s": 3626,
      "##dom": 3627,
      "##ule": 3628,
      "##uh-": 3629,
      "##ls": 3630,
      "##lob": 3631,
      "##sk": 3632,
      "##s01": 3633,
      "##sine": 3634,
      "##sco": 3635,
      "##s23": 3636,
      "##ns": 3637,
      "##np": 3638,
      "##nan": 3639,
      "##nes": 3640,
      "##nace": 3641,
      "##84": 3642,
      "##800": 3643,
      "##8/2019": 3644,
      "##8-a": 3645,
      "##8000": 3646,
      "##8(t)": 3647,
      "##hb": 3648,
      "##hk": 3649,
      "##hpt": 3650,
      "##hc-": 3651,
      "##house": 3652,
      "##cg": 3653,
      "##cer": 3654,
      "##count": 3655,
      "##con": 3656,
      "##cel": 3657,
      "##c191112": 3658,
      "##7-": 3659,
      "##7cf": 3660,
      "##4c": 3661,
      "##420": 3662,
      "##4/19": 3663,
      "##409": 3664,
      "##245": 3665,
      "##229": 3666,
      "##251": 3667,
      "##oate": 3668,
      "##32": 3669,
      "##3/2019": 3670,
      "##375": 3671,
      "##3-25": 3672,
      "##5e": 3673,
      "##5/2019": 3674,
      "##502": 3675,
      "##550": 3676,
      "##gz": 3677,
      "##gin": 3678,
      "##gest": 3679,
      "##gs-coc-": 3680,
      "##pp": 3681,
      "##p1": 3682,
      "##pb": 3683,
      "##pat": 3684,
      "##perm": 3685,
      "##ped": 3686,
      "##p/211": 3687,
      "##119": 3688,
      "##1/2019": 3689,
      "##rl": 3690,
      "##rin": 3691,
      "##ram": 3692,
      "##ril": 3693,
      "##ration": 3694,
      "##rine": 3695,
      "##riaz": 3696,
      "##ritol": 3697,
      "##901": 3698,
      "##909": 3699,
      "##ji": 3700,
      "##jz": 3701,
      "##x3": 3702,
      "##x6": 3703,
      "##/8": 3704,
      "##/fe": 3705,
      "##/ldpe": 3706,
      "##/ass": 3707,
      "##/08": 3708,
      "##/52": 3709,
      "##/east": 3710,
      "##far": 3711,
      "##fect": 3712,
      "##f-x": 3713,
      "##za": 3714,
      "##ze": 3715,
      "##zar": 3716,
      "##.2": 3717,
      "##.p": 3718,
      "##.r": 3719,
      "##.20": 3720,
      "##b/": 3721,
      "##bb": 3722,
      "##ban": 3723,
      "##block": 3724,
      "##batch": 3725,
      "##64": 3726,
      "##601": 3727,
      "##6/g/2019": 3728,
      "##62000": 3729,
      "##kp": 3730,
      "##k33": 3731,
      "##kiso": 3732,
      "##kmo": 3733,
      "##work": 3734,
      "##wcd": 3735,
      "##eral": 3736,
      "##itor": 3737,
      "##itom": 3738,
      "##ico": 3739,
      "##ication": 3740,
      "##iness": 3741,
      "##orvastatin": 3742,
      "##at)": 3743,
      "##atl": 3744,
      "##arbon": 3745,
      "##ote": 3746,
      "##oto": 3747,
      "##amb": 3748,
      "##amil": 3749,
      "##aments": 3750,
      "##pran": 3751,
      "##acqu": 3752,
      "##aclor": 3753,
      "##acitor": 3754,
      "ink": 3755,
      "instr": 3756,
      "incoterm": 3757,
      "##ated.": 3758,
      "##anufactur": 3759,
      "##eno": 3760,
      "##ener": 3761,
      "##ended": 3762,
      "##enance": 3763,
      "##ency": 3764,
      "atorvastatin": 3765,
      "no.03": 3766,
      "no.1238": 3767,
      "no.wcd": 3768,
      "##orthy": 3769,
      "ask/45": 3770,
      "##onide": 3771,
      "usa": 3772,
      "used": 3773,
      "usa19": 3774,
      "##room": 3775,
      "benef's": 3776,
      "##als": 3777,
      "##alate": 3778,
      "beneficiery": 3779,
      "##ister": 3780,
      "invoice/": 3781,
      "##etir": 3782,
      "##etch": 3783,
      "##2023j": 3784,
      "##195": 3785,
      "##1902": 3786,
      "##port/2019": 3787,
      "co.": 3788,
      "copy": 3789,
      "copolymer": 3790,
      "cocon": 3791,
      "##hel": 3792,
      "##hest": 3793,
      "mtons": 3794,
      "##eda": 3795,
      "port(s)": 3796,
      "##asound": 3797,
      "##ashed": 3798,
      "##eak": 3799,
      "##ility": 3800,
      "##ilized)": 3801,
      "##imin": 3802,
      "##201910": 3803,
      "##2019112": 3804,
      "##ely": 3805,
      "##0001": 3806,
      "##0053": 3807,
      "##urance": 3808,
      "##123": 3809,
      "##125-": 3810,
      "##122bs": 3811,
      "##irab": 3812,
      "stated": 3813,
      "stre": 3814,
      "start": 3815,
      "stamp": 3816,
      "##raulic": 3817,
      "compl": 3818,
      "##016": 3819,
      "form": 3820,
      "orth": 3821,
      "detal": 3822,
      "detect": 3823,
      "##ations": 3824,
      "##reated": 3825,
      "##rees": 3826,
      "##ales/ex": 3827,
      "pcs/": 3828,
      "##110": 3829,
      "la611": 3830,
      "polymer": 3831,
      "polypro": 3832,
      "polyster": 3833,
      "##ial)": 3834,
      "ali": 3835,
      "alath": 3836,
      "al-re": 3837,
      "alriaz": 3838,
      "##ylac": 3839,
      "##ylla": 3840,
      "##agement": 3841,
      "##ign": 3842,
      "##uts": 3843,
      "##uting": 3844,
      "pharm": 3845,
      "phenol": 3846,
      "phosphate": 3847,
      "##ario": 3848,
      "##ab)": 3849,
      "##aben": 3850,
      "##ability": 3851,
      "##thritol": 3852,
      "mts(+/-": 3853,
      "##idgest": 3854,
      "grade.": 3855,
      "rece": 3856,
      "lb.": 3857,
      "exxon": 3858,
      "##10a": 3859,
      "##10mm)": 3860,
      "space": 3861,
      "spk33": 3862,
      "##axone": 3863,
      "cotton)": 3864,
      "(pict)": 3865,
      "##/19/12": 3866,
      "##/19/huahong/2000": 3867,
      "##ives": 3868,
      "##-19.": 3869,
      "##ethyl": 3870,
      "(100": 3871,
      "(10000": 3872,
      "spec)": 3873,
      "special": 3874,
      "##cled": 3875,
      "##027": 3876,
      "monit": 3877,
      "moder": 3878,
      "sc2019120": 3879,
      "eur8": 3880,
      "##/14": 3881,
      "##/153": 3882,
      "##/151": 3883,
      "##centre": 3884,
      "piper": 3885,
      "pi/g": 3886,
      "##olla": 3887,
      "bridgest": 3888,
      "limits": 3889,
      "##-01/2019": 3890,
      "##erythritol": 3891,
      "ne21": 3892,
      "##031": 3893,
      "comput": 3894,
      "##-1119": 3895,
      "##exas": 3896,
      "chemcentre": 3897,
      "that": 3898,
      "three": 3899,
      "##ube": 3900,
      "##lysine": 3901,
      "##188": 3902,
      "##18(t)": 3903,
      "##/200": 3904,
      "##anger": 3905,
      "##ia)": 3906,
      "##intermingled": 3907,
      "##intenance": 3908,
      "##/sgs-coc-": 3909,
      "##/sales/ex": 3910,
      "dew": 3911,
      "lbs.": 3912,
      "##unication": 3913,
      "##535": 3914,
      "##riaxone": 3915,
      "machine-s": 3916,
      "cargo": 3917,
      "##akh": 3918,
      "##oscope": 3919,
      "ltd22": 3920,
      "##ainst": 3921,
      "##/004": 3922,
      "##/002": 3923,
      "manso": 3924,
      "management": 3925,
      "##/cust": 3926,
      "rolled/g": 3927,
      "cross": 3928,
      "(300": 3929,
      "resist": 3930,
      "result": 3931,
      "##141": 3932,
      "##191219": 3933,
      "fabrics": 3934,
      "eu)": 3935,
      "usp42": 3936,
      "##131": 3937,
      "##dec-2019.": 3938,
      "##eavoring": 3939,
      "seat": 3940,
      "separ": 3941,
      "seeds": 3942,
      "manufacturers": 3943,
      "##-30": 3944,
      "##-3/4": 3945,
      "uniso": 3946,
      "uneven": 3947,
      "##406": 3948,
      "##/manufactur": 3949,
      "amd/s": 3950,
      "clamp": 3951,
      "slit": 3952,
      "type)": 3953,
      "euro.": 3954,
      "(4409": 3955,
      "leban": 3956,
      "##707cf": 3957,
      "production": 3958,
      "##dpe)": 3959,
      "##200107": 3960,
      "disodium": 3961,
      "##ugan": 3962,
      "##893": 3963,
      "##/g/2020": 3964,
      "(+/-10mm)": 3965,
      "##ftriaxone": 3966,
      "soleda": 3967,
      "incoterms-201": 3968,
      "manufacturing/ass": 3969,
      "micum": 3970,
      "na99": 3971,
      "suit": 3972,
      "super": 3973,
      "suction": 3974,
      "flu": 3975,
      "flx": 3976,
      "flat": 3977,
      "fluff": 3978,
      "flav": 3979,
      "it/l": 3980,
      "##191101": 3981,
      "m27": 3982,
      "##mpact": 3983,
      "##trasound": 3984,
      "(w/w": 3985,
      "(weight": 3986,
      "(washed": 3987,
      "basic": 3988,
      "mlldpe": 3989,
      "20-11-2019.": 3990,
      "insulation": 3991,
      "doppler": 3992,
      "films": 3993,
      "filters": 3994,
      "gran": 3995,
      "grid": 3996,
      "grind": 3997,
      "gr/m2": 3998,
      "##-002": 3999,
      "##-009": 4000,
      "##071": 4001,
      "##/rm/": 4002,
      "sulphon": 4003,
      "greater": 4004,
      "##421": 4005,
      "''not": 4006,
      "diam": 4007,
      "##-a)": 4008,
      "##577": 4009,
      "strip": 4010,
      "stretch": 4011,
      "struts": 4012,
      "(lab)": 4013,
      "(hs": 4014,
      "(hdpe)": 4015,
      "sub-components": 4016,
      "##-nf": 4017,
      "##449": 4018,
      "##4400": 4019,
      "width(mm)": 4020,
      "(min": 4021,
      "(med": 4022,
      "quotations": 4023,
      "capacity": 4024,
      "capacitor": 4025,
      "heat": 4026,
      "heater": 4027,
      "paraf": 4028,
      "sapt": 4029,
      "##terdam": 4030,
      "##ension": 4031,
      "chlorate": 4032,
      "(non": 4033,
      "11-11-2019.": 4034,
      "cell)": 4035,
      "cellulose": 4036,
      "htv-a": 4037,
      "##15-3": 4038,
      "sterilized)": 4039,
      "##/htv/2019-20": 4040,
      "##/htt/2019-20": 4041,
      "13-01-2020.": 4042,
      "against": 4043,
      "hp11": 4044,
      "hp2023j": 4045,
      "roque": 4046,
      "surf": 4047,
      "##ogical": 4048,
      "alumina": 4049,
      "(chest": 4050,
      "19-dec-2019.": 4051,
      "guard": 4052,
      "whey": 4053,
      "##-l-2019-12": 4054,
      "##-55": 4055,
      "ahtl/misc": 4056,
      "(bp": 4057,
      "(biol": 4058,
      "network": 4059,
      "extension": 4060,
      "degrees": 4061,
      "ahl-cg": 4062,
      "dtex/51": 4063,
      "corolla": 4064,
      "electro": 4065,
      "lotion": 4066,
      "pakstan": 4067,
      "(pharma": 4068,
      "(photo": 4069,
      "silico": 4070,
      "antis": 4071,
      "ctcp": 4072,
      "cefaclor": 4073,
      "##1006": 4074,
      "acg19001": 4075,
      "methylene": 4076,
      "types": 4077,
      "micronized": 4078,
      "bowc": 4079,
      "module": 4080,
      "sjv": 4081,
      "vin/5": 4082,
      "wooden": 4083,
      "##airport": 4084,
      "##205tf": 4085,
      "spinning''": 4086,
      "##/010/hti/2019-20": 4087,
      "(80000": 4088,
      "10-01-2020.": 4089,
      "aa-grade": 4090,
      "ethylene": 4091,
      "ethanol": 4092,
      "##poly)": 4093,
      "##1016": 4094,
      "##.a00": 4095,
      "indones": 4096,
      "##annel": 4097,
      "##annealed": 4098,
      "cooled": 4099,
      "##20191223": 4100,
      "software": 4101,
      "(in-h": 4102,
      "(including": 4103,
      "07-11-2019.": 4104,
      "07-01-2020.": 4105,
      "ara/19/huahong/2000": 4106,
      "blowroom": 4107,
      "hc205tf": 4108,
      "tank": 4109,
      "techn": 4110,
      "ws18": 4111,
      "yard.": 4112,
      "##-zm": 4113,
      "##/11/2019": 4114,
      "##endeavoring": 4115,
      "##20200108": 4116,
      "pfi-004": 4117,
      "xpk-tr912": 4118,
      "processing": 4119,
      "akuh-": 4120,
      "ceftriaxone": 4121,
      "cc3-25": 4122,
      "crystalline": 4123,
      "furnace": 4124,
      "link": 4125,
      "multi": 4126,
      "##awa": 4127,
      "##awar": 4128,
      "##-e1": 4129,
      "##-850": 4130,
      "##hman": 4131,
      "##/vial)": 4132,
      "propylene": 4133,
      "la880t": 4134,
      "chem/1626": 4135,
      "market": 4136,
      "marking": 4137,
      "##tpcr-201b": 4138,
      "17-12-2019.": 4139,
      "17-09-2019.": 4140,
      "business": 4141,
      "fully": 4142,
      "mills": 4143,
      "ptml-": 4144,
      "pouch": 4145,
      "rhoph": 4146,
      "rotary": 4147,
      "rotterdam": 4148,
      "##.i/2": 4149,
      "##italopr": 4150,
      "##formed": 4151,
      "##olata-r": 4152,
      "##/1129": 4153,
      "medicines": 4154,
      "medicaments": 4155,
      "tj530-201b": 4156,
      "sy-api-9": 4157,
      "22-nov-2019.": 4158,
      "23-12-2019.": 4159,
      "citric": 4160,
      "citrate": 4161,
      "gsn8": 4162,
      "l-lysine": 4163,
      "msr": 4164,
      "tp/rm/": 4165,
      "##ouse/cust": 4166,
      "copper": 4167,
      "(150000": 4168,
      "##uffed": 4169,
      "discharge": 4170,
      "ahl/ckd/009": 4171,
      "hydrochloride": 4172,
      "01-01-2020.": 4173,
      "01-03": 4174,
      "f2122bs": 4175,
      "lyocell": 4176,
      "oxalate": 4177,
      "r6618(t)": 4178,
      "s12318": 4179,
      "semi": 4180,
      "semi-": 4181,
      "sby-850": 4182,
      "tricot": 4183,
      "##/exp/211": 4184,
      "kg(4": 4185,
      "primary": 4186,
      "exceed": 4187,
      "exceeds": 4188,
      "so0353": 4189,
      "sae1006": 4190,
      "jtgjrz-rz191212": 4191,
      "ex-works": 4192,
      "sc-idhpk1901": 4193,
      "ahl-cd70-040": 4194,
      "ahl-cd70-041": 4195,
      "centrifuge": 4196,
      "centrifugal": 4197,
      "(11)": 4198,
      "04-12-2019.": 4199,
      "avg": 4200,
      "body": 4201,
      "benzene": 4202,
      "cpcm": 4203,
      "following": 4204,
      "glossy": 4205,
      "hvsp-": 4206,
      "pentaerythritol": 4207,
      "qfze/": 4208,
      "sn-3": 4209,
      "ti/786": 4210,
      "t19yj": 4211,
      "tubes": 4212,
      "ultrasound": 4213,
      "##-(89": 4214,
      "##/019": 4215,
      "##inolone": 4216,
      "##alvannealed": 4217,
      "stearic": 4218,
      "consisting": 4219,
      "non-intermingled": 4220,
      "smart4": 4221,
      "gaipl/s/1219/rbdoln11": 4222,
      "gml/ai": 4223,
      "##/pc/pak/9": 4224,
      "s/93/19": 4225,
      "15-11-2019.": 4226,
      "27-12-2019.": 4227,
      "gbp": 4228,
      "kodak": 4229,
      "maintenance": 4230,
      "niax": 4231,
      "nickel": 4232,
      "nikkiso": 4233,
      "pd60": 4234,
      "p1c": 4235,
      "poli": 4236,
      "racks": 4237,
      "style": 4238,
      "warehouse": 4239,
      "##lon''": 4240,
      "##pin200": 4241,
      "##/used": 4242,
      "injectable": 4243,
      "##pl19/1129": 4244,
      "strictly": 4245,
      "alkyl": 4246,
      "acetonide": 4247,
      "recycled": 4248,
      "(package": 4249,
      "shield": 4250,
      "##/19/10-2": 4251,
      "conductor": 4252,
      "brothers": 4253,
      "cheese-z": 4254,
      "thermo": 4255,
      "dyeing": 4256,
      "##132-e1": 4257,
      "solutions": 4258,
      "abm-9": 4259,
      "premises": 4260,
      "ins/122000": 4261,
      "substation": 4262,
      "(micron": 4263,
      "cavity": 4264,
      "wsi85": 4265,
      "xpk-tr200108": 4266,
      "disposable": 4267,
      "jsc-46": 4268,
      "bppl/p-inv/12-19/01": 4269,
      "memphis/east": 4270,
      "refrigerated": 4271,
      "effected": 4272,
      "metamino(r)": 4273,
      "(feed": 4274,
      "05-dec-2019.": 4275,
      "510053": 4276,
      "aal/ckd": 4277,
      "biofar": 4278,
      "cylinder": 4279,
      "crates": 4280,
      "drop": 4281,
      "escitalopr": 4282,
      "e1b3901": 4283,
      "fitting": 4284,
      "g-epl19/1129": 4285,
      "hilux": 4286,
      "h-350": 4287,
      "idylla": 4288,
      "jsddd": 4289,
      "korean": 4290,
      "lupran": 4291,
      "l-p.i/2": 4292,
      "l5005": 4293,
      "mersin": 4294,
      "merge": 4295,
      "mrc/sales/ex": 4296,
      "nlgi": 4297,
      "netherland": 4298,
      "optical": 4299,
      "old/used": 4300,
      "oilein": 4301,
      "p715-3": 4302,
      "poram": 4303,
      "pibt": 4304,
      "peshawar": 4305,
      "rb707cf": 4306,
      "ready": 4307,
      "r6628(t)": 4308,
      "stone": 4309,
      "square": 4310,
      "seller": 4311,
      "t/olata-r": 4312,
      "tcl-l-2019-12": 4313,
      "tire(s)": 4314,
      "untreated": 4315,
      "ucf/19/10-2": 4316,
      "vxl/": 4317,
      "vitamin": 4318,
      "wq1922": 4319,
      "wisdom": 4320,
      "##yrogen": 4321,
      "##scopes": 4322,
      "##/febr": 4323,
      "##f-xc191112": 4324,
      "##6200004": 4325,
      "##kmoff": 4326,
      "##amil/2": 4327,
      "instrument": 4328,
      "no.wcdf-xc191112": 4329,
      "beneficiery's": 4330,
      "coconut": 4331,
      "street": 4332,
      "starter": 4333,
      "alathon": 4334,
      "al-rehman": 4335,
      "sc201912000": 4336,
      "bridgestone": 4337,
      "ltd22kmoff": 4338,
      "mansoor": 4339,
      "rolled/galvannealed": 4340,
      "results": 4341,
      "separator": 4342,
      "unisoft": 4343,
      "(440920": 4344,
      "lebanon": 4345,
      "manufacturing/assembly": 4346,
      "na99001": 4347,
      "(w/w)": 4348,
      "grindability": 4349,
      "paraffin": 4350,
      "(biological": 4351,
      "ahl-cg125-": 4352,
      "indonesian": 4353,
      "(in-house/cust": 4354,
      "akuh-bd": 4355,
      "cc3-25)": 4356,
      "rhophylac": 4357,
      "tp/rm/6200004": 4358,
      "hvsp-a1912": 4359,
      "qfze/amil/2": 4360,
      "ti/786/52": 4361,
      "memphis/eastern": 4362,
      "escitalopram": 4363,
      "lupranate": 4364,
      "mrc/sales/export/2019": 4365,
      "(in-house/customer": 4366,
      "'lotrene": 4367,
      "'not": 4368,
      "(q": 4369,
      "(nit": 4370,
      "(ra": 4371,
      "(yl": 4372,
      "(em": 4373,
      "(un": 4374,
      "(50": 4375,
      "(at)": 4376,
      "(ia)": 4377,
      "(endeavoring": 4378,
      "+m": 4379,
      "++": 4380,
      "+qty": 4381,
      "+++++++++++++++++": 4382,
      "-grade": 4383,
      "-1016": 4384,
      "/co": 4385,
      "/123": 4386,
      "15-12-2019.": 4387,
      "21": 4388,
      "30": 4389,
      "8.": 4390,
      "9.": 4391,
      "@ib": 4392,
      "a)": 4393,
      "ae": 4394,
      "a7": 4395,
      "ax": 4396,
      "aux": 4397,
      "apex": 4398,
      "a-grade": 4399,
      "bt": 4400,
      "b)": 4401,
      "bm": 4402,
      "bf": 4403,
      "bb": 4404,
      "bir": 4405,
      "bare": 4406,
      "bc-": 4407,
      "ball": 4408,
      "berg": 4409,
      "b/l": 4410,
      "bold": 4411,
      "block": 4412,
      "b54": 4413,
      "batch": 4414,
      "butyl": 4415,
      "cj": 4416,
      "cat": 4417,
      "city": 4418,
      "cou": 4419,
      "cac": 4420,
      "clo": 4421,
      "cig": 4422,
      "cut": 4423,
      "ccl": 4424,
      "cels": 4425,
      "cyc": 4426,
      "cane": 4427,
      "cult": 4428,
      "c(mm)": 4429,
      "cvc": 4430,
      "csp": 4431,
      "df": 4432,
      "dz": 4433,
      "der": 4434,
      "dor": 4435,
      "dat": 4436,
      "das": 4437,
      "dil": 4438,
      "dim": 4439,
      "dul": 4440,
      "dow": 4441,
      "dip": 4442,
      "dap": 4443,
      "dext": 4444,
      "daw": 4445,
      "e/": 4446,
      "ez": 4447,
      "est": 4448,
      "e02": 4449,
      "ether": 4450,
      "ery": 4451,
      "east": 4452,
      "emer": 4453,
      "even": 4454,
      "fi": 4455,
      "fc": 4456,
      "fj": 4457,
      "fnt": 4458,
      "fat": 4459,
      "fort": 4460,
      "fum": 4461,
      "fem": 4462,
      "f-11": 4463,
      "f04": 4464,
      "fos": 4465,
      "four": 4466,
      "fall": 4467,
      "f00952": 4468,
      "gi": 4469,
      "g1": 4470,
      "gj": 4471,
      "gro": 4472,
      "gal": 4473,
      "gel": 4474,
      "gul": 4475,
      "glo": 4476,
      "garn": 4477,
      "gun": 4478,
      "g-m": 4479,
      "g/m2": 4480,
      "him": 4481,
      "hab": 4482,
      "hex": 4483,
      "hps": 4484,
      "hfa": 4485,
      "hno": 4486,
      "head": 4487,
      "hsf": 4488,
      "hole": 4489,
      "hollow": 4490,
      "hanger": 4491,
      "iod": 4492,
      "ici": 4493,
      "imm": 4494,
      "ibc": 4495,
      "i251": 4496,
      "ja": 4497,
      "jy": 4498,
      "jo": 4499,
      "jub": 4500,
      "jun": 4501,
      "joc": 4502,
      "jaf": 4503,
      "jkm": 4504,
      "ka": 4505,
      "kh": 4506,
      "kr": 4507,
      "kit": 4508,
      "kic": 4509,
      "kot": 4510,
      "khd": 4511,
      "k245": 4512,
      "ld": 4513,
      "lw": 4514,
      "lene": 4515,
      "let": 4516,
      "lid": 4517,
      "lith": 4518,
      "liv": 4519,
      "lmt": 4520,
      "lcy": 4521,
      "lcd": 4522,
      "lux": 4523,
      "length": 4524,
      "lons": 4525,
      "lung": 4526,
      "lamb": 4527,
      "lacqu": 4528,
      "mp": 4529,
      "mb": 4530,
      "mk": 4531,
      "mat": 4532,
      "men": 4533,
      "mir": 4534,
      "mast": 4535,
      "marg": 4536,
      "mpa": 4537,
      "mc/": 4538,
      "m(+/-": 4539,
      "male": 4540,
      "mold": 4541,
      "mcap": 4542,
      "m06": 4543,
      "mdf": 4544,
      "nx": 4545,
      "nb": 4546,
      "nk": 4547,
      "nic": 4548,
      "nas": 4549,
      "nine": 4550,
      "nbr": 4551,
      "ngr": 4552,
      "nlc": 4553,
      "n079": 4554,
      "nylo": 4555,
      "od": 4556,
      "our": 4557,
      "option": 4558,
      "oxide": 4559,
      "oli": 4560,
      "pv": 4561,
      "pm": 4562,
      "pid": 4563,
      "psm": 4564,
      "pom": 4565,
      "pell": 4566,
      "p-9": 4567,
      "p85": 4568,
      "p82": 4569,
      "pmg": 4570,
      "p-v": 4571,
      "p.o": 4572,
      "pyrogen": 4573,
      "qs": 4574,
      "qsm": 4575,
      "qte": 4576,
      "r5": 4577,
      "rx": 4578,
      "rea": 4579,
      "rob": 4580,
      "ros": 4581,
      "r40": 4582,
      "r-9": 4583,
      "round": 4584,
      "r-68": 4585,
      "reno": 4586,
      "s2": 4587,
      "sb": 4588,
      "sach": 4589,
      "sed": 4590,
      "sob": 4591,
      "sum": 4592,
      "sppl": 4593,
      "seam": 4594,
      "sap": 4595,
      "sry": 4596,
      "sint": 4597,
      "sun": 4598,
      "site": 4599,
      "sug": 4600,
      "sens": 4601,
      "s125": 4602,
      "sock": 4603,
      "satin": 4604,
      "s191204": 4605,
      "sxb": 4606,
      "ta": 4607,
      "tt": 4608,
      "tou": 4609,
      "tim": 4610,
      "tpt": 4611,
      "tob": 4612,
      "tre": 4613,
      "trol": 4614,
      "tied": 4615,
      "tso": 4616,
      "t500": 4617,
      "ut": 4618,
      "ug": 4619,
      "ups": 4620,
      "uhb": 4621,
      "ukp": 4622,
      "vt": 4623,
      "vs": 4624,
      "verm": 4625,
      "vol": 4626,
      "vir": 4627,
      "vess": 4628,
      "vib": 4629,
      "very": 4630,
      "via": 4631,
      "vide": 4632,
      "veter": 4633,
      "v600": 4634,
      "vcm": 4635,
      "wa": 4636,
      "wv": 4637,
      "wy": 4638,
      "w19": 4639,
      "wax": 4640,
      "wap": 4641,
      "woven": 4642,
      "wdf": 4643,
      "worthy": 4644,
      "x1": 4645,
      "xr": 4646,
      "yd": 4647,
      "yh": 4648,
      "yk": 4649,
      "yant": 4650,
      "ybd": 4651,
      "zy": 4652,
      "zg": 4653,
      "##aa": 4654,
      "##a5": 4655,
      "##akistan": 4656,
      "##apl": 4657,
      "##apt": 4658,
      "##apt)": 4659,
      "##val": 4660,
      "##vel": 4661,
      "##vis": 4662,
      "##vest": 4663,
      "##vers": 4664,
      "##via": 4665,
      "##ie": 4666,
      "##iac": 4667,
      "##ius": 4668,
      "##i-12": 4669,
      "##iop": 4670,
      "##iery": 4671,
      "##ihydrate": 4672,
      "##t2": 4673,
      "##tp": 4674,
      "##tj": 4675,
      "##tes": 4676,
      "##the": 4677,
      "##tra": 4678,
      "##tag": 4679,
      "##tax": 4680,
      "##test": 4681,
      "##t-11bk03": 4682,
      "##yr": 4683,
      "##yme": 4684,
      "##)g": 4685,
      "##)cc": 4686,
      "##ee": 4687,
      "##ema": 4688,
      "##eom": 4689,
      "##e22": 4690,
      "##m-": 4691,
      "##min": 4692,
      "##mob": 4693,
      "##m/2019-20": 4694,
      "##minal": 4695,
      "##m100": 4696,
      "##mosph": 4697,
      "##m/001": 4698,
      "##m91": 4699,
      "##-i": 4700,
      "##-q": 4701,
      "##-ty": 4702,
      "##-p-": 4703,
      "##-ass": 4704,
      "##-oc": 4705,
      "##-003": 4706,
      "##-75": 4707,
      "##-ins": 4708,
      "##-thal": 4709,
      "##-pakistan": 4710,
      "##-76": 4711,
      "##db": 4712,
      "##dw": 4713,
      "##d19": 4714,
      "##dpl": 4715,
      "##dies": 4716,
      "##d-10": 4717,
      "##d/b": 4718,
      "##dins": 4719,
      "##d/exp/211": 4720,
      "##d-ins": 4721,
      "##uk": 4722,
      "##unt": 4723,
      "##uit": 4724,
      "##ual": 4725,
      "##uct": 4726,
      "##u18": 4727,
      "##uario": 4728,
      "##lac": 4729,
      "##lis": 4730,
      "##lif": 4731,
      "##ltd": 4732,
      "##lber": 4733,
      "##l-2": 4734,
      "##link": 4735,
      "##laben": 4736,
      "##lakh": 4737,
      "##sa": 4738,
      "##sn": 4739,
      "##s4": 4740,
      "##ser": 4741,
      "##son": 4742,
      "##set": 4743,
      "##sea": 4744,
      "##sop": 4745,
      "##s/1": 4746,
      "##sik": 4747,
      "##samine": 4748,
      "##sole": 4749,
      "##ne": 4750,
      "##nn": 4751,
      "##nated": 4752,
      "##nese": 4753,
      "##nov-2019.": 4754,
      "##8.": 4755,
      "##8-20": 4756,
      "##8/19": 4757,
      "##hort": 4758,
      "##had": 4759,
      "##hup": 4760,
      "##cs": 4761,
      "##c2": 4762,
      "##cb": 4763,
      "##can": 4764,
      "##c01": 4765,
      "##core": 4766,
      "##cry": 4767,
      "##c/3": 4768,
      "##cobal": 4769,
      "##carbon": 4770,
      "##cinolone": 4771,
      "##78": 4772,
      "##7c": 4773,
      "##700": 4774,
      "##701": 4775,
      "##7/19": 4776,
      "##760": 4777,
      "##726": 4778,
      "##7205": 4779,
      "##0/20": 4780,
      "##070": 4781,
      "##0-s": 4782,
      "##4a": 4783,
      "##4)": 4784,
      "##412": 4785,
      "##4/2019": 4786,
      "##402": 4787,
      "##440": 4788,
      "##4a19": 4789,
      "##4/sl": 4790,
      "##2/2019": 4791,
      "##2/19": 4792,
      "##213": 4793,
      "##258": 4794,
      "##279": 4795,
      "##2rn": 4796,
      "##oy": 4797,
      "##oj": 4798,
      "##oma": 4799,
      "##oper": 4800,
      "##oci": 4801,
      "##o25": 4802,
      "##ofl": 4803,
      "##37": 4804,
      "##319": 4805,
      "##302": 4806,
      "##3-x": 4807,
      "##3/january-20": 4808,
      "##501": 4809,
      "##5/19": 4810,
      "##5/2020": 4811,
      "##5mk": 4812,
      "##gd": 4813,
      "##g3": 4814,
      "##ger": 4815,
      "##gard": 4816,
      "##gue": 4817,
      "##gak": 4818,
      "##g-10": 4819,
      "##gage": 4820,
      "##g-m": 4821,
      "##gement": 4822,
      "##gladesh": 4823,
      "##pty": 4824,
      "##pan": 4825,
      "##pal": 4826,
      "##pet": 4827,
      "##pea": 4828,
      "##pel": 4829,
      "##put": 4830,
      "##pper": 4831,
      "##pp-": 4832,
      "##pc-": 4833,
      "##pose": 4834,
      "##p/9": 4835,
      "##poln11": 4836,
      "##penta": 4837,
      "##p-1908": 4838,
      "##p)g": 4839,
      "##1/19": 4840,
      "##150": 4841,
      "##1001": 4842,
      "##158": 4843,
      "##1p/": 4844,
      "##1g3": 4845,
      "##rs": 4846,
      "##res": 4847,
      "##rid": 4848,
      "##rub": 4849,
      "##r-1": 4850,
      "##rm/2019-20": 4851,
      "##94": 4852,
      "##92": 4853,
      "##93": 4854,
      "##95": 4855,
      "##9112": 4856,
      "##ja": 4857,
      "##jm": 4858,
      "##j01": 4859,
      "##xg": 4860,
      "##xin": 4861,
      "##xing": 4862,
      "##x-5": 4863,
      "##xanol": 4864,
      "##/it": 4865,
      "##/in": 4866,
      "##/re": 4867,
      "##/02": 4868,
      "##/se": 4869,
      "##/29": 4870,
      "##/bl": 4871,
      "##/no": 4872,
      "##/56": 4873,
      "##/af": 4874,
      "##/oj": 4875,
      "##f)": 4876,
      "##fz": 4877,
      "##fine": 4878,
      "##fib": 4879,
      "##fix": 4880,
      "##fos": 4881,
      "##fc)": 4882,
      "##f132-e1": 4883,
      "##zt": 4884,
      "##zh": 4885,
      "##zin": 4886,
      "##z19": 4887,
      "##z-l": 4888,
      "##zyme": 4889,
      "##zd-10": 4890,
      "##.e": 4891,
      "##.k": 4892,
      "##.01": 4893,
      "##.11": 4894,
      "##.co": 4895,
      "##.10": 4896,
      "##.52": 4897,
      "##.375": 4898,
      "##bul": 4899,
      "##bine": 4900,
      "##bies": 4901,
      "##b-2": 4902,
      "##b-1": 4903,
      "##bgi": 4904,
      "##bn8": 4905,
      "##bitol": 4906,
      "##bactam": 4907,
      "##beans": 4908,
      "##620": 4909,
      "##6/2019": 4910,
      "##602": 4911,
      "##645": 4912,
      "##644": 4913,
      "##699": 4914,
      "##kot": 4915,
      "##k/1": 4916,
      "##kong": 4917,
      "##krc": 4918,
      "##wl": 4919,
      "##wil": 4920,
      "##wear": 4921,
      "##wt-11bk03": 4922,
      "##(t": 4923,
      "##(id": 4924,
      "##(ef": 4925,
      "##(ps": 4926,
      "##(max": 4927,
      "##(revised)": 4928,
      "##(usd": 4929,
      "##(i)": 4930,
      "##(p)g": 4931,
      "##q-m": 4932,
      "##+r.": 4933,
      "##er-": 4934,
      "##erz": 4935,
      "##erum": 4936,
      "##ere)": 4937,
      "##erapeutic": 4938,
      "##er/components": 4939,
      "##erbatch": 4940,
      "##ntact": 4941,
      "##itin": 4942,
      "##itab": 4943,
      "##ittag": 4944,
      "##icul": 4945,
      "##icitab": 4946,
      "##inate": 4947,
      "##inated": 4948,
      "##inary": 4949,
      "##inid": 4950,
      "##inod": 4951,
      "##inda": 4952,
      "##in-s": 4953,
      "##inding": 4954,
      "##in/3": 4955,
      "##oro": 4956,
      "##orus": 4957,
      "##orld": 4958,
      "##ording": 4959,
      "##orage": 4960,
      "##orocell": 4961,
      "##ices": 4962,
      "##atron": 4963,
      "##atment": 4964,
      "##atform": 4965,
      "##arton": 4966,
      "##arine": 4967,
      "##arket": 4968,
      "perip": 4969,
      "perkin": 4970,
      "##anti": 4971,
      "##otax": 4972,
      "##otect": 4973,
      "##otwear": 4974,
      "##ates": 4975,
      "##amo": 4976,
      "##am19": 4977,
      "##amber": 4978,
      "##amcinolone": 4979,
      "##prm": 4980,
      "##prid": 4981,
      "##prase": 4982,
      "##prov": 4983,
      "##pros": 4984,
      "##preg": 4985,
      "##oug": 4986,
      "##oup": 4987,
      "##aces": 4988,
      "##aclo": 4989,
      "##acill": 4990,
      "inh": 4991,
      "inco": 4992,
      "inorgan": 4993,
      "incre": 4994,
      "install": 4995,
      "informed": 4996,
      "no12": 4997,
      "nominal": 4998,
      "##aned": 4999,
      "##analy": 5000,
      "##anized": 5001,
      "##ening": 5002,
      "##ence": 5003,
      "at3": 5004,
      "at-s": 5005,
      "atenol": 5006,
      "atusd": 5007,
      "atmosph": 5008,
      "no.8": 5009,
      "no.9": 5010,
      "no.p-": 5011,
      "no.33": 5012,
      "no.(s)": 5013,
      "no.pi": 5014,
      "no.mg": 5015,
      "no.hw": 5016,
      "no.hk": 5017,
      "no.4400": 5018,
      "no.tj": 5019,
      "no.f132-e1": 5020,
      "no.zt": 5021,
      "##ortuary": 5022,
      "aspa": 5023,
      "asept": 5024,
      "ascore": 5025,
      "##ste": 5026,
      "##stal": 5027,
      "##stone": 5028,
      "##strev": 5029,
      "##st19.00": 5030,
      "usda": 5031,
      "usd.": 5032,
      "##rox": 5033,
      "##rose": 5034,
      "##ropo": 5035,
      "##rod-ins": 5036,
      "##roitin": 5037,
      "pay": 5038,
      "pad": 5039,
      "pair": 5040,
      "paint": 5041,
      "##ficiency": 5042,
      "##ali": 5043,
      "##ald": 5044,
      "##alized": 5045,
      "##alabad": 5046,
      "##al2019120": 5047,
      "##alculated": 5048,
      "##istol": 5049,
      "karachi/": 5050,
      "progr": 5051,
      "pro-13": 5052,
      "##master": 5053,
      "##former": 5054,
      "invoices": 5055,
      "proformas": 5056,
      "ofloxacin": 5057,
      "offer": 5058,
      "##ets)": 5059,
      "##etone": 5060,
      "##ette": 5061,
      "##2011": 5062,
      "##2002": 5063,
      "##20-01": 5064,
      "##20g-10": 5065,
      "##197": 5066,
      "##19g": 5067,
      "##1945": 5068,
      "##19/12": 5069,
      "cosm": 5070,
      "coom": 5071,
      "coexas": 5072,
      "cowl": 5073,
      "##es)": 5074,
      "##esistor": 5075,
      "##hea": 5076,
      "##hever": 5077,
      "##hexanol": 5078,
      "mton": 5079,
      "mtas": 5080,
      "mtr.": 5081,
      "mtml/": 5082,
      "##ased": 5083,
      "##aspan": 5084,
      "angladesh": 5085,
      "##ili": 5086,
      "##iler": 5087,
      "##ilers": 5088,
      "##ilding": 5089,
      "##il-1911": 5090,
      "##ims": 5091,
      "##imate": 5092,
      "##imet": 5093,
      "##tons": 5094,
      "seablock": 5095,
      "##olol": 5096,
      "and/": 5097,
      "##dehy": 5098,
      "##plene": 5099,
      "##plast": 5100,
      "##eling": 5101,
      "##ello": 5102,
      "##elpi": 5103,
      "##el/10": 5104,
      "##005": 5105,
      "##00.": 5106,
      "##00645": 5107,
      "m/t": 5108,
      "m/e)": 5109,
      "##ures": 5110,
      "##uration": 5111,
      "##uryl": 5112,
      "##urpose": 5113,
      "##ional": 5114,
      "##12.": 5115,
      "##iran": 5116,
      "sting": 5117,
      "stra": 5118,
      "stud": 5119,
      "stkm": 5120,
      "stuffed": 5121,
      "storage": 5122,
      "states": 5123,
      "##active": 5124,
      "##enty": 5125,
      "commer": 5126,
      "##ptop": 5127,
      "##014": 5128,
      "##0102": 5129,
      "##01/g/2019": 5130,
      "##pec": 5131,
      "##obactam": 5132,
      "##obutyl": 5133,
      "fork": 5134,
      "##-2019/20": 5135,
      "united": 5136,
      "units)": 5137,
      "contract/": 5138,
      "##olymer": 5139,
      "##ley": 5140,
      "##le/manufactur": 5141,
      "##iset": 5142,
      "##isole": 5143,
      "##ispers": 5144,
      "##isalabad": 5145,
      "m/ton)cc": 5146,
      "##ula": 5147,
      "##ulin": 5148,
      "##ulux": 5149,
      "airport-": 5150,
      "##chb": 5151,
      "##chanical": 5152,
      "##113": 5153,
      "##112019": 5154,
      "##1101": 5155,
      "##111b": 5156,
      "##load": 5157,
      "##loc-": 5158,
      "##lozin": 5159,
      "last": 5160,
      "laem": 5161,
      "ladies": 5162,
      "lauryl": 5163,
      "polylink": 5164,
      "along": 5165,
      "altern": 5166,
      "##ylhexanol": 5167,
      "##aga": 5168,
      "##aglif": 5169,
      "chab": 5170,
      "chese": 5171,
      "chick": 5172,
      "chond": 5173,
      "chips": 5174,
      "channel": 5175,
      "chittag": 5176,
      "chamber": 5177,
      "##us/2019": 5178,
      "##ushed": 5179,
      "##usher": 5180,
      "##iguration": 5181,
      "raf": 5182,
      "rapi": 5183,
      "rabb": 5184,
      "##-2012": 5185,
      "##-2009": 5186,
      "##-20-3": 5187,
      "pho25": 5188,
      "##aries": 5189,
      "ace": 5190,
      "acessor": 5191,
      "ace/": 5192,
      "acp/": 5193,
      "ackn": 5194,
      "##th(s)": 5195,
      "##thropo": 5196,
      "prd": 5197,
      "prc": 5198,
      "pres": 5199,
      "protect": 5200,
      "lahore/n": 5201,
      "##ido": 5202,
      "##iddling": 5203,
      "##idaclo": 5204,
      "##ardcoated": 5205,
      "##odules": 5206,
      "##odialy": 5207,
      "##odimet": 5208,
      "##ctro": 5209,
      "##ctif": 5210,
      "##ct.2019.": 5211,
      "##ine)": 5212,
      "##ineph": 5213,
      "##cofix": 5214,
      "ref": 5215,
      "re-m": 5216,
      "recom": 5217,
      "re-re": 5218,
      "re420": 5219,
      "rectif": 5220,
      "setting": 5221,
      "pla": 5222,
      "ply": 5223,
      "place": 5224,
      "plain": 5225,
      "pl/in": 5226,
      "platform": 5227,
      "applicable": 5228,
      "applicant'": 5229,
      "exp": 5230,
      "exoline": 5231,
      "##-1219-01": 5232,
      "##ibra": 5233,
      "##ibout": 5234,
      "steel)": 5235,
      "sp/t": 5236,
      "spindles": 5237,
      "sphc-": 5238,
      "spp-1908": 5239,
      "spices": 5240,
      "spelpi": 5241,
      "material/sub": 5242,
      "##emicitab": 5243,
      "##artrate": 5244,
      "##opments": 5245,
      "##op-p-": 5246,
      "##op/it": 5247,
      "##opolymer": 5248,
      "(pns": 5249,
      "show": 5250,
      "should": 5251,
      "shah": 5252,
      "shawa": 5253,
      "shunt": 5254,
      "##/19/": 5255,
      "pharmaceuticals": 5256,
      "##estuario": 5257,
      "##ers/": 5258,
      "##owled": 5259,
      "sheik": 5260,
      "##ivr": 5261,
      "##ivity": 5262,
      "##ived": 5263,
      "##-19/1": 5264,
      "##-19-0": 5265,
      "##-19-02": 5266,
      "##-19/09": 5267,
      "##ethrin": 5268,
      "(16": 5269,
      "(160": 5270,
      "(1000": 5271,
      "spectro": 5272,
      "##cl)": 5273,
      "##clusive": 5274,
      "conc": 5275,
      "##023": 5276,
      "##02k": 5277,
      "##02/00": 5278,
      "m/s.da": 5279,
      "scann": 5280,
      "sc/5": 5281,
      "sc/23": 5282,
      "scrub": 5283,
      "mineral": 5284,
      "partial": 5285,
      "##ight)": 5286,
      "##/133": 5287,
      "seaport/any": 5288,
      "seaport/airport": 5289,
      "pi-": 5290,
      "pima": 5291,
      "pi-s": 5292,
      "pi-2001": 5293,
      "pi-pak": 5294,
      "pi/oj": 5295,
      "blend": 5296,
      "blusher": 5297,
      "brt": 5298,
      "break": 5299,
      "##iph": 5300,
      "##ip19/12": 5301,
      "##ipurpose": 5302,
      "##ify": 5303,
      "##ife": 5304,
      "##-016": 5305,
      "##-01-2019.": 5306,
      "adb": 5307,
      "paperbo": 5308,
      "paper-oc": 5309,
      "inter": 5310,
      "tongue": 5311,
      "tonello": 5312,
      "nevia": 5313,
      "syz19": 5314,
      "denier": 5315,
      "##032": 5316,
      "##033": 5317,
      "##036": 5318,
      "##03-1": 5319,
      "percent)": 5320,
      "percent/": 5321,
      "roller": 5322,
      "allied": 5323,
      "specification(": 5324,
      "##add": 5325,
      "##adin-s": 5326,
      "thar": 5327,
      "then": 5328,
      "thai": 5329,
      "thous": 5330,
      "thyr": 5331,
      "therapeutic": 5332,
      "##180": 5333,
      "##1822": 5334,
      "##18.375": 5335,
      "max)": 5336,
      "##/2009": 5337,
      "##/20/00": 5338,
      "##iao": 5339,
      "##+++": 5340,
      "##phite": 5341,
      "stahl": 5342,
      "##045": 5343,
      "##043-x": 5344,
      "##1201": 5345,
      "##aixin": 5346,
      "##astol": 5347,
      "##idelber": 5348,
      "##/sp": 5349,
      "##/sea": 5350,
      "##/sca": 5351,
      "##/s/09": 5352,
      "##/srm/2019-20": 5353,
      "##/pf": 5354,
      "defect": 5355,
      "devel": 5356,
      "##237": 5357,
      "##236": 5358,
      "##23nn": 5359,
      "##23/2009": 5360,
      "standards": 5361,
      "tool": 5362,
      "toatl": 5363,
      "##i-f": 5364,
      "##i-pro": 5365,
      "##ova": 5366,
      "##oval": 5367,
      "lbs(usd": 5368,
      "##und": 5369,
      "##unog": 5370,
      "##un-f": 5371,
      "##unsea": 5372,
      "##ixed": 5373,
      "##sm)": 5374,
      "##smart": 5375,
      "##smission": 5376,
      "##omat": 5377,
      "##ometer": 5378,
      "##ronic": 5379,
      "coated)": 5380,
      "##533": 5381,
      "##eltam": 5382,
      "##0901": 5383,
      "##/017": 5384,
      "##/01/2020": 5385,
      "carbox": 5386,
      "coil(max": 5387,
      "##oses": 5388,
      "##osul": 5389,
      "##ain)": 5390,
      "##p-3": 5391,
      "##/008": 5392,
      "##/006": 5393,
      "cdx": 5394,
      "##ocaine": 5395,
      "##dazole": 5396,
      "##/cast": 5397,
      "##/cpo": 5398,
      "##/carton": 5399,
      "dated.29": 5400,
      "##berth": 5401,
      "##-210a": 5402,
      "reser": 5403,
      "##140": 5404,
      "##144": 5405,
      "##191220": 5406,
      "##191211": 5407,
      "##191210": 5408,
      "##191218": 5409,
      "##191213": 5410,
      "##191217": 5411,
      "fabric.": 5412,
      "(print": 5413,
      "ppakistan": 5414,
      "track": 5415,
      "usp40": 5416,
      "##ella": 5417,
      "boards": 5418,
      "specifications(mm)": 5419,
      "valve": 5420,
      "valves": 5421,
      "##c-penta": 5422,
      "##298": 5423,
      "##299": 5424,
      "##29/10": 5425,
      "##50.": 5426,
      "##50-ii": 5427,
      "##139": 5428,
      "##13a.": 5429,
      "equirab": 5430,
      "equine)": 5431,
      "soap": 5432,
      "log": 5433,
      "loss": 5434,
      "byco": 5435,
      "##ios)": 5436,
      "##-300": 5437,
      "##-3001": 5438,
      "##/order": 5439,
      "##0015": 5440,
      "printer": 5441,
      "(pvt)ltd": 5442,
      "(g1": 5443,
      "(g2)": 5444,
      "(gemicitab": 5445,
      "union": 5446,
      "unless": 5447,
      "unbleached": 5448,
      "whip": 5449,
      "which": 5450,
      "##40s/1": 5451,
      "##0035e": 5452,
      "amend": 5453,
      "amx-5": 5454,
      "ampros": 5455,
      "clip": 5456,
      "slm": 5457,
      "sles": 5458,
      "slight": 5459,
      "sls23": 5460,
      "##mm-6": 5461,
      "##/123": 5462,
      "(46": 5463,
      "(408": 5464,
      "le660": 5465,
      "pfgd": 5466,
      "##70t2": 5467,
      "assemb": 5468,
      "##200113": 5469,
      "##2001043-x": 5470,
      "discription": 5471,
      "discount": 5472,
      "discofix": 5473,
      "sd)": 5474,
      "sdgz": 5475,
      "sko": 5476,
      "skin": 5477,
      "##-100": 5478,
      "##-1/2": 5479,
      "##-1000": 5480,
      "##890": 5481,
      "##89-x": 5482,
      "##22/19": 5483,
      "##zolamide": 5484,
      "##l-add": 5485,
      "##6223/2009": 5486,
      "drc": 5487,
      "sole": 5488,
      "gluco": 5489,
      "global": 5490,
      "mica": 5491,
      "supi": 5492,
      "superm": 5493,
      "suprase": 5494,
      "##-rs4": 5495,
      "inclinning": 5496,
      "(550": 5497,
      "(5/14": 5498,
      "flour": 5499,
      "flash": 5500,
      "genset": 5501,
      "itema": 5502,
      "sulf": 5503,
      "sulbactam": 5504,
      "##5-00": 5505,
      "##5--a": 5506,
      "##5-nov-2019.": 5507,
      "##517": 5508,
      "##5101": 5509,
      "##191118": 5510,
      "##191109": 5511,
      "##191114": 5512,
      "12-10-2019.": 5513,
      "##mpi-12": 5514,
      "##sc19": 5515,
      "##sc-2": 5516,
      "##pa19": 5517,
      "##/253": 5518,
      "brand'": 5519,
      "about": 5520,
      "##trin": 5521,
      "(w)": 5522,
      "basetone": 5523,
      "reduc": 5524,
      "redispers": 5525,
      "##-spel": 5526,
      "##339": 5527,
      "20-dec-2019.": 5528,
      "20-nov-2019.": 5529,
      "cardiac": 5530,
      "desi": 5531,
      "design": 5532,
      "prepar": 5533,
      "prepolymer": 5534,
      "##blk/1": 5535,
      "##683": 5536,
      "##itional": 5537,
      "insert": 5538,
      "inspect": 5539,
      "insurance": 5540,
      "chinese/": 5541,
      "drums)": 5542,
      "generating": 5543,
      "(fob": 5544,
      "(fc)": 5545,
      "approv": 5546,
      "bormed": 5547,
      "door": 5548,
      "do04": 5549,
      "doctor": 5550,
      "gr)": 5551,
      "gramma": 5552,
      "group": 5553,
      "makrol": 5554,
      "mould.": 5555,
      "##-007": 5556,
      "##-0002/00": 5557,
      "##07009": 5558,
      "##/rr": 5559,
      "##/rus/2019": 5560,
      "contains": 5561,
      "remote": 5562,
      "configuration": 5563,
      "(resistor": 5564,
      "##42/2001": 5565,
      "##42bcr": 5566,
      "##179": 5567,
      "''nan": 5568,
      "''apl": 5569,
      "''dins": 5570,
      "crd": 5571,
      "turq": 5572,
      "turbine": 5573,
      "##576": 5574,
      "noshad": 5575,
      "strips": 5576,
      "combiset": 5577,
      "conditions": 5578,
      "(lme": 5579,
      "(size": 5580,
      "(sodium": 5581,
      "(sapt)": 5582,
      "(short": 5583,
      "(sunsea": 5584,
      "(hi-pro": 5585,
      "calc": 5586,
      "calculated": 5587,
      "np-82": 5588,
      "silastol": 5589,
      "sub-m": 5590,
      "web": 5591,
      "wego": 5592,
      "##-nov": 5593,
      "##-natural": 5594,
      "##l/blk/1": 5595,
      "##165": 5596,
      "##1601": 5597,
      "##/km": 5598,
      "##/karachi": 5599,
      "##191207": 5600,
      "##191202": 5601,
      "##/191219": 5602,
      "##/1912/00": 5603,
      "sera": 5604,
      "series": 5605,
      "servo": 5606,
      "##-pi-": 5607,
      "##ckd": 5608,
      "##67/3": 5609,
      "##67bcr": 5610,
      "##6767/3": 5611,
      "##esha": 5612,
      "newly": 5613,
      "clevis": 5614,
      "heidelber": 5615,
      "impreg": 5616,
      "park": 5617,
      "party": 5618,
      "paracetam": 5619,
      "sait": 5620,
      "##-105": 5621,
      "##ensions": 5622,
      "##ensers/": 5623,
      "color)": 5624,
      "chlorinated": 5625,
      "transformer": 5626,
      "11-dec-2019.": 5627,
      "11-28": 5628,
      "fb56": 5629,
      "ht031": 5630,
      "hteom": 5631,
      "mg)": 5632,
      "mgb": 5633,
      "panels": 5634,
      "pannox": 5635,
      "year-2019/20": 5636,
      "##4696": 5637,
      "##kdj": 5638,
      "additional": 5639,
      "hpu18": 5640,
      "meal": 5641,
      "mega": 5642,
      "mecobal": 5643,
      "mechanical": 5644,
      "swap": 5645,
      "##ogram": 5646,
      "invoice/contact": 5647,
      "##125/g/2019": 5648,
      "(dpp": 5649,
      "(calculated": 5650,
      "(csm)": 5651,
      "19.12.2019.": 5652,
      "26-nov-2019.": 5653,
      "pumps": 5654,
      "##-05": 5655,
      "##-500": 5656,
      "##-5040": 5657,
      "##/badar": 5658,
      "##66hpt": 5659,
      "label": 5660,
      "labels": 5661,
      "ahl/part": 5662,
      "ahl/misc": 5663,
      "ahl/sp": 5664,
      "ahl/cast": 5665,
      "carton)": 5666,
      "02-jan-2020.": 5667,
      "03-01-2020.": 5668,
      "ca02": 5669,
      "##26-mt": 5670,
      "##pi1912": 5671,
      "##ounded": 5672,
      "non-w": 5673,
      "regular": 5674,
      "regulator": 5675,
      "register": 5676,
      "extended": 5677,
      "pi0035": 5678,
      "pi00345": 5679,
      "pi00368": 5680,
      "elastic": 5681,
      "el535": 5682,
      "elaspan": 5683,
      "electronic": 5684,
      "foam": 5685,
      "footwear": 5686,
      "twill": 5687,
      "titanpro": 5688,
      "##e)(": 5689,
      "##-xf": 5690,
      "##/lhr": 5691,
      "comprised": 5692,
      "chromium": 5693,
      "##ember-2019": 5694,
      "##ember-2019.": 5695,
      "ctg": 5696,
      "certification": 5697,
      "cefoper": 5698,
      "cefotax": 5699,
      "flyers": 5700,
      "flyerz": 5701,
      "sgd": 5702,
      "##-04-2019.": 5703,
      "##869": 5704,
      "##478": 5705,
      "##4955": 5706,
      "##191128": 5707,
      "##191122": 5708,
      "##191121": 5709,
      "##191126": 5710,
      "acg1900": 5711,
      "methyl": 5712,
      "micronised": 5713,
      "supplied": 5714,
      "sulphate)": 5715,
      "08-11-2019.": 5716,
      "08-10-2019.": 5717,
      "hosiery": 5718,
      "hongkong": 5719,
      "irpc-": 5720,
      "mod.": 5721,
      "single": 5722,
      "ultimate": 5723,
      "vin/3": 5724,
      "##/wso": 5725,
      "spinning'": 5726,
      "minimum)": 5727,
      "##/010/hmc/2019-20": 5728,
      "##/010/cgc/2019-20": 5729,
      "sealed": 5730,
      "sealing": 5731,
      "sealable": 5732,
      "levof": 5733,
      "levetir": 5734,
      "finish.": 5735,
      "finishing": 5736,
      "cps/00": 5737,
      "epineph": 5738,
      "epiao": 5739,
      "ethiop": 5740,
      "ethylhexanol": 5741,
      "h1030": 5742,
      "hydrous": 5743,
      "hydraulic": 5744,
      "latest": 5745,
      "small": 5746,
      "##101001": 5747,
      "##/nov": 5748,
      "##.a.": 5749,
      "indic": 5750,
      "inverters": 5751,
      "##20191212": 5752,
      "##20191203": 5753,
      "##/19-20/3": 5754,
      "##/162/19": 5755,
      "(tfc)": 5756,
      "(taixin": 5757,
      "(injection": 5758,
      "arab": 5759,
      "blow-o": 5760,
      "blower/components": 5761,
      "glycer": 5762,
      "rgd/exp/211": 5763,
      "techno": 5764,
      "##azone": 5765,
      "##spindles": 5766,
      "##/1119": 5767,
      "##flets)": 5768,
      "toys": 5769,
      "boxes/": 5770,
      "pfi-0045": 5771,
      "pfi-0044": 5772,
      "##/rbdpoln11": 5773,
      "cleaned": 5774,
      "xpk-tr9112": 5775,
      "06-12-2019.": 5776,
      "06-jan-2020.": 5777,
      "24-dec-2019.": 5778,
      "24.o": 5779,
      "bitartrate": 5780,
      "ce(p)g": 5781,
      "ccw": 5782,
      "furnit": 5783,
      "lightly": 5784,
      "multipurpose": 5785,
      "peas": 5786,
      "ss2019": 5787,
      "##-803": 5788,
      "##83)": 5789,
      "##65m)": 5790,
      "##eraprint": 5791,
      "november": 5792,
      "novibra": 5793,
      "propanol": 5794,
      "propaned": 5795,
      "commission": 5796,
      "communication": 5797,
      "la880wt-11bk03": 5798,
      "purposes": 5799,
      "revised": 5800,
      "spcc": 5801,
      "deodorized": 5802,
      "##/12/2019.": 5803,
      "microscopes": 5804,
      "microfib": 5805,
      "marked": 5806,
      "(plain)": 5807,
      "(compact": 5808,
      "(copper": 5809,
      "busan": 5810,
      "graphite": 5811,
      "hygen": 5812,
      "outsole": 5813,
      "ptfe": 5814,
      "rhodimet": 5815,
      "s.tax": 5816,
      "testing": 5817,
      "wool": 5818,
      "wooven": 5819,
      "##iolo": 5820,
      "##-403": 5821,
      "##74(i)": 5822,
      "##79/": 5823,
      "##/5ml": 5824,
      "##/fel/10": 5825,
      "##k-revised": 5826,
      "thxpk19318": 5827,
      "artifici": 5828,
      "loadport": 5829,
      "dispenser": 5830,
      "dispensers/": 5831,
      "items": 5832,
      "medicaine": 5833,
      "pfi-0033": 5834,
      "apb/1": 5835,
      "sjzst19.00": 5836,
      "tj530-015b": 5837,
      "tj530-natural": 5838,
      "##/sdl/1912/cpo": 5839,
      "jtgjrz-rz2001043-x": 5840,
      "digit": 5841,
      "feet": 5842,
      "fe8000": 5843,
      "gsbn8": 5844,
      "l-isole": 5845,
      "mangnese": 5846,
      "s12089": 5847,
      "s12077": 5848,
      "s12091": 5849,
      "tpu": 5850,
      "trailers": 5851,
      "taixing": 5852,
      "zippers": 5853,
      "##methyl": 5854,
      "##064": 5855,
      "##5ba": 5856,
      "##/092": 5857,
      "##orsk": 5858,
      "spark": 5859,
      "spiral": 5860,
      "##-191203": 5861,
      "pi/psf/ind/": 5862,
      "added.": 5863,
      "##/sub-components": 5864,
      "##/sub-ass": 5865,
      "##/007/2019": 5866,
      "soe/20": 5867,
      "cg125s": 5868,
      "building": 5869,
      "beripl": 5870,
      "berth(s)": 5871,
      "bangladesh": 5872,
      "cystone": 5873,
      "ds-1911": 5874,
      "f2111b": 5875,
      "jf-2009": 5876,
      "jf-3001": 5877,
      "mago": 5878,
      "magnes": 5879,
      "oxol": 5880,
      "r6658": 5881,
      "s/sdl/1912/sdl/1912/cpo": 5882,
      "triclaben": 5883,
      "##avin": 5884,
      "##toflex": 5885,
      "##-7)": 5886,
      "##-mtli": 5887,
      "##herals": 5888,
      "##631cf": 5889,
      "##acetical": 5890,
      "profile": 5891,
      "profoma": 5892,
      "##logger": 5893,
      "primorsk": 5894,
      "plants": 5895,
      "##1025--a": 5896,
      "connector": 5897,
      "pallets": 5898,
      "so0350": 5899,
      "pfi-th-thal": 5900,
      "pfi-th-spel": 5901,
      "pfi-th-mtli": 5902,
      "sae10": 5903,
      "ahtl/part/010": 5904,
      "ahtl/part/011": 5905,
      "xpk-map2001": 5906,
      "xpk-map912": 5907,
      "##+++++++++++++++++++": 5908,
      "jtgjrz-rz191214": 5909,
      "double-br": 5910,
      "ex-workstrev": 5911,
      "sc-idhpk19012": 5912,
      "(vestuario": 5913,
      "(eq-m": 5914,
      "bodies": 5915,
      "benzoate": 5916,
      "cartrid": 5917,
      "dd85": 5918,
      "dhfz": 5919,
      "fsl/blk/1": 5920,
      "hvi": 5921,
      "hm200107": 5922,
      "hd631cf": 5923,
      "lm-l": 5924,
      "pel/af": 5925,
      "pel/badar": 5926,
      "sieve": 5927,
      "tieraprint": 5928,
      "t19jz": 5929,
      "tele": 5930,
      "tube": 5931,
      "triamcinolone": 5932,
      "welding": 5933,
      "washing": 5934,
      "##-jy": 5935,
      "##ucine": 5936,
      "##uelines": 5937,
      "##3.65m)": 5938,
      "##510chb": 5939,
      "##/062": 5940,
      "##alvanized": 5941,
      "covered": 5942,
      "##-01-20.": 5943,
      "##1801008": 5944,
      "soya": 5945,
      "soybeans": 5946,
      "classic": 5947,
      "swrh42bcr": 5948,
      "swrh67bcr": 5949,
      "(bci)": 5950,
      "(bci+r.": 5951,
      "vin/1126/g/2019": 5952,
      "gaipl/s/1219/rbdpoln11": 5953,
      "gml/as": 5954,
      "##/pc/pak/01": 5955,
      "hgx-030sp": 5956,
      "s/93/20/00": 5957,
      "18-12-2019.": 5958,
      "18-dec-2019.": 5959,
      "better": 5960,
      "dalgak": 5961,
      "daltoflex": 5962,
      "drawn": 5963,
      "ebm": 5964,
      "faisalabad": 5965,
      "fa6767/3": 5966,
      "fgwil": 5967,
      "f1a": 5968,
      "g3131": 5969,
      "gf/fel/10": 5970,
      "ha58": 5971,
      "hook": 5972,
      "hemihydrate": 5973,
      "hemodialy": 5974,
      "home": 5975,
      "homopolymer": 5976,
      "iu/vial)": 5977,
      "iu/5ml": 5978,
      "ihs": 5979,
      "loc/100": 5980,
      "l/c.": 5981,
      "nt-11": 5982,
      "n-ethyl": 5983,
      "n-anti": 5984,
      "p6006n": 5985,
      "relev": 5986,
      "ribofl": 5987,
      "srmpi-12": 5988,
      "soda": 5989,
      "sodra": 5990,
      "tkg-m": 5991,
      "tksc19": 5992,
      "tiles": 5993,
      "t2.5": 5994,
      "t2.5ba": 5995,
      "works": 5996,
      "y-zip": 5997,
      "y-zipper": 5998,
      "ztml": 5999,
      "##-1472": 6000,
      "##packing": 6001,
      "##binant": 6002,
      "no.19sc": 6003,
      "no.19/s/09": 6004,
      "as/198": 6005,
      "##-20191206": 6006,
      "##-2002000": 6007,
      "recoverd": 6008,
      "recovered": 6009,
      "shoe": 6010,
      "shoes": 6011,
      "bles-4": 6012,
      "adjusted": 6013,
      "adjustment": 6014,
      "(220460.00": 6015,
      "transmission": 6016,
      "##5-98-a": 6017,
      "grams": 6018,
      "additive": 6019,
      "additives": 6020,
      "hp0823j": 6021,
      "hp0823nn": 6022,
      "pulp-18.375": 6023,
      "##noxicam": 6024,
      "compressed": 6025,
      "compression": 6026,
      "antique": 6027,
      "ft6230": 6028,
      "ft6236": 6029,
      "tolerance)": 6030,
      "la880tr-2": 6031,
      "s.b.r.": 6032,
      "s.b.r": 6033,
      "buyer.": 6034,
      "s16642/2001": 6035,
      "secondary": 6036,
      "x675tpcr-r1g3": 6037,
      "x675tpcr-r299": 6038,
      "discrepant.": 6039,
      "h19sw07009": 6040,
      "jlp20g-10": 6041,
      "jlp19g": 6042,
      "o-ring(s)": 6043,
      "ue-902a": 6044,
      "ue-902b": 6045,
      "respectivels": 6046,
      "respectively": 6047,
      "gaipl/s/0120/rbdoln115853": 6048,
      "sbr/dept.c/58": 6049,
      "'a'": 6050,
      "(acid": 6051,
      "(imv)": 6052,
      "(clay": 6053,
      "(black": 6054,
      "-2019.": 6055,
      "april": 6056,
      "aft(id": 6057,
      "bdcom": 6058,
      "bobbin": 6059,
      "bandage": 6060,
      "bromobutyl": 6061,
      "ci4/sl": 6062,
      "c.f.": 6063,
      "country": 6064,
      "celzar": 6065,
      "cables": 6066,
      "djibout": 6067,
      "document": 6068,
      "dialyzer": 6069,
      "efficiency": 6070,
      "harvest": 6071,
      "hologram": 6072,
      "h-612": 6073,
      "klang": 6074,
      "knife": 6075,
      "lk19120": 6076,
      "lornoxicam": 6077,
      "leaflets)": 6078,
      "longrod-ins": 6079,
      "luggage": 6080,
      "myco": 6081,
      "mountain": 6082,
      "nitric": 6083,
      "oc2019": 6084,
      "o/o)": 6085,
      "operating": 6086,
      "pleater": 6087,
      "q-smart": 6088,
      "ryzd-10": 6089,
      "rnc": 6090,
      "sorbitol": 6091,
      "spray": 6092,
      "spl-8": 6093,
      "s033.": 6094,
      "tazobactam": 6095,
      "wnr": 6096,
      "wc-6": 6097,
      "x1912pin200": 6098,
      "yara": 6099,
      "##ietin": 6100,
      "##tx3.65m)": 6101,
      "##-dated.": 6102,
      "##-1200": 6103,
      "##-08-2019.": 6104,
      "##dull": 6105,
      "##lobulin": 6106,
      "##7-ph": 6107,
      "##p170t2": 6108,
      "##jiang": 6109,
      "##x6s": 6110,
      "##b/op/it": 6111,
      "##itomo": 6112,
      "ask/4549": 6113,
      "port(s)/": 6114,
      "##20191127": 6115,
      "ortho": 6116,
      "detector": 6117,
      "la611tpcr-201b": 6118,
      "polyproplene": 6119,
      "pharmacetical": 6120,
      "received": 6121,
      "exxonmob": 6122,
      "moderlan": 6123,
      "piperacill": 6124,
      "pi/gcl": 6125,
      "computer": 6126,
      "##/200ls": 6127,
      "##/sgs-coc-00645": 6128,
      "resistivity": 6129,
      "amd/sc/3": 6130,
      "suitable": 6131,
      "superfine": 6132,
      "flxcel": 6133,
      "flavor": 6134,
      "it/lsc": 6135,
      "granular": 6136,
      "sulphonamide": 6137,
      "(medical": 6138,
      "htv-ahl": 6139,
      "hp1102k": 6140,
      "surface": 6141,
      "ahtl/misc/011": 6142,
      "networking": 6143,
      "dtex/51mm": 6144,
      "antiserum": 6145,
      "tankrom": 6146,
      "technical": 6147,
      "ws185": 6148,
      "la880t-015b": 6149,
      "ptml-8": 6150,
      "01-03-2020.": 6151,
      "s12318.00": 6152,
      "semi-dull": 6153,
      "kg(4033": 6154,
      "jtgjrz-rz19121289-x": 6155,
      "cpcm40s/1": 6156,
      "sn-3510chb": 6157,
      "gaipl/s/1219/rbdoln114696": 6158,
      "gml/ai/133": 6159,
      "s/93/19/00": 6160,
      "poliester": 6161,
      "cheese-z7205": 6162,
      "ins/12200019": 6163,
      "e1b390170": 6164,
      "fittings": 6165,
      "jsddd1211": 6166,
      "netherlands": 6167,
      "vxl/bgi": 6168,
      "##/february-20": 6169,
      "ahl-cg125-040": 6170,
      "akuh-bdb-2": 6171,
      "hvsp-a191223": 6172,
      "qfze/amil/269": 6173,
      "'lotrene'": 6174,
      "(qict)": 6175,
      "(nitration": 6176,
      "(rabies": 6177,
      "(yla)": 6178,
      "(empty": 6179,
      "+mortuary": 6180,
      "++++++++++++++++++++++++++++++++++++": 6181,
      "/contract": 6182,
      "/12377": 6183,
      "21-11-2019.": 6184,
      "@ibc": 6185,
      "axtra": 6186,
      "auxili": 6187,
      "birlac": 6188,
      "bc-l": 6189,
      "bergamo": 6190,
      "b5429": 6191,
      "couple": 6192,
      "cutter": 6193,
      "celsius": 6194,
      "cultus": 6195,
      "df-5040": 6196,
      "dzire": 6197,
      "derugan": 6198,
      "dorzolamide": 6199,
      "diluting": 6200,
      "dimensions": 6201,
      "dapaglif": 6202,
      "dextrose": 6203,
      "e/ou": 6204,
      "ezlogger": 6205,
      "est3": 6206,
      "e02l": 6207,
      "erythropo": 6208,
      "emerald": 6209,
      "fj00952": 6210,
      "fnttp": 6211,
      "fatty": 6212,
      "female": 6213,
      "f04660": 6214,
      "foshan": 6215,
      "gj19": 6216,
      "gross": 6217,
      "gloves": 6218,
      "garnish": 6219,
      "g-mip19/12": 6220,
      "habib": 6221,
      "hps-68": 6222,
      "hfae19": 6223,
      "hsfo": 6224,
      "iodine": 6225,
      "immunog": 6226,
      "jubail": 6227,
      "june": 6228,
      "joc4a19": 6229,
      "jaf-": 6230,
      "kict": 6231,
      "kotlakh": 6232,
      "k245-20": 6233,
      "letter": 6234,
      "lidocaine": 6235,
      "lithium": 6236,
      "liv.52": 6237,
      "lcyc-penta": 6238,
      "lonsperse": 6239,
      "lacquered": 6240,
      "mirinda": 6241,
      "masterbatch": 6242,
      "margarine": 6243,
      "m(+/-10": 6244,
      "maleate": 6245,
      "mcapam19": 6246,
      "m061p/": 6247,
      "nbsk": 6248,
      "nasa": 6249,
      "n07929/10": 6250,
      "olien": 6251,
      "pellets": 6252,
      "p-vam": 6253,
      "p.o.": 6254,
      "qte-19-0": 6255,
      "r50035e": 6256,
      "rx-300": 6257,
      "robol": 6258,
      "r407c": 6259,
      "r-996": 6260,
      "r-687": 6261,
      "renoir": 6262,
      "s2197": 6263,
      "sedol": 6264,
      "sob-2002000": 6265,
      "sumitomo": 6266,
      "sppl/km": 6267,
      "seamless": 6268,
      "sugar": 6269,
      "sensor": 6270,
      "s12570": 6271,
      "socket": 6272,
      "sxbx": 6273,
      "ttca": 6274,
      "touch": 6275,
      "treatment": 6276,
      "trolley": 6277,
      "tso1801008": 6278,
      "vt191224": 6279,
      "vermicul": 6280,
      "virgin": 6281,
      "vessel": 6282,
      "veterinary": 6283,
      "wauk": 6284,
      "xrp170t2": 6285,
      "yhsc-2": 6286,
      "yantian": 6287,
      "ybd23": 6288,
      "##-type": 6289,
      "##-75mm-6": 6290,
      "##d/badin-s": 6291,
      "##ually": 6292,
      "##sika": 6293,
      "##hupura": 6294,
      "##carbonate": 6295,
      "##peak-revised": 6296,
      "##p/9b": 6297,
      "##r-174(i)": 6298,
      "##/29inod": 6299,
      "##/bluelines": 6300,
      "##.coil": 6301,
      "##.10.2019": 6302,
      "##b-1x": 6303,
      "##(ef)": 6304,
      "##inid/29inod": 6305,
      "##in/3inid/29inod": 6306,
      "peripherals": 6307,
      "perkins": 6308,
      "incoive": 6309,
      "inorganic": 6310,
      "increased": 6311,
      "installation": 6312,
      "no126223/2009": 6313,
      "at-sph": 6314,
      "atenolol": 6315,
      "atmosphere)": 6316,
      "no.mgl": 6317,
      "no.hw1912": 6318,
      "no.440002": 6319,
      "aseptic": 6320,
      "pairs": 6321,
      "painted": 6322,
      "program": 6323,
      "coomplete": 6324,
      "mtml/loc-": 6325,
      "##dehyde": 6326,
      "study": 6327,
      "stkm13a.": 6328,
      "commercial": 6329,
      "##le/manufacture": 6330,
      "m/ton)ccording": 6331,
      "polylinks": 6332,
      "alternator": 6333,
      "chabang": 6334,
      "chondroitin": 6335,
      "chittagong": 6336,
      "rapier": 6337,
      "rabbi": 6338,
      "##-20-3071": 6339,
      "acessorios)": 6340,
      "ace/04": 6341,
      "acknowled": 6342,
      "lahore/nlc": 6343,
      "##iddling)": 6344,
      "##idacloprid": 6345,
      "##odules/sub-components": 6346,
      "re-meltable": 6347,
      "recombinant": 6348,
      "re-reeling": 6349,
      "re420mo": 6350,
      "rectifier": 6351,
      "sp/tulux": 6352,
      "sphc-m": 6353,
      "spp-190826-mt": 6354,
      "shahsika": 6355,
      "sheikhupura": 6356,
      "m/s.dawn": 6357,
      "pi-sun-f": 6358,
      "pi/oj/19-20/3": 6359,
      "paperboardcoated": 6360,
      "paper-occ": 6361,
      "thousand": 6362,
      "##/sca/2019-20": 6363,
      "defects": 6364,
      "developments": 6365,
      "coil(max.coil": 6366,
      "dated.29.10.2019": 6367,
      "(gemicitabine": 6368,
      "amendment": 6369,
      "amx-51025--a": 6370,
      "amprosol": 6371,
      "le6607-ph": 6372,
      "assemble/manufacture": 6373,
      "sdgzal2019120": 6374,
      "glucosamine": 6375,
      "supima": 6376,
      "supermarket": 6377,
      "suprasec": 6378,
      "##-rs485": 6379,
      "reducing": 6380,
      "redispersible": 6381,
      "preparations": 6382,
      "approved)": 6383,
      "grammage": 6384,
      "makrolon": 6385,
      "(resistor)": 6386,
      "''nanlon''": 6387,
      "''aplio": 6388,
      "''dins''": 6389,
      "(hi-pro)": 6390,
      "np-82(": 6391,
      "sub-modules/sub-components": 6392,
      "heidelberg": 6393,
      "impregnated": 6394,
      "paracetamol": 6395,
      "11-28-2019.": 6396,
      "fb5600": 6397,
      "hpu18112019": 6398,
      "mecobalamin": 6399,
      "(calculated)": 6400,
      "##66hpt-201b": 6401,
      "non-woven": 6402,
      "registered)": 6403,
      "cefoperazone": 6404,
      "cefotaxime": 6405,
      "acg190013": 6406,
      "irpc-az": 6407,
      "##/wso/bluelines": 6408,
      "levofloxacin": 6409,
      "levetiracetam": 6410,
      "epinephrine": 6411,
      "ethiopia": 6412,
      "(taixin)": 6413,
      "blow-off": 6414,
      "blower/components/sub-ass": 6415,
      "glycerine": 6416,
      "24.oct.2019.": 6417,
      "ce(p)gb/op/it": 6418,
      "propanediol": 6419,
      "commissioning": 6420,
      "communication-rs485": 6421,
      "microfiber": 6422,
      "(compacted)": 6423,
      "hygenic": 6424,
      "artificial": 6425,
      "l-isoleucine": 6426,
      "beriplast": 6427,
      "f2111bs": 6428,
      "magnesium": 6429,
      "s/sdl/1912/sdl/1912/cpo18": 6430,
      "triclabendazole": 6431,
      "pfi-th-thal-1911": 6432,
      "double-brushed": 6433,
      "ex-workstreviolo": 6434,
      "(eq-middling)": 6435,
      "cartridge": 6436,
      "dhfz-zm": 6437,
      "fsl/blk/182": 6438,
      "pel/afd/badin-s": 6439,
      "(bci+r.poly)": 6440,
      "dalgakiran": 6441,
      "fgwilson": 6442,
      "hemodialysis": 6443,
      "relevant": 6444,
      "riboflavin": 6445,
      "tkg-mil-1911": 6446,
      "no.19/s/09020": 6447,
      "##5-98-avt": 6448,
      "aft(idt": 6449,
      "ci4/sl/200ls": 6450,
      "djibouti": 6451,
      "longrod-insulator": 6452,
      "ryzd-1050-ii": 6453,
      "exxonmobil": 6454,
      "piperacillin": 6455,
      "amd/sc/329": 6456,
      "gml/ai/13335": 6457,
      "birlacril": 6458,
      "dapagliflozin": 6459,
      "erythropoietin": 6460,
      "fnttp/007/2019": 6461,
      "g-mip19/1211": 6462,
      "immunoglobulin": 6463,
      "joc4a19101001": 6464,
      "kotlakhpat": 6465,
      "lcyc-penta-19": 6466,
      "mcapam19q": 6467,
      "m061p/79/": 6468,
      "vermiculite": 6469,
      "waukesha": 6470,
      "xrp170t2-11bk03": 6471,
      "##in/3inid/29inod/wso/bluelines": 6472,
      "acknowledgement": 6473,
      "spp-190826-mtl-add": 6474,
      "pi-sun-fac": 6475,
      "amx-51025--a-nf": 6476,
      "sub-modules/sub-components/components": 6477,
      "blower/components/sub-assy": 6478,
      "ce(p)gb/op/itr-174(i)": 6479,
      "%)": 6480,
      "'j": 6481,
      "'1.": 6482,
      "'east": 6483,
      "'med": 6484,
      "'test": 6485,
      "(u": 6486,
      "(j": 6487,
      "(z": 6488,
      "(ic": 6489,
      "(fr": 6490,
      "(19": 6491,
      "(re": 6492,
      "(is": 6493,
      "(ab": 6494,
      "(art": 6495,
      "(ex": 6496,
      "(propylene": 6497,
      "(04": 6498,
      "(qu": 6499,
      "(45": 6500,
      "(red": 6501,
      "(80": 6502,
      "(b)": 6503,
      "(br": 6504,
      "(77": 6505,
      "(e)": 6506,
      "(qty": 6507,
      "(com": 6508,
      "(form": 6509,
      "(ii": 6510,
      "(200": 6511,
      "(195": 6512,
      "(master": 6513,
      "(hea": 6514,
      "(ckd": 6515,
      ")met": 6516,
      "+17": 6517,
      "+hyd": 6518,
      "+inv": 6519,
      "-4": 6520,
      "-5": 6521,
      "-12": 6522,
      "-11": 6523,
      "-ab": 6524,
      "-04": 6525,
      "-ak": 6526,
      "-pk": 6527,
      "-51": 6528,
      "-bl": 6529,
      "-2020": 6530,
      "-2.": 6531,
      "-ne": 6532,
      "-700": 6533,
      ".(": 6534,
      ".2019": 6535,
      ".00": 6536,
      ".04": 6537,
      ".60": 6538,
      ".c-": 6539,
      ".tons": 6540,
      "/5": 6541,
      "/ex": 6542,
      "/ad": 6543,
      "/29": 6544,
      "/flex": 6545,
      "108": 6546,
      "15.": 6547,
      "15-nov-2019.": 6548,
      "28": 6549,
      "25": 6550,
      "25-nov-2019.": 6551,
      "7-01-2019.": 6552,
      "84": 6553,
      "844": 6554,
      "800.": 6555,
      "9726": 6556,
      ">3.": 6557,
      "ay": 6558,
      "aw": 6559,
      "aar": 6560,
      "aed": 6561,
      "aig": 6562,
      "abd": 6563,
      "a-2": 6564,
      "a-3": 6565,
      "a2001": 6566,
      "a21": 6567,
      "aust": 6568,
      "ave": 6569,
      "a79": 6570,
      "a.e": 6571,
      "bv": 6572,
      "bi": 6573,
      "bg": 6574,
      "b6": 6575,
      "bac": 6576,
      "ben": 6577,
      "bon": 6578,
      "bal": 6579,
      "bil": 6580,
      "bim": 6581,
      "bol": 6582,
      "bact": 6583,
      "bent": 6584,
      "bis": 6585,
      "big": 6586,
      "but": 6587,
      "b10": 6588,
      "best": 6589,
      "buf": 6590,
      "bone": 6591,
      "bbd": 6592,
      "bak": 6593,
      "bay": 6594,
      "btr": 6595,
      "bloss": 6596,
      "b56": 6597,
      "bead": 6598,
      "bts": 6599,
      "bte": 6600,
      "bisc": 6601,
      "b2)": 6602,
      "badar": 6603,
      "b05": 6604,
      "bz-l": 6605,
      "b180": 6606,
      "cv": 6607,
      "cs": 6608,
      "c3": 6609,
      "cp": 6610,
      "cw": 6611,
      "cam": 6612,
      "cpr": 6613,
      "cil": 6614,
      "cur": 6615,
      "cis": 6616,
      "cum": 6617,
      "cater": 6618,
      "cip": 6619,
      "cath": 6620,
      "cast": 6621,
      "clor": 6622,
      "cca": 6623,
      "c-3": 6624,
      "c-1": 6625,
      "c-r": 6626,
      "c1911": 6627,
      "cind": 6628,
      "c75": 6629,
      "csd": 6630,
      "cann": 6631,
      "c-b": 6632,
      "c.i": 6633,
      "cpb": 6634,
      "cetir": 6635,
      "c-55": 6636,
      "c200113": 6637,
      "da": 6638,
      "dm": 6639,
      "dk": 6640,
      "d+": 6641,
      "dic": 6642,
      "dot": 6643,
      "derm": 6644,
      "dac": 6645,
      "dir": 6646,
      "dob": 6647,
      "dum": 6648,
      "dical": 6649,
      "dem": 6650,
      "dest": 6651,
      "dse": 6652,
      "dom": 6653,
      "dri": 6654,
      "dos": 6655,
      "dpk": 6656,
      "d-9": 6657,
      "dfl": 6658,
      "d.i": 6659,
      "draft": 6660,
      "dme": 6661,
      "d320": 6662,
      "dilt": 6663,
      "d-13": 6664,
      "dxb": 6665,
      "d-ac": 6666,
      "d800": 6667,
      "dbb": 6668,
      "deltam": 6669,
      "d139": 6670,
      "et": 6671,
      "ek": 6672,
      "eat": 6673,
      "e20": 6674,
      "ele": 6675,
      "ech": 6676,
      "eag": 6677,
      "eld": 6678,
      "elt": 6679,
      "epc": 6680,
      "ester": 6681,
      "e-019": 6682,
      "eters": 6683,
      "ern": 6684,
      "etern": 6685,
      "e.p": 6686,
      "fy": 6687,
      "fn": 6688,
      "f0": 6689,
      "fp": 6690,
      "fx": 6691,
      "fz": 6692,
      "f.": 6693,
      "fk": 6694,
      "far": 6695,
      "fpr": 6696,
      "fan": 6697,
      "fro": 6698,
      "fed": 6699,
      "fing": 6700,
      "flo": 6701,
      "f10": 6702,
      "fax": 6703,
      "fif": 6704,
      "f18": 6705,
      "fuf": 6706,
      "fom": 6707,
      "fri": 6708,
      "flor": 6709,
      "f-2": 6710,
      "f14": 6711,
      "f-3": 6712,
      "flow": 6713,
      "fans": 6714,
      "fish": 6715,
      "five": 6716,
      "fotco": 6717,
      "f-02": 6718,
      "fsd": 6719,
      "found": 6720,
      "fair": 6721,
      "fux": 6722,
      "fcf": 6723,
      "fk-": 6724,
      "fiel": 6725,
      "f8g": 6726,
      "frict": 6727,
      "fung": 6728,
      "fh-": 6729,
      "fze": 6730,
      "fakh": 6731,
      "f-3/4": 6732,
      "f132-e1": 6733,
      "fixed": 6734,
      "f-1/2": 6735,
      "f5101": 6736,
      "gt": 6737,
      "g-": 6738,
      "gd": 6739,
      "gh": 6740,
      "go": 6741,
      "gg": 6742,
      "g.": 6743,
      "g6": 6744,
      "gar": 6745,
      "gpr": 6746,
      "gum": 6747,
      "gdu": 6748,
      "gian": 6749,
      "gtr": 6750,
      "g35": 6751,
      "g/t": 6752,
      "gink": 6753,
      "g.p": 6754,
      "garbon": 6755,
      "gatron": 6756,
      "galvanized": 6757,
      "h-": 6758,
      "hu": 6759,
      "hl": 6760,
      "hn": 6761,
      "hh": 6762,
      "hg": 6763,
      "hf": 6764,
      "hz": 6765,
      "h6": 6766,
      "hw": 6767,
      "hq": 6768,
      "her": 6769,
      "hor": 6770,
      "hal": 6771,
      "hachi": 6772,
      "has": 6773,
      "hea": 6774,
      "hpl": 6775,
      "hob": 6776,
      "hyl": 6777,
      "harm": 6778,
      "hip": 6779,
      "hub": 6780,
      "hss": 6781,
      "hood": 6782,
      "hak": 6783,
      "h13": 6784,
      "h22": 6785,
      "hl-": 6786,
      "hert": 6787,
      "hous": 6788,
      "hkd": 6789,
      "hog": 6790,
      "hms": 6791,
      "haz": 6792,
      "hhm": 6793,
      "hk-": 6794,
      "house": 6795,
      "hav": 6796,
      "huss": 6797,
      "histor": 6798,
      "hxg": 6799,
      "hund": 6800,
      "ip": 6801,
      "i.": 6802,
      "ib": 6803,
      "iq": 6804,
      "ior": 6805,
      "ipl": 6806,
      "i12": 6807,
      "iap": 6808,
      "iph": 6809,
      "ip-": 6810,
      "ipi": 6811,
      "ifl": 6812,
      "i600": 6813,
      "i-1912": 6814,
      "ijs)": 6815,
      "ihr": 6816,
      "ill": 6817,
      "istan": 6818,
      "i800": 6819,
      "ics": 6820,
      "ji": 6821,
      "je": 6822,
      "jp": 6823,
      "j9": 6824,
      "jx": 6825,
      "jar": 6826,
      "jon": 6827,
      "jas": 6828,
      "jil": 6829,
      "jul": 6830,
      "jut": 6831,
      "jack": 6832,
      "jers": 6833,
      "jinn": 6834,
      "j-9": 6835,
      "jms": 6836,
      "jingang": 6837,
      "jacqu": 6838,
      "j-30": 6839,
      "kt": 6840,
      "kd": 6841,
      "ku": 6842,
      "kc": 6843,
      "k9": 6844,
      "kj": 6845,
      "kq": 6846,
      "kort": 6847,
      "khe": 6848,
      "kim": 6849,
      "kol": 6850,
      "kur": 6851,
      "kum": 6852,
      "kyl": 6853,
      "kand": 6854,
      "kip": 6855,
      "kint": 6856,
      "kelt": 6857,
      "k09": 6858,
      "kp-": 6859,
      "kans": 6860,
      "k19120": 6861,
      "kind": 6862,
      "k-03": 6863,
      "kup": 6864,
      "kts": 6865,
      "k9120": 6866,
      "kjz": 6867,
      "k.k": 6868,
      "lv": 6869,
      "lt": 6870,
      "ln": 6871,
      "lp": 6872,
      "lj": 6873,
      "ler": 6874,
      "lan": 6875,
      "led": 6876,
      "lact": 6877,
      "lis": 6878,
      "lig": 6879,
      "lib": 6880,
      "lem": 6881,
      "lld": 6882,
      "lif": 6883,
      "l14": 6884,
      "lsc": 6885,
      "ltr": 6886,
      "lc/": 6887,
      "lens": 6888,
      "l-m": 6889,
      "lamin": 6890,
      "lond": 6891,
      "linning": 6892,
      "l-6": 6893,
      "lead": 6894,
      "lsf": 6895,
      "lift": 6896,
      "lock": 6897,
      "l-t": 6898,
      "lt.": 6899,
      "lamination": 6900,
      "lhr": 6901,
      "lnp": 6902,
      "lrs": 6903,
      "mv": 6904,
      "mi": 6905,
      "md": 6906,
      "mu": 6907,
      "mn": 6908,
      "mj": 6909,
      "mw": 6910,
      "mea": 6911,
      "mpl": 6912,
      "mur": 6913,
      "mus": 6914,
      "marm": 6915,
      "mex": 6916,
      "m40": 6917,
      "mdl": 6918,
      "mft": 6919,
      "memb": 6920,
      "mpy": 6921,
      "m-t": 6922,
      "mva": 6923,
      "m102": 6924,
      "mi-f": 6925,
      "mund": 6926,
      "m-1/2": 6927,
      "nv": 6928,
      "ns": 6929,
      "nn": 6930,
      "n8": 6931,
      "n0": 6932,
      "n2": 6933,
      "np": 6934,
      "n1": 6935,
      "nw": 6936,
      "ner": 6937,
      "nam": 6938,
      "nan": 6939,
      "nen": 6940,
      "nro": 6941,
      "nil": 6942,
      "nis": 6943,
      "nem": 6944,
      "nap": 6945,
      "nif": 6946,
      "national": 6947,
      "nbd": 6948,
      "n45": 6949,
      "n-2": 6950,
      "nert": 6951,
      "ntl": 6952,
      "nans": 6953,
      "n112": 6954,
      "nish": 6955,
      "n15": 6956,
      "n-6": 6957,
      "ncd": 6958,
      "nvc": 6959,
      "npf": 6960,
      "ndf": 6961,
      "nich": 6962,
      "nrl": 6963,
      "nd19": 6964,
      "nuct": 6965,
      "n339": 6966,
      "n.a.": 6967,
      "om": 6968,
      "og": 6969,
      "ob": 6970,
      "oes": 6971,
      "oss": 6972,
      "otd": 6973,
      "oce": 6974,
      "ops": 6975,
      "olt": 6976,
      "o-f": 6977,
      "oven": 6978,
      "oa19": 6979,
      "ome": 6980,
      "occ": 6981,
      "oval": 6982,
      "ps": 6983,
      "p8": 6984,
      "p3": 6985,
      "p5": 6986,
      "pj": 6987,
      "pq": 6988,
      "pant": 6989,
      "pene": 6990,
      "p20": 6991,
      "pim": 6992,
      "pra": 6993,
      "pis": 6994,
      "pig": 6995,
      "pine": 6996,
      "pop": 6997,
      "p02": 6998,
      "pub": 6999,
      "pph": 7000,
      "pun": 7001,
      "pmt": 7002,
      "pp-": 7003,
      "p2001": 7004,
      "pmp": 7005,
      "psc": 7006,
      "pear": 7007,
      "p/3": 7008,
      "p-p": 7009,
      "pead": 7010,
      "p/w": 7011,
      "p/12/2019": 7012,
      "pgr": 7013,
      "p.i": 7014,
      "pole": 7015,
      "pva": 7016,
      "p59": 7017,
      "p19001": 7018,
      "puff": 7019,
      "p2b": 7020,
      "polar": 7021,
      "pink": 7022,
      "psp-": 7023,
      "p190": 7024,
      "p2bs": 7025,
      "p901": 7026,
      "pza": 7027,
      "p2rn": 7028,
      "poval": 7029,
      "p165": 7030,
      "qt": 7031,
      "quant": 7032,
      "qpro": 7033,
      "q101": 7034,
      "qula": 7035,
      "ri": 7036,
      "ru": 7037,
      "rl": 7038,
      "rc": 7039,
      "r4": 7040,
      "rp": 7041,
      "rr": 7042,
      "r9": 7043,
      "rf": 7044,
      "r.": 7045,
      "rant": 7046,
      "rst": 7047,
      "ras": 7048,
      "ryl": 7049,
      "rand": 7050,
      "rif": 7051,
      "rese": 7052,
      "rms": 7053,
      "rsp": 7054,
      "r530": 7055,
      "rugs": 7056,
      "rup": 7057,
      "rto": 7058,
      "r/13": 7059,
      "r080": 7060,
      "r20191223": 7061,
      "r20200108": 7062,
      "r701": 7063,
      "roug": 7064,
      "rims": 7065,
      "raga": 7066,
      "rounded": 7067,
      "s3": 7068,
      "sit": 7069,
      "sant": 7070,
      "sac": 7071,
      "san": 7072,
      "sen": 7073,
      "son": 7074,
      "sma": 7075,
      "sport": 7076,
      "sle": 7077,
      "sch": 7078,
      "sig": 7079,
      "shore": 7080,
      "sarm": 7081,
      "s10": 7082,
      "sand": 7083,
      "scl": 7084,
      "s-11": 7085,
      "sang": 7086,
      "som": 7087,
      "sri": 7088,
      "s45": 7089,
      "s08": 7090,
      "sill": 7091,
      "s22": 7092,
      "sft": 7093,
      "ssc": 7094,
      "sape": 7095,
      "sized": 7096,
      "sour": 7097,
      "sous": 7098,
      "s-m": 7099,
      "s25": 7100,
      "sfl": 7101,
      "s/sdl": 7102,
      "sors": 7103,
      "s-7": 7104,
      "sank": 7105,
      "s1922": 7106,
      "scope": 7107,
      "sadar": 7108,
      "somer": 7109,
      "sals": 7110,
      "sign": 7111,
      "sxg": 7112,
      "s-type": 7113,
      "te": 7114,
      "td": 7115,
      "tl": 7116,
      "tn": 7117,
      "tf": 7118,
      "t.": 7119,
      "tb": 7120,
      "tam": 7121,
      "tac": 7122,
      "tet": 7123,
      "tea": 7124,
      "tir": 7125,
      "tis": 7126,
      "tod": 7127,
      "tiz": 7128,
      "ters": 7129,
      "tap": 7130,
      "tex": 7131,
      "tect": 7132,
      "t120": 7133,
      "tun": 7134,
      "tak": 7135,
      "tpk": 7136,
      "table": 7137,
      "tc-": 7138,
      "tft": 7139,
      "tay": 7140,
      "t33": 7141,
      "tall": 7142,
      "t96": 7143,
      "told": 7144,
      "taic": 7145,
      "texas": 7146,
      "toro": 7147,
      "uv": 7148,
      "uat": 7149,
      "uality": 7150,
      "u.s": 7151,
      "uster": 7152,
      "ucm": 7153,
      "ucp": 7154,
      "uppler": 7155,
      "uae": 7156,
      "u0-s": 7157,
      "u5mk": 7158,
      "vi": 7159,
      "vh": 7160,
      "vf": 7161,
      "ver": 7162,
      "vam": 7163,
      "ven": 7164,
      "v20": 7165,
      "v19": 7166,
      "viv": 7167,
      "v-1": 7168,
      "vsd": 7169,
      "vend": 7170,
      "viol": 7171,
      "viet": 7172,
      "vdpl": 7173,
      "wt": 7174,
      "wr": 7175,
      "w9": 7176,
      "wj": 7177,
      "wb": 7178,
      "ww": 7179,
      "wit": 7180,
      "wst": 7181,
      "wma": 7182,
      "w20": 7183,
      "w-2019": 7184,
      "wine": 7185,
      "wmt": 7186,
      "wpk": 7187,
      "wear": 7188,
      "wpc": 7189,
      "woth": 7190,
      "winc": 7191,
      "w/5": 7192,
      "w008": 7193,
      "w420": 7194,
      "winding": 7195,
      "world": 7196,
      "xin": 7197,
      "xap": 7198,
      "xbd": 7199,
      "xml": 7200,
      "xray": 7201,
      "xdd": 7202,
      "xd19": 7203,
      "xzh": 7204,
      "yt": 7205,
      "yu": 7206,
      "ys": 7207,
      "y1": 7208,
      "yr": 7209,
      "yx": 7210,
      "yad": 7211,
      "y003": 7212,
      "yl-": 7213,
      "ymp": 7214,
      "yy-": 7215,
      "ye19": 7216,
      "y-type": 7217,
      "zm": 7218,
      "zr": 7219,
      "zhe": 7220,
      "zc-": 7221,
      "z2001": 7222,
      "z-9": 7223,
      "zirc": 7224,
      "zfl": 7225,
      "##a0": 7226,
      "##a1": 7227,
      "##aed": 7228,
      "##aim": 7229,
      "##a00": 7230,
      "##ader": 7231,
      "##aif": 7232,
      "##avt": 7233,
      "##aver": 7234,
      "##aff": 7235,
      "##a-02": 7236,
      "##a-6": 7237,
      "##a2000": 7238,
      "##a/pi": 7239,
      "##a36": 7240,
      "##a/se": 7241,
      "##vl": 7242,
      "##vx": 7243,
      "##vic": 7244,
      "##vet": 7245,
      "##ved": 7246,
      "##v01": 7247,
      "##vig": 7248,
      "##vator": 7249,
      "##vaw": 7250,
      "##vik": 7251,
      "##venty": 7252,
      "##ih": 7253,
      "##iw": 7254,
      "##iate": 7255,
      "##iene": 7256,
      "##ima": 7257,
      "##ias": 7258,
      "##ipt": 7259,
      "##i-2019": 7260,
      "##iod": 7261,
      "##i-01": 7262,
      "##iud": 7263,
      "##ioc": 7264,
      "##iatic": 7265,
      "##i19001": 7266,
      "##imax": 7267,
      "##iung": 7268,
      "##i200113": 7269,
      "##i/253": 7270,
      "##i/lhr": 7271,
      "##i/010/cgc/2019-20": 7272,
      "##tm": 7273,
      "##tc": 7274,
      "##tic": 7275,
      "##tach": 7276,
      "##tol": 7277,
      "##t-01": 7278,
      "##tri": 7279,
      "##tain": 7280,
      "##t60": 7281,
      "##tc-": 7282,
      "##trom": 7283,
      "##tose": 7284,
      "##tech": 7285,
      "##t009": 7286,
      "##tfl": 7287,
      "##tipl": 7288,
      "##ye": 7289,
      "##yo": 7290,
      "##yg": 7291,
      "##y19": 7292,
      "##yed": 7293,
      "##yab": 7294,
      "##ystem": 7295,
      "##y-l": 7296,
      "##yellow": 7297,
      "##y-2019120": 7298,
      "##y191121": 7299,
      "##ymethyl": 7300,
      "##)at": 7301,
      "##)he": 7302,
      "##eo": 7303,
      "##e1": 7304,
      "##ean": 7305,
      "##efor": 7306,
      "##ehe": 7307,
      "##e00": 7308,
      "##e12": 7309,
      "##eum": 7310,
      "##ease": 7311,
      "##e/2019": 7312,
      "##eif": 7313,
      "##e-11": 7314,
      "##e/pi": 7315,
      "##ego": 7316,
      "##egr": 7317,
      "##e201911": 7318,
      "##ehy": 7319,
      "##eces": 7320,
      "##e200": 7321,
      "##e008": 7322,
      "##e-ac": 7323,
      "##e-75mm-6": 7324,
      "##e-20-3071": 7325,
      "##eih": 7326,
      "##mu": 7327,
      "##mf": 7328,
      "##mz": 7329,
      "##mw": 7330,
      "##mar": 7331,
      "##mac": 7332,
      "##mene": 7333,
      "##meam": 7334,
      "##mesh": 7335,
      "##mc/": 7336,
      "##mog": 7337,
      "##mech": 7338,
      "##m-02": 7339,
      "##mcm": 7340,
      "##mj01": 7341,
      "##miph": 7342,
      "##mvl": 7343,
      "##mi-01": 7344,
      "##-an": 7345,
      "##-st": 7346,
      "##-al": 7347,
      "##-ma": 7348,
      "##-fr": 7349,
      "##-he": 7350,
      "##-el": 7351,
      "##-is": 7352,
      "##-th": 7353,
      "##-cl": 7354,
      "##-if": 7355,
      "##-ex": 7356,
      "##-i-": 7357,
      "##-un": 7358,
      "##-fe": 7359,
      "##-60": 7360,
      "##-ca": 7361,
      "##-50": 7362,
      "##-52": 7363,
      "##-5-": 7364,
      "##-ext": 7365,
      "##-sc": 7366,
      "##-bl": 7367,
      "##-ef": 7368,
      "##-07": 7369,
      "##-bon": 7370,
      "##-67": 7371,
      "##-85": 7372,
      "##-e)": 7373,
      "##-col": 7374,
      "##-47": 7375,
      "##-49": 7376,
      "##-rev": 7377,
      "##-up": 7378,
      "##-79": 7379,
      "##-revised": 7380,
      "##-451": 7381,
      "##-proforma": 7382,
      "##-079": 7383,
      "##-869": 7384,
      "##dt": 7385,
      "##dc": 7386,
      "##do": 7387,
      "##dr": 7388,
      "##dx": 7389,
      "##dz": 7390,
      "##d6": 7391,
      "##din": 7392,
      "##dis": 7393,
      "##di-": 7394,
      "##dsm": 7395,
      "##d/00": 7396,
      "##d-s": 7397,
      "##d75": 7398,
      "##d-03": 7399,
      "##dico": 7400,
      "##d/004": 7401,
      "##d-30": 7402,
      "##dm/001": 7403,
      "##d070": 7404,
      "##di/010/cgc/2019-20": 7405,
      "##ua": 7406,
      "##upl": 7407,
      "##u/2019": 7408,
      "##u/h": 7409,
      "##uous": 7410,
      "##uitan": 7411,
      "##u2019120": 7412,
      "##uvastatin": 7413,
      "##uorocell": 7414,
      "##urox": 7415,
      "##l0": 7416,
      "##lf": 7417,
      "##lit": 7418,
      "##lat": 7419,
      "##lene": 7420,
      "##lim": 7421,
      "##ling": 7422,
      "##lact": 7423,
      "##lle": 7424,
      "##line": 7425,
      "##liz": 7426,
      "##lip": 7427,
      "##lub": 7428,
      "##l(s)": 7429,
      "##lens": 7430,
      "##l.s": 7431,
      "##lift": 7432,
      "##lenzing": 7433,
      "##l/13": 7434,
      "##l901": 7435,
      "##lz-l": 7436,
      "##sh": 7437,
      "##s0": 7438,
      "##s/": 7439,
      "##sty": 7440,
      "##san": 7441,
      "##sur": 7442,
      "##s-2019": 7443,
      "##s11": 7444,
      "##sial": 7445,
      "##sax": 7446,
      "##sart": 7447,
      "##sue": 7448,
      "##s/s": 7449,
      "##sun": 7450,
      "##sized": 7451,
      "##srol": 7452,
      "##s/k": 7453,
      "##s-p": 7454,
      "##sled": 7455,
      "##s46": 7456,
      "##sisture": 7457,
      "##sitan": 7458,
      "##s-04": 7459,
      "##s/11": 7460,
      "##sulon": 7461,
      "##scope": 7462,
      "##s195": 7463,
      "##s201910": 7464,
      "##siung": 7465,
      "##system": 7466,
      "##s-el": 7467,
      "##ni": 7468,
      "##nd": 7469,
      "##nx": 7470,
      "##nk": 7471,
      "##ner": 7472,
      "##nam": 7473,
      "##net": 7474,
      "##ned": 7475,
      "##ning": 7476,
      "##nel": 7477,
      "##n-2019": 7478,
      "##nis": 7479,
      "##niz": 7480,
      "##nif": 7481,
      "##n-01": 7482,
      "##np-": 7483,
      "##n29": 7484,
      "##n62": 7485,
      "##n-l": 7486,
      "##n41": 7487,
      "##nealed": 7488,
      "##8h": 7489,
      "##8r": 7490,
      "##8+": 7491,
      "##8al": 7492,
      "##8/20": 7493,
      "##850": 7494,
      "##862": 7495,
      "##85-": 7496,
      "##858": 7497,
      "##835": 7498,
      "##879": 7499,
      "##8/b01": 7500,
      "##85-9": 7501,
      "##8893": 7502,
      "##8dw": 7503,
      "##8cb": 7504,
      "##8(ps": 7505,
      "##8/sgs-coc-00645": 7506,
      "##ha": 7507,
      "##ho": 7508,
      "##h3": 7509,
      "##hg": 7510,
      "##hon": 7511,
      "##hma": 7512,
      "##hing": 7513,
      "##hia": 7514,
      "##hood": 7515,
      "##hlor": 7516,
      "##hite": 7517,
      "##hmm": 7518,
      "##h-s": 7519,
      "##hens": 7520,
      "##hness": 7521,
      "##hung": 7522,
      "##hosphate": 7523,
      "##hamb": 7524,
      "##h1902": 7525,
      "##h2019112": 7526,
      "##h20191223": 7527,
      "##hiw": 7528,
      "##hsiung": 7529,
      "##hn-l": 7530,
      "##c1": 7531,
      "##c.": 7532,
      "##cw": 7533,
      "##city": 7534,
      "##cate": 7535,
      "##cam": 7536,
      "##cro": 7537,
      "##c's": 7538,
      "##cil": 7539,
      "##cing": 7540,
      "##cpt": 7541,
      "##cis": 7542,
      "##cine": 7543,
      "##c-19": 7544,
      "##c-01": 7545,
      "##cub": 7546,
      "##c-2020": 7547,
      "##c/01": 7548,
      "##c003": 7549,
      "##cator": 7550,
      "##cure": 7551,
      "##c(s)": 7552,
      "##c201912": 7553,
      "##c2019120": 7554,
      "##c202001": 7555,
      "##chem": 7556,
      "##cryl": 7557,
      "##cement": 7558,
      "##cury": 7559,
      "##corus": 7560,
      "##c-2012": 7561,
      "##cp-3": 7562,
      "##c191220": 7563,
      "##c191207": 7564,
      "##73": 7565,
      "##7+": 7566,
      "##7-2019.": 7567,
      "##7/2019": 7568,
      "##703": 7569,
      "##718": 7570,
      "##7/20": 7571,
      "##7pk": 7572,
      "##740": 7573,
      "##789": 7574,
      "##7/jan": 7575,
      "##7-00": 7576,
      "##7-a": 7577,
      "##767": 7578,
      "##7/g/2019": 7579,
      "##735": 7580,
      "##7000": 7581,
      "##7/jan-20": 7582,
      "##741": 7583,
      "##7/b01": 7584,
      "##7/100": 7585,
      "##7.a01": 7586,
      "##7/3112": 7587,
      "##7141": 7588,
      "##7/008": 7589,
      "##783)": 7590,
      "##7(ef)": 7591,
      "##7n29": 7592,
      "##0g": 7593,
      "##0x": 7594,
      "##0/19": 7595,
      "##0if": 7596,
      "##060": 7597,
      "##051": 7598,
      "##057": 7599,
      "##019120": 7600,
      "##0-p": 7601,
      "##067": 7602,
      "##0-b": 7603,
      "##0pf": 7604,
      "##01238": 7605,
      "##0s-01mk": 7606,
      "##0683": 7607,
      "##4d": 7608,
      "##4h": 7609,
      "##4g": 7610,
      "##4r": 7611,
      "##4+": 7612,
      "##4-2019": 7613,
      "##4/20": 7614,
      "##4os": 7615,
      "##4pk": 7616,
      "##4/2019-20": 7617,
      "##422": 7618,
      "##433": 7619,
      "##480": 7620,
      "##4-00": 7621,
      "##467": 7622,
      "##4/g/2019": 7623,
      "##435": 7624,
      "##439": 7625,
      "##4-04": 7626,
      "##4009": 7627,
      "##4/b01": 7628,
      "##4/2001": 7629,
      "##4wn": 7630,
      "##4025": 7631,
      "##4893": 7632,
      "##40015": 7633,
      "##4/1119": 7634,
      "##2_": 7635,
      "##220": 7636,
      "##212": 7637,
      "##223": 7638,
      "##253": 7639,
      "##2-2": 7640,
      "##21912": 7641,
      "##2-s": 7642,
      "##267": 7643,
      "##2/g/2019": 7644,
      "##2/9": 7645,
      "##2/dec": 7646,
      "##249": 7647,
      "##282": 7648,
      "##2pf": 7649,
      "##281": 7650,
      "##2103": 7651,
      "##2/po": 7652,
      "##2v)": 7653,
      "##2np": 7654,
      "##24400": 7655,
      "##2869": 7656,
      "##2v01": 7657,
      "##o3": 7658,
      "##o1": 7659,
      "##oin": 7660,
      "##onit": 7661,
      "##ode": 7662,
      "##ope": 7663,
      "##oyl": 7664,
      "##oethylene": 7665,
      "##odec": 7666,
      "##ofa": 7667,
      "##ohyd": 7668,
      "##o/9": 7669,
      "##oech": 7670,
      "##ooth": 7671,
      "##oster": 7672,
      "##o191204": 7673,
      "##o191101": 7674,
      "##oste": 7675,
      "##o/01/2020": 7676,
      "##ohsiung": 7677,
      "##3)": 7678,
      "##3/": 7679,
      "##3b": 7680,
      "##310": 7681,
      "##304": 7682,
      "##353": 7683,
      "##314": 7684,
      "##352": 7685,
      "##3-a": 7686,
      "##3000": 7687,
      "##3/dec": 7688,
      "##3009": 7689,
      "##372": 7690,
      "##32020": 7691,
      "##3/b01": 7692,
      "##3460": 7693,
      "##3141": 7694,
      "##3.a00": 7695,
      "##3in/3inid/29inod/wso/bluelines": 7696,
      "##5)": 7697,
      "##5c": 7698,
      "##5p": 7699,
      "##520": 7700,
      "##512": 7701,
      "##5/20": 7702,
      "##504": 7703,
      "##553": 7704,
      "##5-2": 7705,
      "##5/2019-20": 7706,
      "##540": 7707,
      "##55-": 7708,
      "##551": 7709,
      "##5/b": 7710,
      "##5230": 7711,
      "##5/b01": 7712,
      "##5195": 7713,
      "##5/11/2019": 7714,
      "##5/1119": 7715,
      "##5/sgs-coc-00645": 7716,
      "##5yg": 7717,
      "##g)": 7718,
      "##gs": 7719,
      "##gac": 7720,
      "##gon": 7721,
      "##get": 7722,
      "##ged": 7723,
      "##gra": 7724,
      "##gent": 7725,
      "##gents": 7726,
      "##g08": 7727,
      "##gred": 7728,
      "##gment": 7729,
      "##gian": 7730,
      "##g66": 7731,
      "##g-04": 7732,
      "##gloss/m": 7733,
      "##gudia": 7734,
      "##g-c": 7735,
      "##glob": 7736,
      "##gnan": 7737,
      "##gf)": 7738,
      "##g051": 7739,
      "##pz": 7740,
      "##pic": 7741,
      "##por": 7742,
      "##p19": 7743,
      "##pport": 7744,
      "##p00": 7745,
      "##pur": 7746,
      "##pir": 7747,
      "##pid": 7748,
      "##pod": 7749,
      "##p/2019": 7750,
      "##p-12": 7751,
      "##pib": 7752,
      "##p10": 7753,
      "##pap": 7754,
      "##pai": 7755,
      "##p/p": 7756,
      "##pime": 7757,
      "##pill": 7758,
      "##p/m": 7759,
      "##p19112": 7760,
      "##p.a": 7761,
      "##pend": 7762,
      "##p2020": 7763,
      "##patch": 7764,
      "##pickled": 7765,
      "##p103": 7766,
      "##pets": 7767,
      "##poscope": 7768,
      "##1e": 7769,
      "##1il": 7770,
      "##12019": 7771,
      "##1-20": 7772,
      "##1-19": 7773,
      "##1/1": 7774,
      "##1pk": 7775,
      "##160": 7776,
      "##15-": 7777,
      "##151": 7778,
      "##157": 7779,
      "##1.00": 7780,
      "##1/g/2019": 7781,
      "##1-02": 7782,
      "##1-x": 7783,
      "##119112": 7784,
      "##1/19-20": 7785,
      "##1mo": 7786,
      "##1/3112": 7787,
      "##1.a00": 7788,
      "##1m91": 7789,
      "##1db": 7790,
      "##1533": 7791,
      "##1-0002/00": 7792,
      "##1/nov": 7793,
      "##1l0": 7794,
      "##r4": 7795,
      "##r1": 7796,
      "##rat": 7797,
      "##ral": 7798,
      "##rig": 7799,
      "##rut": 7800,
      "##rase": 7801,
      "##rile": 7802,
      "##ride": 7803,
      "##rug": 7804,
      "##r/2": 7805,
      "##rane": 7806,
      "##r-04": 7807,
      "##ratic": 7808,
      "##rating": 7809,
      "##renol": 7810,
      "##r102": 7811,
      "##r-001": 7812,
      "##rpl19": 7813,
      "##rulic": 7814,
      "##r080": 7815,
      "##rency": 7816,
      "##roug": 7817,
      "##rp/9b": 7818,
      "##r-cl": 7819,
      "##9+": 7820,
      "##9/2019": 7821,
      "##910": 7822,
      "##902": 7823,
      "##923": 7824,
      "##968": 7825,
      "##921": 7826,
      "##935": 7827,
      "##9000": 7828,
      "##915": 7829,
      "##975": 7830,
      "##943": 7831,
      "##9/dec-19": 7832,
      "##9pf": 7833,
      "##9cb": 7834,
      "##9pal": 7835,
      "##9113": 7836,
      "##9180": 7837,
      "##9/rus/2019": 7838,
      "##j.": 7839,
      "##jw": 7840,
      "##jen": 7841,
      "##jet": 7842,
      "##jug": 7843,
      "##j1911": 7844,
      "##j/k": 7845,
      "##jck": 7846,
      "##jtgj": 7847,
      "##j-1119": 7848,
      "##jee": 7849,
      "##js195": 7850,
      "##jn-01": 7851,
      "##xx": 7852,
      "##xet": 7853,
      "##x20": 7854,
      "##x10": 7855,
      "##x2001": 7856,
      "##xlt": 7857,
      "##x19120": 7858,
      "##x/f": 7859,
      "##x191209": 7860,
      "##xs01": 7861,
      "##xario": 7862,
      "##xe-20-3071": 7863,
      "##x4h": 7864,
      "##/al": 7865,
      "##/pe": 7866,
      "##/ob": 7867,
      "##/ch": 7868,
      "##/-20": 7869,
      "##//2019": 7870,
      "##/ap": 7871,
      "##/04": 7872,
      "##/40": 7873,
      "##/l-": 7874,
      "##/tl": 7875,
      "##/68": 7876,
      "##/44": 7877,
      "##/ep": 7878,
      "##/77": 7879,
      "##/47": 7880,
      "##/72": 7881,
      "##/ts": 7882,
      "##/max": 7883,
      "##/box": 7884,
      "##/airport": 7885,
      "##/jm": 7886,
      "##/620": 7887,
      "##/prm": 7888,
      "##/analy": 7889,
      "##/22/19": 7890,
      "##/trin": 7891,
      "##/dr": 7892,
      "##/718": 7893,
      "##fh": 7894,
      "##fk": 7895,
      "##fat": 7896,
      "##fen": 7897,
      "##fort": 7898,
      "##fon": 7899,
      "##fil": 7900,
      "##f2019": 7901,
      "##fus": 7902,
      "##f18": 7903,
      "##fca": 7904,
      "##f2001": 7905,
      "##fire": 7906,
      "##firmation": 7907,
      "##fotco)": 7908,
      "##f/10": 7909,
      "##f19112": 7910,
      "##floxacin": 7911,
      "##f-pk": 7912,
      "##f/007": 7913,
      "##fx3": 7914,
      "##fener": 7915,
      "##faces": 7916,
      "##fop-p-": 7917,
      "##f783)": 7918,
      "##fp/2019": 7919,
      "##z)": 7920,
      "##zate": 7921,
      "##zing": 7922,
      "##zation": 7923,
      "##zag": 7924,
      "##zers": 7925,
      "##zse": 7926,
      "##z1912": 7927,
      "##z201912": 7928,
      "##zpp-": 7929,
      "##zj1911": 7930,
      "##.l": 7931,
      "##.0": 7932,
      "##.w": 7933,
      "##.19": 7934,
      "##.as": 7935,
      "##.120": 7936,
      "##.09": 7937,
      "##.29": 7938,
      "##.001": 7939,
      "##.003": 7940,
      "##.19.": 7941,
      "##.2000": 7942,
      "##.2020": 7943,
      "##.t.": 7944,
      "##.28": 7945,
      "##.90": 7946,
      "##.test": 7947,
      "##.tons": 7948,
      "##be": 7949,
      "##bg": 7950,
      "##bar": 7951,
      "##bro": 7952,
      "##bal": 7953,
      "##bed": 7954,
      "##bas": 7955,
      "##bel": 7956,
      "##b00": 7957,
      "##bus": 7958,
      "##base": 7959,
      "##b/2019": 7960,
      "##bco": 7961,
      "##bci": 7962,
      "##btr": 7963,
      "##bep": 7964,
      "##b-l": 7965,
      "##bins": 7966,
      "##b-68": 7967,
      "##b/16": 7968,
      "##b800": 7969,
      "##b.r": 7970,
      "##b191219": 7971,
      "##b93": 7972,
      "##b191211": 7973,
      "##b191114": 7974,
      "##6u": 7975,
      "##612": 7976,
      "##6-2019": 7977,
      "##6-20": 7978,
      "##610": 7979,
      "##618": 7980,
      "##6/p": 7981,
      "##608": 7982,
      "##650": 7983,
      "##6/2020": 7984,
      "##668": 7985,
      "##6-00": 7986,
      "##616": 7987,
      "##639": 7988,
      "##643": 7989,
      "##6-8": 7990,
      "##648": 7991,
      "##6/b01": 7992,
      "##636": 7993,
      "##6103": 7994,
      "##6/100": 7995,
      "##6s01": 7996,
      "##6893": 7997,
      "##6-a)": 7998,
      "##6139": 7999,
      "##6/february-20": 8000,
      "##6r-cl": 8001,
      "##6.29": 8002,
      "##kg": 8003,
      "##karachi": 8004,
      "##k18": 8005,
      "##k2001": 8006,
      "##k/2020": 8007,
      "##k-a": 8008,
      "##k-n": 8009,
      "##kraft": 8010,
      "##krs": 8011,
      "##ka/pi": 8012,
      "##kyo": 8013,
      "##wet": 8014,
      "##wra": 8015,
      "##with": 8016,
      "##wax": 8017,
      "##w-19": 8018,
      "##wood": 8019,
      "##wber": 8020,
      "##w17": 8021,
      "##wall": 8022,
      "##wind": 8023,
      "##wc/2019-20": 8024,
      "##woven": 8025,
      "##w-25": 8026,
      "##w-11bk": 8027,
      "##winder": 8028,
      "##worthy": 8029,
      "##world": 8030,
      "##w191122": 8031,
      "##w-20191206": 8032,
      "##w-75mm-6": 8033,
      "##we/pi": 8034,
      "##wc191220": 8035,
      "##wx19120": 8036,
      "##wk18": 8037,
      "##(20": 8038,
      "##(im": 8039,
      "##(re": 8040,
      "##(us": 8041,
      "##(89": 8042,
      "##(42": 8043,
      "##(iso": 8044,
      "##(poly": 8045,
      "##(hd": 8046,
      "##(ts": 8047,
      "##(c)": 8048,
      "##(ae": 8049,
      "##(endeavoring": 8050,
      "##(es)": 8051,
      "##(lens": 8052,
      "##(gf)": 8053,
      "##(fotco)": 8054,
      "##'l": 8055,
      "##q20": 8056,
      "##q-4": 8057,
      "##qy-": 8058,
      "##qkrc": 8059,
      "##q191118": 8060,
      "##+en": 8061,
      "##+met": 8062,
      "##+lact": 8063,
      "##+system": 8064,
      "##%)": 8065,
      "##eren": 8066,
      "##erco": 8067,
      "##eries": 8068,
      "##erpa": 8069,
      "##ervice": 8070,
      "##erating": 8071,
      "##erstr": 8072,
      "##erbal": 8073,
      "##nti": 8074,
      "##nto": 8075,
      "##ntain": 8076,
      "##ntego": 8077,
      "##ita": 8078,
      "##iting": 8079,
      "##itis": 8080,
      "##itut": 8081,
      "##its)": 8082,
      "##it-53": 8083,
      "##iter-": 8084,
      "##itc-01": 8085,
      "##ica": 8086,
      "##ici": 8087,
      "##icate": 8088,
      "##icro": 8089,
      "##icos": 8090,
      "##ic/2019-20": 8091,
      "##icill": 8092,
      "##ic/h": 8093,
      "##icox": 8094,
      "##ic-25": 8095,
      "##ichever": 8096,
      "##ino": 8097,
      "##inac": 8098,
      "##infor": 8099,
      "##ined": 8100,
      "##ination": 8101,
      "##inical": 8102,
      "##including": 8103,
      "##ineral": 8104,
      "##inclusive": 8105,
      "##inuous": 8106,
      "##or's": 8107,
      "##orad": 8108,
      "##oricox": 8109,
      "##ata": 8110,
      "##at'": 8111,
      "##atine": 8112,
      "##atable": 8113,
      "##atog": 8114,
      "##at-b": 8115,
      "##atalized": 8116,
      "##athea": 8117,
      "##atoin": 8118,
      "##atz)": 8119,
      "##ara": 8120,
      "##ar2": 8121,
      "##ark": 8122,
      "##aric": 8123,
      "##arin": 8124,
      "##ar's": 8125,
      "##aret": 8126,
      "##arch": 8127,
      "##arth": 8128,
      "##aray": 8129,
      "##arind": 8130,
      "##arazole": 8131,
      "##arithromycin": 8132,
      "##arbox": 8133,
      "pere": 8134,
      "perpr": 8135,
      "perform": 8136,
      "perfect": 8137,
      "period": 8138,
      "permeam": 8139,
      "perfus": 8140,
      "##antel": 8141,
      "##oton": 8142,
      "##otide": 8143,
      "##otri": 8144,
      "##otech": 8145,
      "##ot-ii": 8146,
      "##otometer": 8147,
      "##atec": 8148,
      "##atemal": 8149,
      "##ate-b": 8150,
      "##ami": 8151,
      "##amet": 8152,
      "##amel": 8153,
      "##ament": 8154,
      "##amyl": 8155,
      "##amco": 8156,
      "##amad": 8157,
      "##ample": 8158,
      "##amect": 8159,
      "##amel)": 8160,
      "##amvic": 8161,
      "##nits": 8162,
      "##nitary": 8163,
      "##nited": 8164,
      "##nitol": 8165,
      "##pron": 8166,
      "##prach": 8167,
      "##pris": 8168,
      "##prime": 8169,
      "##proc": 8170,
      "##prazole": 8171,
      "##preve": 8172,
      "##prp/9b": 8173,
      "##oultry": 8174,
      "##ermina": 8175,
      "##acg": 8176,
      "##acor": 8177,
      "##acid": 8178,
      "##acco": 8179,
      "##acc-": 8180,
      "##acope": 8181,
      "ina": 8182,
      "inent": 8183,
      "inher": 8184,
      "input": 8185,
      "incub": 8186,
      "ingred": 8187,
      "inj.": 8188,
      "no(s)": 8189,
      "no56": 8190,
      "##tylene": 8191,
      "##ana": 8192,
      "##anc": 8193,
      "##anic": 8194,
      "##anch": 8195,
      "##anid": 8196,
      "##ania": 8197,
      "##ancy": 8198,
      "##anced": 8199,
      "##anzania": 8200,
      "##ani19001": 8201,
      "##en)": 8202,
      "##enor": 8203,
      "##ench": 8204,
      "##en/2019": 8205,
      "##enad": 8206,
      "##eno)": 8207,
      "##enf's": 8208,
      "##enoscope": 8209,
      "atro": 8210,
      "atif": 8211,
      "athd": 8212,
      "atml": 8213,
      "at88": 8214,
      "attach": 8215,
      "athens": 8216,
      "dated17": 8217,
      "no.s": 8218,
      "no.2": 8219,
      "no.as": 8220,
      "no.ol": 8221,
      "no.2019": 8222,
      "no.00": 8223,
      "no.12": 8224,
      "no.is": 8225,
      "no.ag": 8226,
      "no.ig": 8227,
      "no.10": 8228,
      "no.ap": 8229,
      "no.08": 8230,
      "no.51": 8231,
      "no.125": 8232,
      "no.ms": 8233,
      "no.vc": 8234,
      "no.so": 8235,
      "no.500": 8236,
      "no.ts": 8237,
      "no.2020": 8238,
      "no.460": 8239,
      "no.27": 8240,
      "no.sn": 8241,
      "no.191126": 8242,
      "no.mc/": 8243,
      "no.dsm": 8244,
      "no.40015": 8245,
      "no.1.00": 8246,
      "no.x2001": 8247,
      "no.btr": 8248,
      "##orted": 8249,
      "##ortening": 8250,
      "ased": 8251,
      "ashd": 8252,
      "asiatic": 8253,
      "##on'": 8254,
      "##onal": 8255,
      "##onium": 8256,
      "##onment": 8257,
      "##onized": 8258,
      "##on-a": 8259,
      "##onnect": 8260,
      "##onuc": 8261,
      "##onoscope": 8262,
      "##onodec": 8263,
      "##onfirmation": 8264,
      "##stim": 8265,
      "##still": 8266,
      "##st19001": 8267,
      "usb": 8268,
      "using": 8269,
      "use)": 8270,
      "usg66": 8271,
      "usd8": 8272,
      "usd2": 8273,
      "usd1": 8274,
      "usd33": 8275,
      "usd35": 8276,
      "##enem": 8277,
      "##eneck": 8278,
      "##rooz": 8279,
      "##rochloride": 8280,
      "##ficinal": 8281,
      "##ficatoin": 8282,
      "pa-2019": 8283,
      "paste": 8284,
      "pastill": 8285,
      "##achet": 8286,
      "##achine": 8287,
      "##achlor": 8288,
      "##ary's": 8289,
      "beneci": 8290,
      "##ala": 8291,
      "##alax": 8292,
      "##alph": 8293,
      "##alof": 8294,
      "##al/sl": 8295,
      "##al-1219-01": 8296,
      "##aloyl": 8297,
      "beneficiarn": 8298,
      "beneficiaries": 8299,
      "beneficiar's": 8300,
      "##ists": 8301,
      "##ist.": 8302,
      "##istore": 8303,
      "karachi.": 8304,
      "karachi/s": 8305,
      "karachipakistan": 8306,
      "proport": 8307,
      "pro2019": 8308,
      "pro-c": 8309,
      "proxet": 8310,
      "probe": 8311,
      "##mag": 8312,
      "##mabl": 8313,
      "##mazole": 8314,
      "##mask": 8315,
      "##istanbul": 8316,
      "kgyc": 8317,
      "kg/k": 8318,
      "kg(+/-": 8319,
      "kg/dr": 8320,
      "pakistan)": 8321,
      "pakistancount": 8322,
      "pakistandis": 8323,
      "invest": 8324,
      "inv467": 8325,
      "invoice-5": 8326,
      "invoice-6": 8327,
      "of19": 8328,
      "officinal": 8329,
      "##frmal": 8330,
      "##free": 8331,
      "##etor": 8332,
      "##etol": 8333,
      "##etail": 8334,
      "##etium": 8335,
      "##etized)": 8336,
      "##eto)": 8337,
      "##etres": 8338,
      "##201": 8339,
      "##20ab": 8340,
      "##2003": 8341,
      "##2018": 8342,
      "##2040": 8343,
      "##20003": 8344,
      "##2017": 8345,
      "##20/b": 8346,
      "##2038": 8347,
      "##20009": 8348,
      "##20/pi": 8349,
      "##20k-": 8350,
      "##201801": 8351,
      "##209120": 8352,
      "##20071": 8353,
      "##20-i": 8354,
      "##20-003": 8355,
      "##2037": 8356,
      "##20(ps": 8357,
      "##20e008": 8358,
      "##20s11": 8359,
      "##20h-s": 8360,
      "##19x": 8361,
      "##19-12": 8362,
      "##1910": 8363,
      "##19/1": 8364,
      "##19-11": 8365,
      "##1904": 8366,
      "##1909": 8367,
      "##1908": 8368,
      "##19-2": 8369,
      "##1960": 8370,
      "##19/r": 8371,
      "##19-a": 8372,
      "##19000": 8373,
      "##19-02": 8374,
      "##19-jan": 8375,
      "##1926": 8376,
      "##1939": 8377,
      "##19101": 8378,
      "##19/rbd": 8379,
      "##19/001": 8380,
      "##19012": 8381,
      "##1990": 8382,
      "##1961": 8383,
      "##19-23": 8384,
      "##19016": 8385,
      "##19031": 8386,
      "##19440": 8387,
      "##19c003": 8388,
      "##1912019": 8389,
      "##19935": 8390,
      "##porting": 8391,
      "cob": 8392,
      "copoly": 8393,
      "covers": 8394,
      "##esid": 8395,
      "##esco": 8396,
      "##es-19": 8397,
      "##esdel": 8398,
      "##esite": 8399,
      "##es06": 8400,
      "##esb00": 8401,
      "##hey": 8402,
      "##head": 8403,
      "mt12": 8404,
      "mtl-": 8405,
      "mtl/": 8406,
      "mtm/": 8407,
      "mt(20": 8408,
      "##ed.": 8409,
      "##edip": 8410,
      "##edures": 8411,
      "port)": 8412,
      "portug": 8413,
      "portpakistan": 8414,
      "port-pakistan": 8415,
      "ports/": 8416,
      "##asur": 8417,
      "##asse": 8418,
      "##asvir": 8419,
      "##aspec": 8420,
      "##as-nov": 8421,
      "anox": 8422,
      "annealed": 8423,
      "anka/pi": 8424,
      "##eaver": 8425,
      "pcb": 8426,
      "pcl/": 8427,
      "pcp-12": 8428,
      "##iles": 8429,
      "##ilol": 8430,
      "##ilized": 8431,
      "##ilter": 8432,
      "##ilgra": 8433,
      "##imus": 8434,
      "##imix": 8435,
      "##imc-": 8436,
      "##imsc": 8437,
      "##im-l": 8438,
      "##imless": 8439,
      "##imatic": 8440,
      "##imulation": 8441,
      "##imfos": 8442,
      "seaworthy": 8443,
      "seaport..": 8444,
      "seaport-pakistan": 8445,
      "seaport-is": 8446,
      "theob": 8447,
      "##olac": 8448,
      "##olan": 8449,
      "##olon": 8450,
      "##oled": 8451,
      "##olch": 8452,
      "##olding": 8453,
      "##olube": 8454,
      "##olzyme": 8455,
      "##olvet": 8456,
      "##olfen": 8457,
      "kgs)": 8458,
      "kgsla": 8459,
      "##ing)": 8460,
      "##ings": 8461,
      "##ingg": 8462,
      "##ply": 8463,
      "##pler": 8464,
      "##place": 8465,
      "##plex": 8466,
      "##pl-g": 8467,
      "##plte": 8468,
      "##pl191219": 8469,
      "##pl20191203": 8470,
      "##2019)": 8471,
      "##201901": 8472,
      "##201902": 8473,
      "##201903": 8474,
      "##201908": 8475,
      "##2019/2020": 8476,
      "##2019-s": 8477,
      "##201925": 8478,
      "##2019-v": 8479,
      "##2019070": 8480,
      "##2019158": 8481,
      "##20192011": 8482,
      "##2019005": 8483,
      "##2019s46": 8484,
      "##elow": 8485,
      "##elain": 8486,
      "##els.": 8487,
      "##el/162/19": 8488,
      "##elatable": 8489,
      "##0003": 8490,
      "##0009": 8491,
      "##0013": 8492,
      "##005-": 8493,
      "##0007": 8494,
      "##00.00": 8495,
      "##00/g/2019": 8496,
      "##0083": 8497,
      "##00gr": 8498,
      "##0059": 8499,
      "##00/3112": 8500,
      "##00449": 8501,
      "##00279": 8502,
      "##00x6s": 8503,
      "##00x10": 8504,
      "m/to": 8505,
      "##urity": 8506,
      "##urea": 8507,
      "##urved": 8508,
      "qasmj01": 8509,
      "qasim/": 8510,
      "qasim.": 8511,
      "qasimpakistan": 8512,
      "qasim/karachi": 8513,
      "qasimkarachi": 8514,
      "qasim(fotco)": 8515,
      "##iong": 8516,
      "##ionoz": 8517,
      "##121": 8518,
      "##122019": 8519,
      "##1212": 8520,
      "##12-2019.": 8521,
      "##1210": 8522,
      "##1223": 8523,
      "##12-2": 8524,
      "##12112": 8525,
      "##126/g/2019": 8526,
      "##12644": 8527,
      "##128(ps": 8528,
      "##124/g/2019": 8529,
      "##12968": 8530,
      "##ird": 8531,
      "##irement": 8532,
      "std": 8533,
      "stat": 8534,
      "stab": 8535,
      "stip": 8536,
      "stif": 8537,
      "stuf": 8538,
      "stron": 8539,
      "stage": 8540,
      "stann": 8541,
      "static": 8542,
      "stink": 8543,
      "storing": 8544,
      "sts01": 8545,
      "stoech": 8546,
      "##rad": 8547,
      "##raj": 8548,
      "##rael": 8549,
      "##raph": 8550,
      "##raven": 8551,
      "##entations": 8552,
      "comfort": 8553,
      "##ptob": 8554,
      "##ptid": 8555,
      "##ptember-2019": 8556,
      "##01)": 8557,
      "##0145": 8558,
      "##0113": 8559,
      "##01-1": 8560,
      "##0144": 8561,
      "##0131": 8562,
      "##01/19-20": 8563,
      "##01hw": 8564,
      "##01-nf": 8565,
      "##01.120": 8566,
      "##011939": 8567,
      "##0100/3112": 8568,
      "##pegas": 8569,
      "##peptid": 8570,
      "content": 8571,
      "contoll": 8572,
      "continuous": 8573,
      "##ractor": 8574,
      "##ail/19": 8575,
      "##ailable": 8576,
      "pct+met": 8577,
      "##oba": 8578,
      "##obo": 8579,
      "##ober": 8580,
      "##obit": 8581,
      "##obun": 8582,
      "##obuty": 8583,
      "##obs/11": 8584,
      "forehe": 8585,
      "oral": 8586,
      "orph": 8587,
      "orev": 8588,
      "orga": 8589,
      "determina": 8590,
      "m..tons": 8591,
      "##-2019/100": 8592,
      "##-20190102": 8593,
      "airort": 8594,
      "airmesh": 8595,
      "airpor": 8596,
      "airjet": 8597,
      "contract/c": 8598,
      "contract/order": 8599,
      "contractually": 8600,
      "##olyl-2": 8601,
      "##olyser": 8602,
      "##reen": 8603,
      "##reme": 8604,
      "##regard": 8605,
      "##reed.": 8606,
      "##le)": 8607,
      "##leotide": 8608,
      "##isan": 8609,
      "##isation": 8610,
      "##isodium": 8611,
      "##ished": 8612,
      "##is201903": 8613,
      "##isobuty": 8614,
      "m/tonpack": 8615,
      "##ul-2019.": 8616,
      "##ula)": 8617,
      "##ul-2001": 8618,
      "##ulsion": 8619,
      "airportpakistan.": 8620,
      "airport/sea": 8621,
      "##um-2019": 8622,
      "##um02": 8623,
      "##uments": 8624,
      "##ders": 8625,
      "##der/f": 8626,
      "##der/trin": 8627,
      "##ch2": 8628,
      "##chand": 8629,
      "##chron": 8630,
      "##chese": 8631,
      "##chrom": 8632,
      "##china": 8633,
      "##chingg": 8634,
      "##11)": 8635,
      "##11/20": 8636,
      "##11001": 8637,
      "##1140": 8638,
      "##11003": 8639,
      "##11/3": 8640,
      "##11-a": 8641,
      "##11-6": 8642,
      "##11101": 8643,
      "##11/rpol": 8644,
      "##1171": 8645,
      "##114955": 8646,
      "##118cb": 8647,
      "##117.a01": 8648,
      "##11g051": 8649,
      "##11.19": 8650,
      "##loed": 8651,
      "##lozan": 8652,
      "##lodx": 8653,
      "##loc-2012": 8654,
      "##loo191101": 8655,
      "##icals/k": 8656,
      "layer": 8657,
      "laptop": 8658,
      "polyol": 8659,
      "poly-p": 8660,
      "polymal": 8661,
      "polyamide": 8662,
      "polyether": 8663,
      "poly/ldpe": 8664,
      "polycarbonate": 8665,
      "polysty": 8666,
      "alph": 8667,
      "alpk": 8668,
      "al-r": 8669,
      "al-p": 8670,
      "##ylate": 8671,
      "##ylol": 8672,
      "##yline": 8673,
      "##yl-m": 8674,
      "##ylmeth": 8675,
      "##agam": 8676,
      "##ages": 8677,
      "##agonal": 8678,
      "choice": 8679,
      "chass": 8680,
      "chill": 8681,
      "chopp": 8682,
      "choline": 8683,
      "changer": 8684,
      "chpi1912": 8685,
      "chgs": 8686,
      "fob/f": 8687,
      "##usa": 8688,
      "##us''": 8689,
      "##us-201": 8690,
      "##usomat": 8691,
      "##ushing": 8692,
      "##usf-pk": 8693,
      "##igum": 8694,
      "##igno": 8695,
      "##uto191204": 8696,
      "##utrase": 8697,
      "rai-": 8698,
      "ra140": 8699,
      "rapid": 8700,
      "rabep": 8701,
      "##-20a": 8702,
      "##-20.": 8703,
      "##-2010": 8704,
      "##-20-11": 8705,
      "##-20001": 8706,
      "##-20000": 8707,
      "indent/order": 8708,
      "phy": 8709,
      "phthalic": 8710,
      "phosph": 8711,
      "ph27": 8712,
      "pharma": 8713,
      "phtfl": 8714,
      "php19": 8715,
      "pk-3": 8716,
      "pk-1": 8717,
      "pktl": 8718,
      "pkcy": 8719,
      "pk-j": 8720,
      "pk-1908": 8721,
      "pk602": 8722,
      "##arization": 8723,
      "##aba": 8724,
      "##abc": 8725,
      "##ables": 8726,
      "##abean": 8727,
      "##ab20e008": 8728,
      "pkrs": 8729,
      "acril": 8730,
      "ac7000": 8731,
      "ac9000": 8732,
      "acpl20191203": 8733,
      "prgx": 8734,
      "prote": 8735,
      "primax": 8736,
      "prm-02": 8737,
      "prf/10": 8738,
      "lahorepoly": 8739,
      "lahore-53": 8740,
      "##ida": 8741,
      "##id'": 8742,
      "##ides": 8743,
      "##idath": 8744,
      "##odenoscope": 8745,
      "##odesdel": 8746,
      "##ct)": 8747,
      "##ct-2019.": 8748,
      "##ctive": 8749,
      "##ctpi": 8750,
      "##ctioned": 8751,
      "purell": 8752,
      "puraspec": 8753,
      "##ineb": 8754,
      "##/2019-2": 8755,
      "##/2019/12": 8756,
      "##/2019/2": 8757,
      "##/2019112": 8758,
      "##/2019/11": 8759,
      "grade18": 8760,
      "grade-500": 8761,
      "##comm": 8762,
      "##co/19-20": 8763,
      "##co-019": 8764,
      "##compact": 8765,
      "##ithout": 8766,
      "recl": 8767,
      "requ": 8768,
      "rebo": 8769,
      "recharg": 8770,
      "refer": 8771,
      "ref.": 8772,
      "reactive": 8773,
      "reight)": 8774,
      "rewind": 8775,
      "reinfor": 8776,
      "repreve": 8777,
      "reporting": 8778,
      "replace": 8779,
      "reels.": 8780,
      "reis201903": 8781,
      "kg.as": 8782,
      "set032": 8783,
      "set-up": 8784,
      "##ighing": 8785,
      "metro": 8786,
      "metall": 8787,
      "metblock": 8788,
      "plc": 8789,
      "plot": 8790,
      "plast": 8791,
      "pl/p": 8792,
      "platt": 8793,
      "plugs": 8794,
      "pl/p-inv": 8795,
      "places": 8796,
      "pl-xf": 8797,
      "pl191122": 8798,
      "withania": 8799,
      "apple": 8800,
      "##essional": 8801,
      "applicant/s": 8802,
      "exp-": 8803,
      "ex-s": 8804,
      "ex-co": 8805,
      "examination": 8806,
      "exp/": 8807,
      "existing": 8808,
      "ex-bon": 8809,
      "exolube": 8810,
      "##-125": 8811,
      "##-12-2": 8812,
      "##-12-2018": 8813,
      "##-12-19.": 8814,
      "##-128-20": 8815,
      "##-1220(ps": 8816,
      "##ibt)": 8817,
      "##iblock": 8818,
      "bag)": 8819,
      "bag-p": 8820,
      "##10p": 8821,
      "##1029": 8822,
      "##1052": 8823,
      "##1022": 8824,
      "##1030": 8825,
      "##10/003": 8826,
      "##10s-01mk": 8827,
      "##10/g/2020": 8828,
      "##10701": 8829,
      "##109/rus/2019": 8830,
      "##10%)": 8831,
      "##1012968": 8832,
      "spm": 8833,
      "spin": 8834,
      "sperm": 8835,
      "spong": 8836,
      "sp/12": 8837,
      "spinn": 8838,
      "spvc": 8839,
      "spa02": 8840,
      "spht": 8841,
      "spgz": 8842,
      "sp2011": 8843,
      "sp191128": 8844,
      "spjs195": 8845,
      "sp/l-": 8846,
      "sp19/1": 8847,
      "material.": 8848,
      "##aximin": 8849,
      "##emed": 8850,
      "##emix": 8851,
      "##emplast": 8852,
      "##emmac": 8853,
      "##opa": 8854,
      "##opad": 8855,
      "##opied": 8856,
      "##opog": 8857,
      "##opanel": 8858,
      "##op-7)": 8859,
      "cotto": 8860,
      "##anda": 8861,
      "##anded": 8862,
      "cotton.": 8863,
      "cottonised": 8864,
      "(pet": 8865,
      "(panical": 8866,
      "(pyrogen": 8867,
      "(poultry": 8868,
      "(pibt)": 8869,
      "shy": 8870,
      "sh/19": 8871,
      "shov": 8872,
      "sh/9": 8873,
      "sh-1912": 8874,
      "shd/": 8875,
      "sh/19/12": 8876,
      "sh/151": 8877,
      "sh191101": 8878,
      "sh-191203": 8879,
      "shima": 8880,
      "sherpa": 8881,
      "shark": 8882,
      "shami": 8883,
      "shortening": 8884,
      "##cia": 8885,
      "##ciz": 8886,
      "##ci01": 8887,
      "##cius": 8888,
      "##ci/misc": 8889,
      "##cience": 8890,
      "##ci/123": 8891,
      "##/190": 8892,
      "##/1903": 8893,
      "##/19/01": 8894,
      "##/19001": 8895,
      "##/19-p": 8896,
      "##/19/t": 8897,
      "##/19/019": 8898,
      "##/19620": 8899,
      "##/19/092": 8900,
      "##/1920/pi": 8901,
      "##/1911/rpol": 8902,
      "chinene": 8903,
      "##izine": 8904,
      "##izon-a": 8905,
      "##izalof": 8906,
      "##estic": 8907,
      "##estrenol": 8908,
      "##erse": 8909,
      "##ersal": 8910,
      "##ersible": 8911,
      "sheard": 8912,
      "shelf": 8913,
      "##iver": 8914,
      "##iven": 8915,
      "##ival": 8916,
      "##ivir": 8917,
      "##ivered": 8918,
      "##ivim-l": 8919,
      "##iversal": 8920,
      "##-19-01": 8921,
      "##-1904": 8922,
      "##-19-3": 8923,
      "##-19112": 8924,
      "##-19-10": 8925,
      "##-19101": 8926,
      "##-19662": 8927,
      "##-19-005": 8928,
      "##-19229": 8929,
      "##-19-76": 8930,
      "##-19760": 8931,
      "##-19-100": 8932,
      "##-198r": 8933,
      "##-19/718": 8934,
      "##-19-20001": 8935,
      "##ricated": 8936,
      "##ricult": 8937,
      "##ricating": 8938,
      "##ethionine": 8939,
      "##ileo": 8940,
      "(120": 8941,
      "(157": 8942,
      "(185": 8943,
      "(130": 8944,
      "(1375": 8945,
      "(1433": 8946,
      "specs": 8947,
      "##cl-01": 8948,
      "##clarin": 8949,
      "cone": 8950,
      "confin": 8951,
      "consu": 8952,
      "conjug": 8953,
      "##02a": 8954,
      "##022": 8955,
      "##029": 8956,
      "##02f": 8957,
      "##0220": 8958,
      "##0211": 8959,
      "##0210": 8960,
      "##0258": 8961,
      "##02-00": 8962,
      "##02-a": 8963,
      "##0230": 8964,
      "##0231": 8965,
      "##0265": 8966,
      "##0264": 8967,
      "##028/19": 8968,
      "##02peak-revised": 8969,
      "##026-a)": 8970,
      "##0219031": 8971,
      "##02/2019112": 8972,
      "m/s.gudia": 8973,
      "moist": 8974,
      "mode": 8975,
      "moqu": 8976,
      "month": 8977,
      "mozar": 8978,
      "mosisture": 8979,
      "montego": 8980,
      "sc/01": 8981,
      "scrol": 8982,
      "sc-04": 8983,
      "sc/007": 8984,
      "sc/pc": 8985,
      "sc191114": 8986,
      "sc/253": 8987,
      "sc5yg": 8988,
      "sc/ap": 8989,
      "eur1": 8990,
      "eur13": 8991,
      "eur17": 8992,
      "eur26": 8993,
      "eur7n29": 8994,
      "minoc": 8995,
      "particle": 8996,
      "##ightening": 8997,
      "fibra": 8998,
      "fibric": 8999,
      "fibrin": 9000,
      "fibres": 9001,
      "##/17": 9002,
      "##/119": 9003,
      "##/1-2020": 9004,
      "##/160": 9005,
      "##/1003": 9006,
      "##/167": 9007,
      "##/146": 9008,
      "##/1-5": 9009,
      "##/138": 9010,
      "##/155": 9011,
      "##/159": 9012,
      "##/1550": 9013,
      "##/1016": 9014,
      "seaport/cpt": 9015,
      "seaport/istanbul": 9016,
      "##ents'": 9017,
      "pi-01": 9018,
      "pi/00": 9019,
      "pi1912": 9020,
      "pi17": 9021,
      "pi-l": 9022,
      "pi100": 9023,
      "pi201912": 9024,
      "pi202001": 9025,
      "pi/v": 9026,
      "piece": 9027,
      "pi-c": 9028,
      "piping": 9029,
      "pi-14": 9030,
      "pipes": 9031,
      "pi190": 9032,
      "pi1211": 9033,
      "pi-ac": 9034,
      "pi201910": 9035,
      "pi/151": 9036,
      "pi20200108": 9037,
      "pipet": 9038,
      "pirox": 9039,
      "pi-19-02": 9040,
      "pi0015": 9041,
      "pi/1912/00": 9042,
      "pieces": 9043,
      "pi00279": 9044,
      "pi-2019/100": 9045,
      "pi/2019/11": 9046,
      "pi/155": 9047,
      "pluse": 9048,
      "sheet.": 9049,
      "blk": 9050,
      "blc-": 9051,
      "blank": 9052,
      "allover": 9053,
      "br87": 9054,
      "branch": 9055,
      "brloo191101": 9056,
      "##ipenem": 9057,
      "china.": 9058,
      "china/h": 9059,
      "bagsas": 9060,
      "##apph": 9061,
      "##aphosphate": 9062,
      "##ifen": 9063,
      "##ifton": 9064,
      "##ifun": 9065,
      "##ifix": 9066,
      "##-01a": 9067,
      "##-017": 9068,
      "##-010": 9069,
      "##-015": 9070,
      "##-01/01": 9071,
      "##-0114": 9072,
      "##-01/2020": 9073,
      "##-0120-01": 9074,
      "##-013141": 9075,
      "##-0120ab": 9076,
      "adding": 9077,
      "adapt": 9078,
      "ads/s": 9079,
      "adc2019120": 9080,
      "adana": 9081,
      "chequ": 9082,
      "paper-b": 9083,
      "paper-h": 9084,
      "accept": 9085,
      "into": 9086,
      "interg": 9087,
      "integr": 9088,
      "int'l": 9089,
      "intraven": 9090,
      "palatalized": 9091,
      "boot": 9092,
      "boma": 9093,
      "boiler": 9094,
      "booster": 9095,
      "boesb00": 9096,
      "##ulk//2019": 9097,
      "specificatoin": 9098,
      "parts.": 9099,
      "##vt-005": 9100,
      "ton).": 9101,
      "tonnes": 9102,
      "ton)he": 9103,
      "ton(us": 9104,
      "never": 9105,
      "neos": 9106,
[...]
