{
  "version": "1.0",
  "truncation": null,
  "padding": null,
  "added_tokens": [
    {
      "id": 0,
      "content": "[PAD]",
      "single_word": false,
      "lstrip": false,
      "rstrip": false,
      "normalized": false,
      "special": true
    },
    {
      "id": 1,
      "content": "[CLS]",
      "single_word": false,
      "lstrip": false,
      "rstrip": false,
      "normalized": false,
      "special": true
    },
    {
      "id": 2,
      "content": "[SEP]",
      "single_word": false,
      "lstrip": false,
      "rstrip": false,
      "normalized": false,
      "special": true
    },
    {
      "id": 3,
      "content": "[UNK]",
      "single_word": false,
      "lstrip": false,
      "rstrip": false,
      "normalized": false,
      "special": true
    }
  ],
  "normalizer": {
    "type": "BertNormalizer",
    "clean_text": true,
    "handle_chinese_chars": true,
    "strip_accents": null,
    "lowercase": true
  },
  "pre_tokenizer": {
    "type": "WhitespaceSplit"
  },
  "post_processor": {
    "type": "TemplateProcessing",
    "single": [
      {
        "SpecialToken": {
          "id": "[CLS]",
          "type_id": 0
        }
      },
      {
        "Sequence": {
          "id": "A",
          "type_id": 0
        }
      },
      {
        "SpecialToken": {
          "id": "[SEP]",
          "type_id": 0
        }
      }
    ],
    "pair": [
      {
        "SpecialToken": {
          "id": "[CLS]",
          "type_id": 0
        }
      },
      {
        "Sequence": {
          "id": "A",
          "type_id": 0
        }
      },
      {
        "SpecialToken": {
          "id": "[SEP]",
          "type_id": 0
        }
      },
      {
        "Sequence": {
          "id": "B",
          "type_id": 1
        }
      },
      {
        "SpecialToken": {
          "id": "[SEP]",
          "type_id": 1
        }
      }
    ],
    "special_tokens": {
      "[CLS]": {
        "id": "[CLS]",
        "ids": [
          1
        ],
        "tokens": [
          "[CLS]"
        ]
      },
      "[SEP]": {
        "id": "[SEP]",
        "ids": [
          2
        ],
        "tokens": [
          "[SEP]"
        ]
      }
    }
  },
  "decoder": {
    "type": "WordPiece",
    "prefix": "##",
    "cleanup": true
  },
  "model": {
    "type": "WordPiece",
    "unk_token": "[UNK]",
    "continuing_subword_prefix": "##",
    "max_input_chars_per_word": 100,
    "vocab": {
      "[PAD]": 0,
      "[CLS]": 1,
      "[SEP]": 2,
      "[UNK]": 3,
      "%": 4,
      "&": 5,
      "'": 6,
      "(": 7,
      ")": 8,
      "+": 9,
      "-": 10,
      ".": 11,
      "/": 12,
      "0": 13,
      "1": 14,
      "2": 15,
      "3": 16,
      "4": 17,
      "5": 18,
      "6": 19,
      "7": 20,
      "8": 21,
      "9": 22,
      ";": 23,
      "=": 24,
      ">": 25,
      "@": 26,
      "_": 27,
      "a": 28,
      "b": 29,
      "c": 30,
      "d": 31,
      "e": 32,
      "f": 33,
      "g": 34,
      "h": 35,
      "i": 36,
      "j": 37,
      "k": 38,
      "l": 39,
      "m": 40,
      "n": 41,
      "o": 42,
      "p": 43,
      "q": 44,
      "r": 45,
      "s": 46,
      "t": 47,
      "u": 48,
      "v": 49,
      "w": 50,
      "x": 51,
      "y": 52,
      "z": 53,
      "##2": 54,
      "##1": 55,
      "##5": 56,
      "##r": 57,
      "##i": 58,
      "##m": 59,
      "##a": 60,
      "##x": 61,
      "##e": 62,
      "##s": 63,
      "##t": 64,
      "##o": 65,
      "##n": 66,
      "##)": 67,
      "##.": 68,
      "##4": 69,
      "##h": 70,
      "##l": 71,
      "##/": 72,
      "##p": 73,
      "##0": 74,
      "##9": 75,
      "##-": 76,
      "##b": 77,
      "##k": 78,
      "##8": 79,
      "##7": 80,
      "##c": 81,
      "##u": 82,
      "##g": 83,
      "##3": 84,
      "##f": 85,
      "##6": 86,
      "##z": 87,
      "##d": 88,
      "##y": 89,
      "##v": 90,
      "##w": 91,
      "##j": 92,
      "##q": 93,
      "##(": 94,
      "##+": 95,
      "##'": 96,
      "##_": 97,
      "##%": 98,
      "##;": 99,
      "##er": 100,
      "##00": 101,
      "##or": 102,
      "##ar": 103,
      "per": 104,
      "##ic": 105,
      "##at": 106,
      "##20": 107,
      "##ed": 108,
      "##19": 109,
      "##en": 110,
      "##ty": 111,
      "##an": 112,
      "##ac": 113,
      "in": 114,
      "##on": 115,
      "no": 116,
      "##ated": 117,
      "at": 118,
      "qty": 119,
      "dated": 120,
      "no.": 121,
      "##ort": 122,
      "as": 123,
      "##st": 124,
      "us": 125,
      "##ro": 126,
      "##in": 127,
      "usd": 128,
      "##ene": 129,
      "##.00": 130,
      "##2019": 131,
      "##fic": 132,
      "pa": 133,
      "##ach": 134,
      "##'s": 135,
      "##ary": 136,
      "##al": 137,
      "##fici": 138,
      "bene": 139,
      "benefici": 140,
      "beneficiary": 141,
      "##ist": 142,
      "##ma": 143,
      "##ice": 144,
      "##achi": 145,
      "##arachi": 146,
      "karachi": 147,
      "pro": 148,
      "beneficiary's": 149,
      "##istan": 150,
      "##kistan": 151,
      "kg": 152,
      "pakistan": 153,
      "inv": 154,
      "##for": 155,
      "##12": 156,
      "##oice": 157,
      "invoice": 158,
      "##forma": 159,
      "proforma": 160,
      "of": 161,
      "##fr": 162,
      "cfr": 163,
      "##et": 164,
      "##port": 165,
      "##ea": 166,
      "##es": 167,
      "##he": 168,
      "mt": 169,
      "##it": 170,
      "port": 171,
      "an": 172,
      "##as": 173,
      "##-2019": 174,
      "co": 175,
      "pc": 176,
      "##ate": 177,
      "##01": 178,
      "##il": 179,
      "##im": 180,
      "##ton": 181,
      "sea": 182,
      "##11": 183,
      "seaport": 184,
      "the": 185,
      "##ol": 186,
      "kgs": 187,
      "and": 188,
      "##000": 189,
      "##50": 190,
      "rate": 191,
      "##pl": 192,
      "##ing": 193,
      "##ent": 194,
      "##el": 195,
      "##ot": 196,
      "##ur": 197,
      "m/": 198,
      "##de": 199,
      "qas": 200,
      "qasim": 201,
      "##ion": 202,
      "##.12": 203,
      "##.12.": 204,
      "con": 205,
      "##10": 206,
      "##tr": 207,
      "##ir": 208,
      "##act": 209,
      "##-20": 210,
      "st": 211,
      "##ra": 212,
      "##-12": 213,
      "##0.00": 214,
      "##pt": 215,
      "com": 216,
      "##pe": 217,
      "##-12-2019": 218,
      "un": 219,
      "##ail": 220,
      "##ob": 221,
      "pct": 222,
      "20": 223,
      "for": 224,
      "##tract": 225,
      "or": 226,
      "det": 227,
      "##ul": 228,
      "detail": 229,
      "m.": 230,
      "10": 231,
      "1.": 232,
      "12": 233,
      "air": 234,
      "##/2019": 235,
      "m.ton": 236,
      "##ation": 237,
      "contract": 238,
      "unit": 239,
      "##oly": 240,
      "##ant": 241,
      "##00.00": 242,
      "##le": 243,
      "##ales": 244,
      "pcs": 245,
      "##lo": 246,
      "##is": 247,
      "m/ton": 248,
      "##um": 249,
      "airport": 250,
      "sales": 251,
      "##re": 252,
      "ind": 253,
      "##ch": 254,
      "##der": 255,
      "##us": 256,
      "##ical": 257,
      "cpt": 258,
      "19": 259,
      "la": 260,
      "##-01": 261,
      "poly": 262,
      "##ut": 263,
      "##ial": 264,
      "##yl": 265,
      "##.12.19": 266,
      "al": 267,
      "##ag": 268,
      "##-2020": 269,
      "##ore": 270,
      "##od": 271,
      "0.": 272,
      "ch": 273,
      "##ig": 274,
      "fob": 275,
      "m/s": 276,
      "ra": 277,
      "indent": 278,
      "100": 279,
      "##40": 280,
      "##ete": 281,
      "##plete": 282,
      "17": 283,
      "##th": 284,
      "##-11": 285,
      "##mar": 286,
      "##.12.2019": 287,
      "complete": 288,
      "ph": 289,
      "pk": 290,
      "order": 291,
      "11": 292,
      "##ity": 293,
      "##.11": 294,
      "2.": 295,
      "##30": 296,
      "##.11.": 297,
      "##80": 298,
      "##mari": 299,
      "pkr": 300,
      "16": 301,
      "ac": 302,
      "25": 303,
      "##id": 304,
      "##hore": 305,
      "lahore": 306,
      "##ter": 307,
      "ap": 308,
      "pr": 309,
      "##/1": 310,
      "##ack": 311,
      "tot": 312,
      "total": 313,
      "24": 314,
      "gra": 315,
      "mts": 316,
      "##.20": 317,
      "(p": 318,
      "##ab": 319,
      "##25": 320,
      "##ct": 321,
      "##ard": 322,
      "raw": 323,
      "##ylene": 324,
      "##mm": 325,
      "pur": 326,
      "##200": 327,
      "kea": 328,
      "##ine": 329,
      "keamari": 330,
      "##em": 331,
      "##-11-2019": 332,
      "##-01-2020": 333,
      "13": 334,
      "##ith": 335,
      "##ase": 336,
      "grade": 337,
      "##am": 338,
      "kg.": 339,
      "1-": 340,
      "lb": 341,
      "14": 342,
      "set": 343,
      "##ater": 344,
      "##igh": 345,
      "met": 346,
      "pl": 347,
      "with": 348,
      "##/19": 349,
      "15": 350,
      "##eel": 351,
      "appl": 352,
      "##75": 353,
      "##ess": 354,
      "any": 355,
      "##qty": 356,
      "applic": 357,
      "##ace": 358,
      "##ib": 359,
      "##co": 360,
      "##arm": 361,
      "applicant": 362,
      "ex": 363,
      "##.50": 364,
      "##-0": 365,
      "##.01": 366,
      "##per": 367,
      "bag": 368,
      "##-19": 369,
      "##chase": 370,
      "purchase": 371,
      "sp": 372,
      "##60": 373,
      "m.tons": 374,
      "##45": 375,
      "steel": 376,
      "##dec": 377,
      "##.01.20": 378,
      "18": 379,
      "##70": 380,
      "mater": 381,
      "qu": 382,
      "material": 383,
      "##ax": 384,
      "##utical": 385,
      "##aceutical": 386,
      "##armaceutical": 387,
      "500": 388,
      "##15": 389,
      "##and": 390,
      "cot": 391,
      "cotton": 392,
      "28": 393,
      "26": 394,
      "sh": 395,
      "##ci": 396,
      "##-12-2019.": 397,
      "##18": 398,
      "pharmaceutical": 399,
      "200": 400,
      "m/tons": 401,
      "par": 402,
      "##iz": 403,
      "##rop": 404,
      "re": 405,
      "pakistan.": 406,
      "##35": 407,
      "##000.00": 408,
      "chin": 409,
      "##est": 410,
      "23": 411,
      "##.0": 412,
      "##ow": 413,
      "applicant's": 414,
      "30": 415,
      "##s)": 416,
      "##/s": 417,
      "##cl": 418,
      "she": 419,
      "##22": 420,
      "##14": 421,
      "##ri": 422,
      "##eth": 423,
      "##ts": 424,
      "##-dec": 425,
      "2-": 426,
      "##/20": 427,
      "pack": 428,
      "##ile": 429,
      "spe": 430,
      "##ers": 431,
      "m/s.": 432,
      "sc": 433,
      "##.11.2019": 434,
      "##ov": 435,
      "##90": 436,
      "03": 437,
      "eur": 438,
      "min": 439,
      "##ric": 440,
      "##ies": 441,
      "##ld": 442,
      "##50.00": 443,
      "01": 444,
      "##65": 445,
      "05": 446,
      "fib": 447,
      "pi": 448,
      "##.5": 449,
      "##ight": 450,
      "##23": 451,
      "##cent": 452,
      "seaport/": 453,
      "2019": 454,
      "##-dec-2019": 455,
      "(1": 456,
      "##un": 457,
      "##ents": 458,
      "comp": 459,
      "29": 460,
      "##17": 461,
      "units": 462,
      "##13": 463,
      "##ium": 464,
      "##oll": 465,
      "plus": 466,
      "sheet": 467,
      "bl": 468,
      "##ip": 469,
      "##85": 470,
      "##0000": 471,
      "allo": 472,
      "02": 473,
      "bo": 474,
      "lim": 475,
      "##ap": 476,
      "details": 477,
      "china": 478,
      "limit": 479,
      "22": 480,
      "##/p": 481,
      "##ath": 482,
      "bags": 483,
      "ad": 484,
      "che": 485,
      "mach": 486,
      "limited": 487,
      "br": 488,
      "##95": 489,
      "paper": 490,
      "acc": 491,
      "pal": 492,
      "##.11.19": 493,
      "##essor": 494,
      "06": 495,
      "##ex": 496,
      "##erm": 497,
      "##ulk": 498,
      "parts": 499,
      "speci": 500,
      "bulk": 501,
      "##vt": 502,
      "ton": 503,
      "##ub": 504,
      "##fication": 505,
      "##ther": 506,
      "ne": 507,
      "sy": 508,
      "##28": 509,
      "##if": 510,
      "##46": 511,
      "inter": 512,
      "quant": 513,
      "seaport/port": 514,
      "den": 515,
      "mo": 516,
      "##mt": 517,
      "percent": 518,
      "quantity": 519,
      "09": 520,
      "27": 521,
      "mm": 522,
      "roll": 523,
      "##26": 524,
      "##arn": 525,
      "all": 526,
      "##ethylene": 527,
      "specification": 528,
      "50": 529,
      "to": 530,
      "##2)": 531,
      "##os": 532,
      "##ize": 533,
      "##ester": 534,
      "palm": 535,
      "08": 536,
      "##ry": 537,
      "##-10": 538,
      "chem": 539,
      "##/0": 540,
      "##ph": 541,
      "##jan": 542,
      "polyester": 543,
      "th": 544,
      "yarn": 545,
      "##ad": 546,
      "##ly": 547,
      "##ang": 548,
      "max": 549,
      "##.10": 550,
      "##/12": 551,
      "##ue": 552,
      "accessor": 553,
      "##ting": 554,
      "##/c": 555,
      "##/01": 556,
      "##++": 557,
      "##ational": 558,
      "polyethylene": 559,
      "(1)": 560,
      "intern": 561,
      "accessories": 562,
      "99": 563,
      "##16": 564,
      "##120": 565,
      "##ple": 566,
      "sta": 567,
      "international": 568,
      "04": 569,
      "##prop": 570,
      "##ver": 571,
      "(2)": 572,
      "49": 573,
      "on": 574,
      "##29": 575,
      "##ia": 576,
      "##fe": 577,
      "##propylene": 578,
      "is": 579,
      "size": 580,
      "##100": 581,
      "##sm": 582,
      "##path": 583,
      "##pathic": 584,
      "##ast": 585,
      "##uf": 586,
      "##38": 587,
      "##one": 588,
      "##ime": 589,
      "##rap": 590,
      "201": 591,
      "##ai": 592,
      "##ak": 593,
      "mt.": 594,
      "(pvt": 595,
      "3.": 596,
      "de": 597,
      "stand": 598,
      "exw": 599,
      "##/2020": 600,
      "##5.00": 601,
      "##48": 602,
      "##47": 603,
      "standard": 604,
      "07": 605,
      "1000": 606,
      "other": 607,
      "##-n": 608,
      "##bd": 609,
      "##32": 610,
      "##36": 611,
      "##+/": 612,
      "scrap": 613,
      "staple": 614,
      "##ded": 615,
      "lbs": 616,
      "lit": 617,
      "##27": 618,
      "##ide": 619,
      "##ect": 620,
      "##.2019": 621,
      "##/00": 622,
      "##p-": 623,
      "##-00": 624,
      "##ber": 625,
      "##qu": 626,
      "chemical": 627,
      "car": 628,
      "##ix": 629,
      "##om": 630,
      "##96": 631,
      "##88": 632,
      "coated": 633,
      "mod": 634,
      "##ron": 635,
      "##76": 636,
      "fre": 637,
      "hot": 638,
      "##pk": 639,
      "ar": 640,
      "ah": 641,
      "##iv": 642,
      "##ss": 643,
      "##td": 644,
      "##ood": 645,
      "machine": 646,
      "chemicals": 647,
      "##ain": 648,
      "##se": 649,
      "##fin": 650,
      "##''": 651,
      "##-2019.": 652,
      "allopathic": 653,
      "pp": 654,
      "ty": 655,
      "##44": 656,
      "##80.00": 657,
      "coil": 658,
      "##ldpe": 659,
      "fiber": 660,
      "##+/-": 661,
      "so": 662,
      "##onents": 663,
      "##erms": 664,
      "bot": 665,
      "high": 666,
      "ltd": 667,
      "##lor": 668,
      "##33": 669,
      "##du": 670,
      "##ding": 671,
      "##ass": 672,
      "##-11-2019.": 673,
      "dens": 674,
      "##-nov": 675,
      "cd": 676,
      "dy": 677,
      "man": 678,
      "sheets": 679,
      "density": 680,
      "##21": 681,
      "##4.": 682,
      "##da": 683,
      "##1912": 684,
      "##ese": 685,
      "44": 686,
      "##-s": 687,
      "dated.": 688,
      "##.01.2020": 689,
      "rolled": 690,
      "21": 691,
      "31": 692,
      "4.": 693,
      "en": 694,
      "mob": 695,
      "##io": 696,
      "##.19": 697,
      "##49": 698,
      "##-1": 699,
      "##cot": 700,
      "##/2019-20": 701,
      "polypropylene": 702,
      "price": 703,
      "1-qty": 704,
      "mobile": 705,
      "3-": 706,
      "70": 707,
      "cn": 708,
      "fab": 709,
      "res": 710,
      "##53": 711,
      "##oc": 712,
      "##86": 713,
      "##ery": 714,
      "##are": 715,
      "produ": 716,
      "##ill": 717,
      "cont": 718,
      "##able": 719,
      "cny": 720,
      "fabric": 721,
      "cr": 722,
      "eu": 723,
      "##43": 724,
      "##/k": 725,
      "##93": 726,
      "##ce": 727,
      "##ell": 728,
      "phone": 729,
      "##feen": 730,
      "model": 731,
      "tr": 732,
      "##500": 733,
      "##-jan": 734,
      "usp": 735,
      "##actur": 736,
      "prime": 737,
      "packed": 738,
      "board": 739,
      "admt": 740,
      "specifications": 741,
      "##ufactur": 742,
      "pow": 743,
      "val": 744,
      "##ca": 745,
      "##ject": 746,
      "##arg": 747,
      "##eav": 748,
      "arfeen": 749,
      "##coterms": 750,
      "(3": 751,
      "be": 752,
      "equ": 753,
      "oil": 754,
      "rbd": 755,
      "##s.": 756,
      "##/m": 757,
      "##ong": 758,
      "2-qty": 759,
      "components": 760,
      "00": 761,
      "38": 762,
      "crop": 763,
      "se": 764,
      "##55": 765,
      "##ite": 766,
      "acid": 767,
      "49.50": 768,
      "manufactur": 769,
      "1)": 770,
      "by": 771,
      "dr": 772,
      "dt": 773,
      "##400": 774,
      "##/or": 775,
      "##-p": 776,
      "##79": 777,
      "##ust": 778,
      "##rom": 779,
      "prin": 780,
      "meter": 781,
      "black": 782,
      "tons": 783,
      "(pvt)": 784,
      "(g": 785,
      "gsm": 786,
      "lo": 787,
      "wh": 788,
      "##58": 789,
      "##ml": 790,
      "##77": 791,
      "##fi": 792,
      "##ate)": 793,
      "meters": 794,
      "##riv": 795,
      "fibre": 796,
      "96": 797,
      "am": 798,
      "cl": 799,
      "gst": 800,
      "sl": 801,
      "##atter": 802,
      "and/or": 803,
      "##low": 804,
      "type": 805,
      "euro": 806,
      "150": 807,
      "2)": 808,
      "60": 809,
      "le": 810,
      "lldpe": 811,
      "##2.": 812,
      "##112": 813,
      "##hai": 814,
      "##/g": 815,
      "##up": 816,
      "##ug": 817,
      "##ator": 818,
      "pct)": 819,
      "(priv": 820,
      "##-01-2020.": 821,
      "lbs)": 822,
      "shang": 823,
      "product": 824,
      "value": 825,
      "(private)": 826,
      "shanghai": 827,
      "bar": 828,
      "vial": 829,
      "##mp": 830,
      "##.)": 831,
      "##/h": 832,
      "##-r": 833,
      "##-a": 834,
      "##3.": 835,
      "##dpe": 836,
      "##yc": 837,
      "ass": 838,
      "##odium": 839,
      "metric": 840,
      "alloy": 841,
      "##-jan-2020": 842,
      "40": 843,
      "dis": 844,
      "sk": 845,
      "sd": 846,
      "##ment": 847,
      "##89": 848,
      "##63": 849,
      "##zol": 850,
      "##dl": 851,
      "##yd": 852,
      "##20.00": 853,
      "infin": 854,
      "port/": 855,
      "##ire": 856,
      "##-09": 857,
      "box": 858,
      "bright": 859,
      "both": 860,
      "(3)": 861,
      "infinix": 862,
      "batter": 863,
      "ole": 864,
      "str": 865,
      "##sc": 866,
      "##op": 867,
      "##.2": 868,
      "##-2": 869,
      "##-3": 870,
      "##1911": 871,
      "sets": 872,
      "##++++": 873,
      "ahl": 874,
      "resin": 875,
      "##jection": 876,
      "75": 877,
      "89": 878,
      "good": 879,
      "sol": 880,
      "##ear": 881,
      "##40.00": 882,
      "##62": 883,
      "##67": 884,
      "##6.00": 885,
      "incoterms": 886,
      "pc.": 887,
      "##elt": 888,
      "m/ton.": 889,
      "spare": 890,
      "coils": 891,
      "manufacturing": 892,
      "battery": 893,
      "fca": 894,
      "gl": 895,
      "mic": 896,
      "na": 897,
      "##ian": 898,
      "##ti": 899,
      "##/jan": 900,
      "##8.00": 901,
      "##ft": 902,
      "inch": 903,
      "incl": 904,
      "cond": 905,
      "##10.00": 906,
      "1.2": 907,
      "machin": 908,
      "##/12/2019": 909,
      "olein": 910,
      "(+/-": 911,
      "gen": 912,
      "iron": 913,
      "sul": 914,
      "##rel": 915,
      "##.7": 916,
      "##42": 917,
      "##4.00": 918,
      "##la": 919,
      "##/b": 920,
      "##-c": 921,
      "##39": 922,
      "##ure": 923,
      "charg": 924,
      "##emb": 925,
      "one": 926,
      "##-nov-2019": 927,
      "white": 928,
      "barrel": 929,
      "35": 930,
      "med": 931,
      "mel": 932,
      "sid": 933,
      "sodium": 934,
      "tex": 935,
      "weav": 936,
      "##red": 937,
      "##rate": 938,
      "##t)": 939,
      "##tl": 940,
      "##/2": 941,
      "##-9": 942,
      "##87": 943,
      "##ys": 944,
      "##ans": 945,
      "##umin": 946,
      "brand": 947,
      "weaving": 948,
      "(5": 949,
      "(4": 950,
      "250": 951,
      "5100": 952,
      "80": 953,
      "ab": 954,
      "do": 955,
      "sab": 956,
      "##ef": 957,
      "##41": 958,
      "##-f": 959,
      "##b)": 960,
      "##82": 961,
      "##70.00": 962,
      "##ud": 963,
      "##001": 964,
      "##ality": 965,
      "##125": 966,
      "code": 967,
      "125": 968,
      "##.10.2019": 969,
      "2010": 970,
      "free": 971,
      "freight": 972,
      "sabic": 973,
      "(w": 974,
      "2000": 975,
      "500.00": 976,
      "are": 977,
      "bas": 978,
      "low": 979,
      "m2": 980,
      "ml": 981,
      "mot": 982,
      "pfi": 983,
      "red": 984,
      "sq": 985,
      "##ape": 986,
      "##.75": 987,
      "##02": 988,
      "##-m": 989,
      "##fa": 990,
      "##00025": 991,
      "##mm)": 992,
      "quality": 993,
      "packing": 994,
      "packag": 995,
      "syn": 996,
      "polyethylene)": 997,
      "power": 998,
      "##embly": 999,
      "text": 1000,
      "motor": 1001,
      "card": 1002,
      "des": 1003,
      "mar": 1004,
      "mon": 1005,
      "pre": 1006,
      "##ps": 1007,
      "##03": 1008,
      "ins": 1009,
      "##ition": 1010,
      "##ption": 1011,
      "##ised": 1012,
      "##ember": 1013,
      "shred": 1014,
      "chinese": 1015,
      "drum": 1016,
      "gener": 1017,
      "shredded": 1018,
      "(f": 1019,
      "5.": 1020,
      "bor": 1021,
      "cif": 1022,
      "fl": 1023,
      "fil": 1024,
      "mak": 1025,
      "rem": 1026,
      "##1.00": 1027,
      "##nit": 1028,
      "##/r": 1029,
      "##99": 1030,
      "##bl": 1031,
      "##bon": 1032,
      "##600": 1033,
      "##stem": 1034,
      "##inn": 1035,
      "##all": 1036,
      "##eam": 1037,
      "conf": 1038,
      "118": 1039,
      "20000": 1040,
      "##ized": 1041,
      "blue": 1042,
      "neon": 1043,
      "moul": 1044,
      "(pvt.)": 1045,
      "contain": 1046,
      "inclu": 1047,
      "sulph": 1048,
      "melting": 1049,
      "sqm": 1050,
      "(r": 1051,
      "300": 1052,
      "3000": 1053,
      "700": 1054,
      "90": 1055,
      "bp": 1056,
      "dry": 1057,
      "ess": 1058,
      "hon": 1059,
      "it": 1060,
      "m3": 1061,
      "vis": 1062,
      "##/3": 1063,
      "##pr": 1064,
      "##pc": 1065,
      "##br": 1066,
      "##83": 1067,
      "##cri": 1068,
      "##fs": 1069,
      "##66": 1070,
      "##ick": 1071,
      "##ached": 1072,
      "##ential": 1073,
      "unit.": 1074,
      "##ish": 1075,
      "indust": 1076,
      "##igin": 1077,
      "##mmx": 1078,
      "148": 1079,
      "minus": 1080,
      "system": 1081,
      "##-10-2019": 1082,
      "liter": 1083,
      "assembly": 1084,
      "(4)": 1085,
      "essential": 1086,
      "honda": 1087,
      "##cription": 1088,
      "''": 1089,
      "(h": 1090,
      "680": 1091,
      "di": 1092,
      "line": 1093,
      "ter": 1094,
      "tur": 1095,
      "##2.00": 1096,
      "##mation": 1097,
      "##e)": 1098,
      "##ted": 1099,
      "##oun": 1100,
      "##hyd": 1101,
      "##/5": 1102,
      "##/11": 1103,
      "##/dec": 1104,
      "##py": 1105,
      "##30.00": 1106,
      "##(s)": 1107,
      "##enz": 1108,
      "nos": 1109,
      "##rol": 1110,
      "cold": 1111,
      "##irmation": 1112,
      "comb": 1113,
      "origin": 1114,
      "##leached": 1115,
      "10000": 1116,
      "##cose": 1117,
      "##-dec-2019.": 1118,
      "##ipment": 1119,
      "4400025": 1120,
      "goods": 1121,
      "##eltable": 1122,
      "glass": 1123,
      "condition": 1124,
      "viscose": 1125,
      "(a": 1126,
      "(s": 1127,
      "(l": 1128,
      "4-": 1129,
      "400": 1130,
      "4000": 1131,
      "5000": 1132,
      "cal": 1133,
      "gr": 1134,
      "np-": 1135,
      "sil": 1136,
      "sub": 1137,
      "up": 1138,
      "we": 1139,
      "wid": 1140,
      "##2b": 1141,
      "##101": 1142,
      "##eed": 1143,
      "##-l": 1144,
      "##ck": 1145,
      "##cal": 1146,
      "##34": 1147,
      "##d/": 1148,
      "##(+/-": 1149,
      "performa": 1150,
      "##ular": 1151,
      "##lex": 1152,
      "(poly": 1153,
      "##20010": 1154,
      "##/1912": 1155,
      "quot": 1156,
      "##.10.19": 1157,
      "3-qty": 1158,
      "solar": 1159,
      "packaging": 1160,
      "description": 1161,
      "confirmation": 1162,
      "width": 1163,
      "(m": 1164,
      "211": 1165,
      "55": 1166,
      "65": 1167,
      "617": 1168,
      "ever": 1169,
      "hdpe": 1170,
      "ii": 1171,
      "ser": 1172,
      "tax": 1173,
      "##2000": 1174,
      "##ey": 1175,
      "##te": 1176,
      "##pa": 1177,
      "##08": 1178,
      "##800": 1179,
      "##uary": 1180,
      "##68": 1181,
      "##ens": 1182,
      "##ane": 1183,
      "##star": 1184,
      "##esh": 1185,
      "grade)": 1186,
      "rejection": 1187,
      "##.09": 1188,
      "03.12.2019": 1189,
      "new": 1190,
      "##astic": 1191,
      "carbon": 1192,
      "##ive": 1193,
      "printing": 1194,
      "##/g/2019": 1195,
      "510053": 1196,
      "textile": 1197,
      "motorc": 1198,
      "making": 1199,
      "remeltable": 1200,
      "combed": 1201,
      "quotation": 1202,
      "(in": 1203,
      "1000.00": 1204,
      "79": 1205,
      "98": 1206,
      "cg": 1207,
      "cle": 1208,
      "cap": 1209,
      "fr": 1210,
      "gre": 1211,
      "po": 1212,
      "sa": 1213,
      "x65": 1214,
      "##24": 1215,
      "##ec": 1216,
      "##ous": 1217,
      "##.4": 1218,
      "##led": 1219,
      "##bo": 1220,
      "##kd": 1221,
      "##kin": 1222,
      "##37": 1223,
      "##19120": 1224,
      "##ontract": 1225,
      "##int": 1226,
      "color": 1227,
      "##loss": 1228,
      "##age": 1229,
      "chlor": 1230,
      "##/16": 1231,
      "1500": 1232,
      "99.00": 1233,
      "trans": 1234,
      "vials": 1235,
      "sides": 1236,
      "118w": 1237,
      "(polypropylene": 1238,
      "(n": 1239,
      "101": 1240,
      "3.5": 1241,
      "6000": 1242,
      "aut": 1243,
      "bleached": 1244,
      "cer": 1245,
      "cell": 1246,
      "fb": 1247,
      "fin": 1248,
      "knit": 1249,
      "mg": 1250,
      "pan": 1251,
      "ro": 1252,
      "sup": 1253,
      "year": 1254,
      "##ep": 1255,
      "##/10": 1256,
      "##97": 1257,
      "##bad": 1258,
      "##7.00": 1259,
      "##3.00": 1260,
      "##190": 1261,
      "##ance": 1262,
      "##isture": 1263,
      "##mabad": 1264,
      "coat": 1265,
      "ster": 1266,
      "20200": 1267,
      "##rev": 1268,
      "16.12.19": 1269,
      "2500": 1270,
      "plastic": 1271,
      "23-12-2019": 1272,
      "add": 1273,
      "isla": 1274,
      "liters": 1275,
      "ltd.": 1276,
      "pfi-00": 1277,
      "mono": 1278,
      "islamabad": 1279,
      "32": 1280,
      "39": 1281,
      "6.": 1282,
      "92": 1283,
      "ag": 1284,
      "ec": 1285,
      "hp": 1286,
      "im": 1287,
      "ncl": 1288,
      "pul": 1289,
      "sw": 1290,
      "sur": 1291,
      "ul": 1292,
      "##ms": 1293,
      "##mer": 1294,
      "##ay": 1295,
      "##ech": 1296,
      "##og": 1297,
      "##-e": 1298,
      "##-g": 1299,
      "##-w": 1300,
      "##cm": 1301,
      "##gas": 1302,
      "##vice": 1303,
      "##ond": 1304,
      "##row": 1305,
      "invoice/c": 1306,
      "alumin": 1307,
      "0.5": 1308,
      "100%": 1309,
      "##amin": 1310,
      "##35.00": 1311,
      "pi00": 1312,
      "compact": 1313,
      "##/pak": 1314,
      "limited.": 1315,
      "moisture": 1316,
      "isri": 1317,
      "38mm": 1318,
      "machinery": 1319,
      "(polypropylene)": 1320,
      "'kin": 1321,
      "(c": 1322,
      "(d": 1323,
      "110": 1324,
      "3.00": 1325,
      "300.00": 1326,
      "46": 1327,
      "50.00": 1328,
      "85": 1329,
      "bel": 1330,
      "cef": 1331,
      "fo": 1332,
      "gu": 1333,
      "he": 1334,
      "ht": 1335,
      "hcl": 1336,
      "jh": 1337,
      "jpy": 1338,
      "pum": 1339,
      "ron": 1340,
      "whe": 1341,
      "xpk": 1342,
      "##r.": 1343,
      "##ied": 1344,
      "##tx": 1345,
      "##no": 1346,
      "##pi": 1347,
      "##92": 1348,
      "##9.00": 1349,
      "##-5": 1350,
      "##-b": 1351,
      "##-6": 1352,
      "##71": 1353,
      "##74": 1354,
      "##cc": 1355,
      "##att)": 1356,
      "##eng": 1357,
      "inn": 1358,
      "usc": 1359,
      "##itan": 1360,
      "##otco": 1361,
      "12-12-2019.": 1362,
      "lab": 1363,
      "##2001": 1364,
      "##75.00": 1365,
      "mogas": 1366,
      "04-12-2019": 1367,
      "dec": 1368,
      "carton": 1369,
      "ahtl": 1370,
      "eng": 1371,
      "##/kg": 1372,
      "##-09-2019": 1373,
      "##inning": 1374,
      "turk": 1375,
      "'kinmari": 1376,
      "xpk-": 1377,
      "(b": 1378,
      "(6": 1379,
      "100.00": 1380,
      "220": 1381,
      "200.00": 1382,
      "3)": 1383,
      "600.00": 1384,
      "800": 1385,
      "95": 1386,
      "ca": 1387,
      "cents": 1388,
      "el": 1389,
      "ele": 1390,
      "hard": 1391,
      "net": 1392,
      "pet": 1393,
      "s5": 1394,
      "sam": 1395,
      "tm": 1396,
      "##1.": 1397,
      "##1/": 1398,
      "##1b": 1399,
      "##rene": 1400,
      "##a)": 1401,
      "##xide": 1402,
      "##of": 1403,
      "##.s.": 1404,
      "##lc": 1405,
      "##pro": 1406,
      "##pos": 1407,
      "##k-": 1408,
      "##78": 1409,
      "##7.50": 1410,
      "##gan": 1411,
      "##gsm": 1412,
      "##64": 1413,
      "##60.00": 1414,
      "##eric": 1415,
      "##205": 1416,
      "##ins": 1417,
      "##123": 1418,
      "##eter": 1419,
      "##etic": 1420,
      "##ellow": 1421,
      "##ise": 1422,
      "##thal": 1423,
      "24.75": 1424,
      "##amic": 1425,
      "##-02": 1426,
      "2008": 1427,
      "part": 1428,
      "reg": 1429,
      "##/pi": 1430,
      "##ather": 1431,
      "rolls": 1432,
      "##/01/2020": 1433,
      "deg": 1434,
      "lite": 1435,
      "31000": 1436,
      "powder": 1437,
      "dtex": 1438,
      "leather": 1439,
      "charges": 1440,
      "barrels": 1441,
      "(5)": 1442,
      "carded": 1443,
      "borstar": 1444,
      "sterile": 1445,
      "invoice/contract": 1446,
      "below": 1447,
      "innio": 1448,
      "##otco)": 1449,
      "turkey": 1450,
      "##erican": 1451,
      "(ar": 1452,
      "(as": 1453,
      "33": 1454,
      "450": 1455,
      "67": 1456,
      "650": 1457,
      "950.00": 1458,
      "bun": 1459,
      "bbl": 1460,
      "cor": 1461,
      "ffa": 1462,
      "lot": 1463,
      "non": 1464,
      "reel": 1465,
      "tw": 1466,
      "titan": 1467,
      "wire": 1468,
      "yellow": 1469,
      "##52": 1470,
      "##ments": 1471,
      "##sd": 1472,
      "##.30": 1473,
      "##less": 1474,
      "##-x": 1475,
      "##-80": 1476,
      "##-200": 1477,
      "##col": 1478,
      "##gery": 1479,
      "##erg": 1480,
      "##005": 1481,
      "##ic)": 1482,
      "##19.00": 1483,
      "##201912": 1484,
      "pak": 1485,
      "##ead": 1486,
      "##itic)": 1487,
      "##110": 1488,
      "##iso": 1489,
      "##utic": 1490,
      "chrom": 1491,
      "priv": 1492,
      "(ph": 1493,
      "##com": 1494,
      "##comp": 1495,
      "##axed": 1496,
      "28.11.19": 1497,
      "##.08": 1498,
      "05-12-2019": 1499,
      "compr": 1500,
      "palmitic)": 1501,
      "end": 1502,
      "960.00": 1503,
      "##ycle": 1504,
      "##++++++++": 1505,
      "890.00": 1506,
      "inches": 1507,
      "1.2d": 1508,
      "##ysis": 1509,
      "##apeutic": 1510,
      "marlex": 1511,
      "generation": 1512,
      "(fotco)": 1513,
      "including": 1514,
      "##hydrate": 1515,
      "silic": 1516,
      "weight": 1517,
      "motorcycle": 1518,
      "118wj": 1519,
      "aluminium": 1520,
      "pump": 1521,
      "private": 1522,
      "1.00": 1523,
      "2.00": 1524,
      "66": 1525,
      "74.": 1526,
      "bra": 1527,
      "ct": 1528,
      "dty": 1529,
      "fly": 1530,
      "gpt": 1531,
      "jen": 1532,
      "pvt": 1533,
      "qing": 1534,
      "ring": 1535,
      "sg": 1536,
      "##ring": 1537,
      "##eph": 1538,
      "##sf": 1539,
      "##/l": 1540,
      "##/v": 1541,
      "##/w": 1542,
      "##94": 1543,
      "##bach": 1544,
      "##72": 1545,
      "##31": 1546,
      "##ork": 1547,
      "##19112": 1548,
      "not": 1549,
      "nos.": 1550,
      "##ale": 1551,
      "##allo": 1552,
      "mtr": 1553,
      "cost": 1554,
      "##imum": 1555,
      "##tra": 1556,
      "##ram": 1557,
      "104": 1558,
      "10.12.19": 1559,
      "1220": 1560,
      "19.12.19": 1561,
      "17.12.2019": 1562,
      "acg": 1563,
      "acud": 1564,
      "##25.00": 1565,
      "meth": 1566,
      "15000": 1567,
      "28.11.2019": 1568,
      "28-10": 1569,
      "##cium": 1570,
      "refin": 1571,
      "##ove": 1572,
      "03.12.19": 1573,
      "08-01-2020": 1574,
      "typ": 1575,
      "##dao": 1576,
      "##illed": 1577,
      "equal": 1578,
      "equipment": 1579,
      "products": 1580,
      "##3.80": 1581,
      "skd": 1582,
      "##dles": 1583,
      "##-09-2019.": 1584,
      "micron": 1585,
      "##/jan-20": 1586,
      "machines": 1587,
      "medium": 1588,
      "industry": 1589,
      "##ound": 1590,
      "##cal/kg": 1591,
      "##loss/m": 1592,
      "finish": 1593,
      "knitting": 1594,
      "panel": 1595,
      "suppl": 1596,
      "coat''": 1597,
      "##ength": 1598,
      "##thalic": 1599,
      "(arb)": 1600,
      "reels": 1601,
      "jenbach": 1602,
      "qingdao": 1603,
      "refined": 1604,
      "jenbacher": 1605,
      "(ther": 1606,
      "(allo": 1607,
      "001": 1608,
      "2/s": 1609,
      "37": 1610,
      "36": 1611,
      "3200": 1612,
      "45": 1613,
      "40000": 1614,
      "54": 1615,
      "7.": 1616,
      "88": 1617,
      "bin": 1618,
      "bow": 1619,
      "core": 1620,
      "dio": 1621,
      "em": 1622,
      "ft": 1623,
      "feed": 1624,
      "hos": 1625,
      "hong": 1626,
      "jap": 1627,
      "me": 1628,
      "rub": 1629,
      "su": 1630,
      "sj": 1631,
      "sing": 1632,
      "vin": 1633,
      "wood": 1634,
      "##az": 1635,
      "##air": 1636,
      "##out": 1637,
      "##oct": 1638,
      "##.r.": 1639,
      "##4-": 1640,
      "##pp": 1641,
      "##par": 1642,
      "##05": 1643,
      "##04": 1644,
      "##98": 1645,
      "##-60": 1646,
      "##ude": 1647,
      "##69": 1648,
      "##zil": 1649,
      "##(mm)": 1650,
      "##%)": 1651,
      "##004": 1652,
      "##anese": 1653,
      "##ster": 1654,
      "##inc": 1655,
      "##ala": 1656,
      "##alysis": 1657,
      "proc": 1658,
      "##ash": 1659,
      "##ingbo": 1660,
      "##ions": 1661,
      "##rade": 1662,
      "m.ton.": 1663,
      "##los": 1664,
      "##lour": 1665,
      "16.12.2019": 1666,
      "25.11.19": 1667,
      "24-12-2019": 1668,
      "24.12.19": 1669,
      "spinning": 1670,
      "18.12.2019": 1671,
      "##15.00": 1672,
      "26.12.19": 1673,
      "##/s/0": 1674,
      "scre": 1675,
      "minimum": 1676,
      "05.12.2019": 1677,
      "06-12-2019": 1678,
      "syring": 1679,
      "top": 1680,
      "##/010": 1681,
      "##pathic)": 1682,
      "07-01-2020": 1683,
      "##-nov-2019.": 1684,
      "control": 1685,
      "crude": 1686,
      "seal": 1687,
      "printed": 1688,
      "(gloss/m": 1689,
      "lev": 1690,
      "##/ht": 1691,
      "##-jan-2020.": 1692,
      "##ember-2019": 1693,
      "film": 1694,
      "mould": 1695,
      "##mmx1": 1696,
      "148.50": 1697,
      "tereph": 1698,
      "calcium": 1699,
      "everzol": 1700,
      "##.09.2019": 1701,
      "chloride": 1702,
      "pulp": 1703,
      "wheel": 1704,
      "titanium": 1705,
      "brazil": 1706,
      "28-10-19": 1707,
      "(therapeutic": 1708,
      "(allopathic)": 1709,
      "dioxide": 1710,
      "rubber": 1711,
      "syringe": 1712,
      "(gloss/matt)": 1713,
      "terephthalic": 1714,
      "(8": 1715,
      "150.00": 1716,
      "212": 1717,
      "5.00": 1718,
      "76": 1719,
      "850.00": 1720,
      "970.00": 1721,
      "aa": 1722,
      "cps": 1723,
      "ep": 1724,
      "eth": 1725,
      "grow": 1726,
      "h10": 1727,
      "hyd": 1728,
      "ir": 1729,
      "kong": 1730,
      "kcal/kg": 1731,
      "lc": 1732,
      "late": 1733,
      "ldpe": 1734,
      "side": 1735,
      "zinc": 1736,
      "##2a": 1737,
      "##530": 1738,
      "##iver": 1739,
      "##si": 1740,
      "##tg": 1741,
      "##ne": 1742,
      "##.s": 1743,
      "##.25": 1744,
      "##hd": 1745,
      "##/in": 1746,
      "##poly": 1747,
      "##91": 1748,
      "##90.00": 1749,
      "##-t": 1750,
      "##-z": 1751,
      "##-in": 1752,
      "##kg": 1753,
      "##ctr": 1754,
      "##c/2019-20": 1755,
      "##ux": 1756,
      "##300": 1757,
      "##zer": 1758,
      "##erter": 1759,
      "##ates": 1760,
      "##edit": 1761,
      "##anol": 1762,
      "##ind": 1763,
      "inverter": 1764,
      "analysis": 1765,
      "cool": 1766,
      "##old": 1767,
      "##oth": 1768,
      "concent": 1769,
      "##102": 1770,
      "##irc": 1771,
      "##ailand": 1772,
      "10%)": 1773,
      "1.5": 1774,
      "##ises": 1775,
      "191.00": 1776,
      "0.2": 1777,
      "0.10": 1778,
      "##thetic": 1779,
      "1100": 1780,
      "11-12-2019": 1781,
      "25.00": 1782,
      "##/19-20": 1783,
      "##-03": 1784,
      "##-1911": 1785,
      "28-11-2019": 1786,
      "rec": 1787,
      "23.12.19": 1788,
      "23.12.2019": 1789,
      "05-12-2019.": 1790,
      "pipe": 1791,
      "02.01.20": 1792,
      "accor": 1793,
      "##ift": 1794,
      "denim": 1795,
      "thailand": 1796,
      "990.00": 1797,
      "04.12.19": 1798,
      "##/001": 1799,
      "##pk19": 1800,
      "soft": 1801,
      "dyes": 1802,
      "credit": 1803,
      "american": 1804,
      "above": 1805,
      "basis": 1806,
      "synthetic": 1807,
      "container": 1808,
      "sulphate": 1809,
      "(hd": 1810,
      "linear": 1811,
      "##enzing": 1812,
      "caps": 1813,
      "grey": 1814,
      "auto": 1815,
      "engine": 1816,
      "(6)": 1817,
      "electr": 1818,
      "supply": 1819,
      "growth": 1820,
      "(+": 1821,
      "+)": 1822,
      "20.00": 1823,
      "2200": 1824,
      "2000.00": 1825,
      "42": 1826,
      "48": 1827,
      "56": 1828,
      "84": 1829,
      "800.00": 1830,
      "9.": 1831,
      "935": 1832,
      "ara": 1833,
      "back": 1834,
      "blow": 1835,
      "cf": 1836,
      "gc": 1837,
      "gas": 1838,
      "gly": 1839,
      "gai": 1840,
      "hc": 1841,
      "lenzing": 1842,
      "mid": 1843,
      "mesh": 1844,
      "mala": 1845,
      "nc": 1846,
      "rg": 1847,
      "rut": 1848,
      "tj": 1849,
      "tan": 1850,
      "term": 1851,
      "tape": 1852,
      "tech": 1853,
      "water": 1854,
      "waxed": 1855,
      "x6": 1856,
      "yard": 1857,
      "##1-": 1858,
      "##rial": 1859,
      "##aw": 1860,
      "##ade": 1861,
      "##so": 1862,
      "##sp": 1863,
      "##tpc": 1864,
      "##.40": 1865,
      "##.70": 1866,
      "##495": 1867,
      "##lan": 1868,
      "##/n": 1869,
      "##/4": 1870,
      "##-4": 1871,
      "##-h": 1872,
      "##-8": 1873,
      "##-30": 1874,
      "##-ap": 1875,
      "##-4.": 1876,
      "##b/": 1877,
      "##b.)": 1878,
      "##84": 1879,
      "##880": 1880,
      "##7)": 1881,
      "##cf": 1882,
      "##ced": 1883,
      "##320": 1884,
      "##fl": 1885,
      "##ve": 1886,
      "##vc": 1887,
      "##organ": 1888,
      "##ict": 1889,
      "##atic": 1890,
      "##end": 1891,
      "injection": 1892,
      "colour": 1893,
      "##eliver": 1894,
      "##dex": 1895,
      "##try": 1896,
      "##-201b": 1897,
      "##ray": 1898,
      "2020": 1899,
      "1.0": 1900,
      "1200": 1901,
      "##charg": 1902,
      "19-11-2019": 1903,
      "0.1": 1904,
      "0.9": 1905,
      "25.4": 1906,
      "24.12.2019": 1907,
      "14-01-2020": 1908,
      "##coated": 1909,
      "spun": 1910,
      "18.12.19": 1911,
      "30/1": 1912,
      "##90)": 1913,
      "03-12-2019": 1914,
      "05.12.19": 1915,
      "201912": 1916,
      "##ipper": 1917,
      "##85.00": 1918,
      "02.12.19": 1919,
      "##apore": 1920,
      "brass": 1921,
      "06.01.2020": 1922,
      "09.12.19": 1923,
      "##/ckd": 1924,
      "##1203": 1925,
      "##aste": 1926,
      "07.01.20": 1927,
      "##ldpe)": 1928,
      "cd70": 1929,
      "##eavy": 1930,
      "##ugs": 1931,
      "skins": 1932,
      "##dling": 1933,
      "port/port": 1934,
      "boxes": 1935,
      "na/19": 1936,
      "2010)": 1937,
      "##/rbd": 1938,
      "containers": 1939,
      "included": 1940,
      "industrial": 1941,
      "##/11/2019": 1942,
      "##/dec-19": 1943,
      "(a.r.": 1944,
      "iii": 1945,
      "service": 1946,
      "clean": 1947,
      "(not": 1948,
      "ultra": 1949,
      "xpk-tr": 1950,
      "##components": 1951,
      "typical": 1952,
      "singapore": 1953,
      "process": 1954,
      "##mmx1.2": 1955,
      "brazilian": 1956,
      "concentrate": 1957,
      "(+)": 1958,
      "+)qty": 1959,
      "gaipl": 1960,
      "malays": 1961,
      "(a.r.b.)": 1962,
      "(ldpe)": 1963,
      "180": 1964,
      "250.00": 1965,
      "2100": 1966,
      "3.0": 1967,
      "420": 1968,
      "495": 1969,
      "5-": 1970,
      "512": 1971,
      "53.80": 1972,
      "750": 1973,
      "700.00": 1974,
      "730": 1975,
      "728": 1976,
      "850": 1977,
      "9000": 1978,
      "ak": 1979,
      "aver": 1980,
      "bit": 1981,
      "bab": 1982,
      "cry": 1983,
      "circ": 1984,
      "dies": 1985,
      "ed": 1986,
      "fer": 1987,
      "fur": 1988,
      "from": 1989,
      "fsc": 1990,
      "gift": 1991,
      "h.s": 1992,
      "heavy": 1993,
      "iv": 1994,
      "lin": 1995,
      "less": 1996,
      "mul": 1997,
      "mix": 1998,
      "oct": 1999,
      "p/": 2000,
      "pf": 2001,
      "ss": 2002,
      "sv": 2003,
      "sale": 2004,
      "tin": 2005,
      "tol": 2006,
      "terms": 2007,
      "##290)": 2008,
      "##56": 2009,
      "##i-": 2010,
      "##iol": 2011,
      "##mg": 2012,
      "##mal": 2013,
      "##ming": 2014,
      "##ah": 2015,
      "##af": 2016,
      "##akistan": 2017,
      "##xac": 2018,
      "##su": 2019,
      "##sol": 2020,
      "##opl": 2021,
      "##n11": 2022,
      "##.a": 2023,
      "##hm": 2024,
      "##li": 2025,
      "##lot": 2026,
      "##/f": 2027,
      "##/ry": 2028,
      "##pf": 2029,
      "##-18": 2030,
      "##-90": 2031,
      "##-oct": 2032,
      "##by": 2033,
      "##cr": 2034,
      "##uty": 2035,
      "##ge": 2036,
      "##zan": 2037,
      "##yon": 2038,
      "##ycl": 2039,
      "##ven": 2040,
      "##wise": 2041,
      "##ering": 2042,
      "##008": 2043,
      "##art": 2044,
      "##arant": 2045,
      "##ating": 2046,
      "nov": 2047,
      "##inal": 2048,
      "prop": 2049,
      "##126": 2050,
      "##12.00": 2051,
      "##hem": 2052,
      "port.": 2053,
      "anti": 2054,
      "##oln11": 2055,
      "##0005": 2056,
      "##ural": 2057,
      "comm": 2058,
      "##pex": 2059,
      "20.12.19": 2060,
      "20-11-2019": 2061,
      "20.11.2019": 2062,
      "##ules": 2063,
      "##ulator": 2064,
      "1.4": 2065,
      "1.27": 2066,
      "12.12.19": 2067,
      "12.12.2019": 2068,
      "##lock": 2069,
      "##loxac": 2070,
      "##ree": 2071,
      "##use": 2072,
      "19/s/0": 2073,
      "la880": 2074,
      "##odor": 2075,
      "0.20": 2076,
      "rayon": 2077,
      "17-12-2019": 2078,
      "11.12.2019": 2079,
      "1600": 2080,
      "16000": 2081,
      "##/18": 2082,
      "24000": 2083,
      "##20000": 2084,
      "149": 2085,
      "metal": 2086,
      "15-11-2019": 2087,
      "extract": 2088,
      "##-1912": 2089,
      "26-12-2019": 2090,
      "shipment": 2091,
      "rev": 2092,
      "##estuf": 2093,
      "##/sdl": 2094,
      "##/sec": 2095,
      "##1460": 2096,
      "##ethane": 2097,
      "speed": 2098,
      "03-01-2020": 2099,
      "03-12-2019.": 2100,
      "mini": 2101,
      "29.11.2019": 2102,
      "##ipments": 2103,
      "02.01.2020": 2104,
      "06.12.19": 2105,
      "##ified": 2106,
      "09-12-2019": 2107,
      "09-12-2019.": 2108,
      "mm)": 2109,
      "08.01.20": 2110,
      "chem/16": 2111,
      "99.": 2112,
      "deodor": 2113,
      "otherwise": 2114,
      "##/007": 2115,
      "bottl": 2116,
      "cdw": 2117,
      "dyestuf": 2118,
      "440000": 2119,
      "##ock": 2120,
      "equipments": 2121,
      "dream": 2122,
      "cloth": 2123,
      "sdr": 2124,
      "##zole": 2125,
      "box)": 2126,
      "ahl-c": 2127,
      "goods.": 2128,
      "micro": 2129,
      "8020": 2130,
      "##udia": 2131,
      "mark": 2132,
      "drums": 2133,
      "(r)": 2134,
      "(r290)": 2135,
      "dryer": 2136,
      "terylene": 2137,
      "44000256": 2138,
      "4-qty": 2139,
      "(incoterms": 2140,
      "frit": 2141,
      "fb1460": 2142,
      "surgery": 2143,
      "##/pak/sec": 2144,
      "guarant": 2145,
      "bundles": 2146,
      "corp": 2147,
      "silicon": 2148,
      "equals": 2149,
      "32007.50": 2150,
      "h1045": 2151,
      "hydro": 2152,
      "latex": 2153,
      "##tgj": 2154,
      "rutile": 2155,
      "##tpcr": 2156,
      "##-4.9": 2157,
      "##elivery": 2158,
      "gaipl/s": 2159,
      "512.12": 2160,
      "average": 2161,
      "diesel": 2162,
      "p/i": 2163,
      "##mingled": 2164,
      "##lotrene": 2165,
      "##/rye": 2166,
      "##loxacin": 2167,
      "bottles": 2168,
      "##/pak/sec/rye": 2169,
      "guaranteed": 2170,
      "(t": 2171,
      "(pl": 2172,
      "(10": 2173,
      "(lo": 2174,
      "(15": 2175,
      "/port": 2176,
      "000": 2177,
      "120": 2178,
      "119": 2179,
      "34": 2180,
      "396": 2181,
      "310.00": 2182,
      "40.00": 2183,
      "480.00": 2184,
      "51": 2185,
      "511": 2186,
      "6-": 2187,
      "665": 2188,
      "77": 2189,
      "72.": 2190,
      "840.00": 2191,
      "900": 2192,
      "980.00": 2193,
      "bales": 2194,
      "bus": 2195,
      "base": 2196,
      "cm": 2197,
      "cc": 2198,
      "cent": 2199,
      "dl": 2200,
      "each": 2201,
      "ful": 2202,
      "gudia": 2203,
      "ho": 2204,
      "hy": 2205,
      "hum": 2206,
      "jtgj": 2207,
      "l-": 2208,
      "lov": 2209,
      "light": 2210,
      "main": 2211,
      "mill": 2212,
      "morgan": 2213,
      "ni": 2214,
      "num": 2215,
      "ningbo": 2216,
      "out": 2217,
      "pt": 2218,
      "rh": 2219,
      "rice": 2220,
      "rot": 2221,
      "rod": 2222,
      "s.": 2223,
      "sbr": 2224,
      "ten": 2225,
      "tra": 2226,
      "test": 2227,
      "wo": 2228,
      "##220": 2229,
      "##119": 2230,
      "##1000": 2231,
      "##160": 2232,
      "##51": 2233,
      "##532": 2234,
      "##rz": 2235,
      "##ii": 2236,
      "##ider": 2237,
      "##mk": 2238,
      "##aire": 2239,
      "##xpk19": 2240,
      "##tex": 2241,
      "##ox": 2242,
      "##ness": 2243,
      "##.i": 2244,
      "##.80": 2245,
      "##.29": 2246,
      "##l/": 2247,
      "##land": 2248,
      "##/32": 2249,
      "##07": 2250,
      "##080": 2251,
      "##920": 2252,
      "##-j": 2253,
      "##-pk": 2254,
      "##bk": 2255,
      "##km": 2256,
      "##c)": 2257,
      "##gi": 2258,
      "##375": 2259,
      "##fer": 2260,
      "##ze": 2261,
      "##df": 2262,
      "##yot": 2263,
      "##wing": 2264,
      "##orator": 2265,
      "##ar)": 2266,
      "##atin": 2267,
      "##2020": 2268,
      "##1900": 2269,
      "##ann": 2270,
      "##acity": 2271,
      "ash": 2272,
      "use": 2273,
      "##role": 2274,
      "##aly": 2275,
      "##form": 2276,
      "offs": 2277,
      "##ital": 2278,
      "coal": 2279,
      "##010": 2280,
      "##113": 2281,
      "##olat": 2282,
      "##enta": 2283,
      "##dept": 2284,
      "cones": 2285,
      "uncoated": 2286,
      "20-12-2019.": 2287,
      "10/1": 2288,
      "1219": 2289,
      "##usion": 2290,
      "1912": 2291,
      "19-12-2019": 2292,
      "19.12.2019": 2293,
      "##407": 2294,
      "116": 2295,
      "2.5": 2296,
      "##terpr": 2297,
      "api": 2298,
      "24.7": 2299,
      "(popl": 2300,
      "purpos": 2301,
      "##ement": 2302,
      "13-01-2020": 2303,
      "##amine": 2304,
      "##ameter": 2305,
      "set.": 2306,
      "##ible": 2307,
      "##ibond": 2308,
      "export": 2309,
      "##-019": 2310,
      "##455": 2311,
      "1800.00": 2312,
      "50000": 2313,
      "26.11.2019": 2314,
      "sheep": 2315,
      "min.": 2316,
      "22.11.2019": 2317,
      "##/psf": 2318,
      "##/part": 2319,
      "06.12.2019": 2320,
      "ton.": 2321,
      "sy-ap": 2322,
      "505": 2323,
      "toyot": 2324,
      "##osph": 2325,
      "##-10-2019.": 2326,
      "than": 2327,
      "thxpk19": 2328,
      "04-01-2020": 2329,
      "issu": 2330,
      "2018": 2331,
      "##48f": 2332,
      "##+/-10": 2333,
      "ppr": 2334,
      "dyed": 2335,
      "enterpr": 2336,
      "produced": 2337,
      "##/kb": 2338,
      "##/min": 2339,
      "sewing": 2340,
      "load": 2341,
      "##-rz": 2342,
      "nav": 2343,
      "na/1912": 2344,
      "medic": 2345,
      "sided": 2346,
      "##-filled": 2347,
      "synerg": 2348,
      "pre-filled": 2349,
      "inset": 2350,
      "filter": 2351,
      "sulphur": 2352,
      "item": 2353,
      "original": 2354,
      "(lld": 2355,
      "everlan": 2356,
      "##pakistan": 2357,
      "790005": 2358,
      "certi": 2359,
      "road": 2360,
      "##revised": 2361,
      "foil": 2362,
      "laborator": 2363,
      "december": 2364,
      "petrole": 2365,
      "two": 2366,
      "chrome": 2367,
      "compressor": 2368,
      "sg/19": 2369,
      "micronaire": 2370,
      "japanese": 2371,
      "sjz": 2372,
      "cps/0": 2373,
      "##/ind/": 2374,
      "glycol": 2375,
      "middling": 2376,
      "tj530": 2377,
      "services": 2378,
      "##mmx1.2tx": 2379,
      "baby": 2380,
      "circular": 2381,
      "##zania": 2382,
      "##/sdl/1912": 2383,
      "dyestuffs": 2384,
      "sdrw": 2385,
      "802026": 2386,
      "human": 2387,
      "jtgjrz": 2388,
      "lovibond": 2389,
      "number": 2390,
      "offset": 2391,
      "24.750": 2392,
      "(poplar)": 2393,
      "##/psf/ind/": 2394,
      "sy-api": 2395,
      "toyota": 2396,
      "issued": 2397,
      "enterprises": 2398,
      "synergy": 2399,
      "petroleum": 2400,
      "jtgjrz-rz": 2401,
      "(ld": 2402,
      "130": 2403,
      "320": 2404,
      "30.00": 2405,
      "3000.00": 2406,
      "350.00": 2407,
      "4.5": 2408,
      "52": 2409,
      "5800": 2410,
      "64": 2411,
      "69": 2412,
      "68": 2413,
      "680.00": 2414,
      "78": 2415,
      "86": 2416,
      "8000": 2417,
      "97": 2418,
      "93": 2419,
      "950": 2420,
      "af": 2421,
      "az": 2422,
      "cb": 2423,
      "cit": 2424,
      "dc": 2425,
      "dig": 2426,
      "dair": 2427,
      "delivery": 2428,
      "fe": 2429,
      "gs": 2430,
      "hol": 2431,
      "imp": 2432,
      "jan": 2433,
      "lyc": 2434,
      "llc": 2435,
      "ms": 2436,
      "mang": 2437,
      "nf": 2438,
      "op": 2439,
      "pe": 2440,
      "rm": 2441,
      "r66": 2442,
      "sin": 2443,
      "s120": 2444,
      "tp": 2445,
      "tc": 2446,
      "tai": 2447,
      "zipper": 2448,
      "##211": 2449,
      "##250": 2450,
      "##150": 2451,
      "##54": 2452,
      "##5.0": 2453,
      "##ier": 2454,
      "##ima": 2455,
      "##mb": 2456,
      "##a19": 2457,
      "##size": 2458,
      "##ta": 2459,
      "##t.": 2460,
      "##ok": 2461,
      "##nect": 2462,
      "##.13": 2463,
      "##hr": 2464,
      "##les": 2465,
      "##/o": 2466,
      "##/7": 2467,
      "##/fa": 2468,
      "##912": 2469,
      "##9/2019": 2470,
      "##-46": 2471,
      "##ble": 2472,
      "##8/": 2473,
      "##73": 2474,
      "##cion": 2475,
      "##gr": 2476,
      "##ga": 2477,
      "##gx": 2478,
      "##go": 2479,
      "##ff": 2480,
      "##61": 2481,
      "##va": 2482,
      "##js)": 2483,
      "##j/2019-20": 2484,
      "##era": 2485,
      "##ors": 2486,
      "##oration": 2487,
      "##arcion": 2488,
      "##atch": 2489,
      "##atural": 2490,
      "##ed)": 2491,
      "inf": 2492,
      "##ons": 2493,
      "##onent": 2494,
      "asia": 2495,
      "##mazol": 2496,
      "kg)": 2497,
      "##129": 2498,
      "##1238": 2499,
      "##eable": 2500,
      "mt(+/-": 2501,
      "cop": 2502,
      "##114": 2503,
      "##116": 2504,
      "##1110": 2505,
      "##olar": 2506,
      "##plate": 2507,
      "##pling": 2508,
      "##ioned": 2509,
      "stop": 2510,
      "steam": 2511,
      "##raft": 2512,
      "##-12-19": 2513,
      "##pt)": 2514,
      "##pean": 2515,
      "under": 2516,
      "20.12.2019": 2517,
      "105": 2518,
      "1.58": 2519,
      "123": 2520,
      "12000": 2521,
      "12/1": 2522,
      "12-dec-2019": 2523,
      "1238": 2524,
      "##isc": 2525,
      "1980.00": 2526,
      "0.30": 2527,
      "rad": 2528,
      "100000.00": 2529,
      "1700": 2530,
      "17-dec-2019": 2531,
      "##mart": 2532,
      "2.15": 2533,
      "168": 2534,
      "16-12-2019": 2535,
      "16-12-2019.": 2536,
      "25000": 2537,
      "##idor": 2538,
      "pridor": 2539,
      "##/17": 2540,
      "##/1205": 2541,
      "(pr": 2542,
      "pure": 2543,
      "##amp": 2544,
      "1500.00": 2545,
      "##-05": 2546,
      "##-08": 2547,
      "bag.": 2548,
      "spar": 2549,
      "spir": 2550,
      "spcc": 2551,
      "##451": 2552,
      "material)": 2553,
      "50000.00": 2554,
      "28.00": 2555,
      "##18.00": 2556,
      "20000.00": 2557,
      "remazol": 2558,
      "##353": 2559,
      "##/sub": 2560,
      "##228": 2561,
      "##rif": 2562,
      "##/2018": 2563,
      "##oven": 2564,
      "03.01.20": 2565,
      "01-01-2020": 2566,
      "pi/psf/ind/": 2567,
      "##.55": 2568,
      "201923": 2569,
      "compound": 2570,
      "component": 2571,
      "290.00": 2572,
      "02-12-2019.": 2573,
      "22000": 2574,
      "22-11-2019": 2575,
      "##/p-in": 2576,
      "added": 2577,
      "##uble": 2578,
      "09.12.2019": 2579,
      "27.12.19": 2580,
      "##ose)": 2581,
      "08-01-2020.": 2582,
      "thick": 2583,
      "49.5": 2584,
      "##fect": 2585,
      "##uff": 2586,
      "##/002": 2587,
      "##-001": 2588,
      "soe": 2589,
      "bott": 2590,
      "31.10.2019": 2591,
      "cream": 2592,
      "##-pakistan": 2593,
      "##ml/": 2594,
      "amoun": 2595,
      "slub": 2596,
      "slugs": 2597,
      "european": 2598,
      "##/hm": 2599,
      "##-r1": 2600,
      "assy": 2601,
      "discharg": 2602,
      "##19110": 2603,
      "ahl/ckd": 2604,
      "##/b01": 2605,
      "charger": 2606,
      "5100532": 2607,
      "moulded": 2608,
      "''lotrene": 2609,
      "##(s).": 2610,
      "conditioning": 2611,
      "cg125": 2612,
      "##ouse": 2613,
      "1010.00": 2614,
      "cellular": 2615,
      "impex": 2616,
      "sampling": 2617,
      "200847": 2618,
      "regain": 2619,
      "(pharmaceutical": 2620,
      "##complete": 2621,
      "palmitic)5.0": 2622,
      "ctn": 2623,
      "mtrs": 2624,
      "iris": 2625,
      "cooling": 2626,
      "recap": 2627,
      "tanzania": 2628,
      "terminal": 2629,
      "##/rbdoln11": 2630,
      "4201110": 2631,
      "##-oct-2019": 2632,
      "deodorised": 2633,
      "corporation": 2634,
      "(loose)": 2635,
      "##/minus": 2636,
      "navy": 2637,
      "laboratory": 2638,
      "sg/19/1205": 2639,
      "january": 2640,
      "lycra": 2641,
      "sinarcion": 2642,
      "##/p-inv": 2643,
      "thickness": 2644,
      "''lotrene''": 2645,
      "(mm)": 2646,
      "(iso": 2647,
      "(7)": 2648,
      "0.00": 2649,
      "112": 2650,
      "111": 2651,
      "347": 2652,
      "325.00": 2653,
      "4)": 2654,
      "400.00": 2655,
      "440": 2656,
      "5000.00": 2657,
      "585": 2658,
      "5500": 2659,
      "555": 2660,
      "520.00": 2661,
      "590.00": 2662,
      "62": 2663,
      "63": 2664,
      "600": 2665,
      "685.00": 2666,
      "72": 2667,
      "7-": 2668,
      "786": 2669,
      "860.00": 2670,
      "914": 2671,
      "bu": 2672,
      "ber": 2673,
      "blo": 2674,
      "bct": 2675,
      "bang": 2676,
      "belt": 2677,
      "cy": 2678,
      "c(": 2679,
      "clos": 2680,
      "ds": 2681,
      "date": 2682,
      "dia": 2683,
      "ef": 2684,
      "fast": 2685,
      "food": 2686,
      "g5": 2687,
      "gy": 2688,
      "its": 2689,
      "jf": 2690,
      "kw": 2691,
      "kraft": 2692,
      "li": 2693,
      "lub": 2694,
      "lms": 2695,
      "mc": 2696,
      "ment": 2697,
      "mag": 2698,
      "may": 2699,
      "nor": 2700,
      "ox": 2701,
      "over": 2702,
      "r/w": 2703,
      "sm": 2704,
      "sem": 2705,
      "sby": 2706,
      "s/sdl/1912": 2707,
      "tow": 2708,
      "tric": 2709,
      "ur": 2710,
      "u.s.": 2711,
      "ws": 2712,
      "waste": 2713,
      "yl": 2714,
      "##240": 2715,
      "##180": 2716,
      "##ryl": 2717,
      "##ific": 2718,
      "##ijs)": 2719,
      "##a0": 2720,
      "##xc": 2721,
      "##ece": 2722,
      "##sion": 2723,
      "##to": 2724,
      "##oz": 2725,
      "##.m": 2726,
      "##.8": 2727,
      "##460": 2728,
      "##hy": 2729,
      "##her": 2730,
      "##hpk": 2731,
      "##let": 2732,
      "##/t": 2733,
      "##/25": 2734,
      "##/mt": 2735,
      "##/2001": 2736,
      "##pur": 2737,
      "##pct": 2738,
      "##9)": 2739,
      "##901": 2740,
      "##-d": 2741,
      "##-50": 2742,
      "##-40": 2743,
      "##-th": 2744,
      "##-id": 2745,
      "##-14": 2746,
      "##-23": 2747,
      "##-mt": 2748,
      "##-55": 2749,
      "##k00": 2750,
      "##81": 2751,
      "##cy": 2752,
      "##cre": 2753,
      "##cell": 2754,
      "##uco": 2755,
      "##gen": 2756,
      "##got": 2757,
      "##gical": 2758,
      "##330": 2759,
      "##fb": 2760,
      "##601": 2761,
      "##d70": 2762,
      "##dance": 2763,
      "##v/2019": 2764,
      "##(t)": 2765,
      "##ert": 2766,
      "##003": 2767,
      "##ic/1": 2768,
      "##20200": 2769,
      "##2020010": 2770,
      "##eds": 2771,
      "##19001": 2772,
      "##enol": 2773,
      "##ty)": 2774,
      "##ank": 2775,
      "##any": 2776,
      "##andex": 2777,
      "##acet": 2778,
      "note": 2779,
      "no.3": 2780,
      "##stall": 2781,
      "##2019120": 2782,
      "##ficate": 2783,
      "##map": 2784,
      "##mage": 2785,
      "prof": 2786,
      "kg(": 2787,
      "##124": 2788,
      "##portation": 2789,
      "##itch": 2790,
      "##50c": 2791,
      "##pl/p-inv": 2792,
      "##ured": 2793,
      "connect": 2794,
      "##103": 2795,
      "##actor": 2796,
      "##actions": 2797,
      "##-2021": 2798,
      "##pect": 2799,
      "##ulon": 2800,
      "##ultry": 2801,
      "10.12.2019": 2802,
      "10-01-2020": 2803,
      "10-10-2019": 2804,
      "1.7": 2805,
      "1.25": 2806,
      "126": 2807,
      "12.00": 2808,
      "##log": 2809,
      "##uss": 2810,
      "##usive": 2811,
      "192": 2812,
      "198.00": 2813,
      "##-015": 2814,
      "##-01-20": 2815,
      "##uth": 2816,
      "0.15": 2817,
      "raff": 2818,
      "100000": 2819,
      "17.12.19": 2820,
      "17-01-2020": 2821,
      "##-11bk": 2822,
      "115": 2823,
      "2.3": 2824,
      "2.30": 2825,
      "##309": 2826,
      "prim": 2827,
      "press": 2828,
      "##/100": 2829,
      "240.00": 2830,
      "##ctor": 2831,
      "1300": 2832,
      "13-12-2019": 2833,
      "1300.00": 2834,
      "##amide": 2835,
      "1-1": 2836,
      "1-1/": 2837,
      "1400": 2838,
      "14.01.20": 2839,
      "plant": 2840,
      "15-01-2020": 2841,
      "##cop": 2842,
      "exce": 2843,
      "ex-w": 2844,
      "##-04": 2845,
      "spandex": 2846,
      "##454": 2847,
      "18.00": 2848,
      "18-12-2019": 2849,
      "##15cm": 2850,
      "26-11-2019": 2851,
      "26-12-2019.": 2852,
      "26-11-2019.": 2853,
      "sho": 2854,
      "##.07": 2855,
      "##.06": 2856,
      "30.12.2019": 2857,
      "##224": 2858,
      "##ethyl": 2859,
      "sc-id": 2860,
      "##65.00": 2861,
      "05-dec-2019": 2862,
      "##.52": 2863,
      "20192": 2864,
      "2019.": 2865,
      "201922": 2866,
      "##unt": 2867,
      "29.11.19": 2868,
      "##17.": 2869,
      "##131": 2870,
      "plus/minus": 2871,
      "blade": 2872,
      "02-12-2019": 2873,
      "02.12.2019": 2874,
      "bopp": 2875,
      "##/pc": 2876,
      "pallet": 2877,
      "06.01.20": 2878,
      "intermingled": 2879,
      "this": 2880,
      "##/1219": 2881,
      "490.00": 2882,
      "##astatin": 2883,
      "device": 2884,
      "##478": 2885,
      "##368": 2886,
      "##36f": 2887,
      "##/009": 2888,
      "modules": 2889,
      "art": 2890,
      "##se19.00": 2891,
      "south": 2892,
      "##-november-2019": 2893,
      "cdd": 2894,
      "dyeable": 2895,
      "##-sd": 2896,
      "31-12-2019": 2897,
      "31.12.2019": 2898,
      "##-1000": 2899,
      "trb": 2900,
      "##/m2": 2901,
      "##/misc": 2902,
      "cla": 2903,
      "slider": 2904,
      "150d/": 2905,
      "##ugh": 2906,
      "product)": 2907,
      "##/hti": 2908,
      "##ycin": 2909,
      "strength": 2910,
      "##67.": 2911,
      "charge": 2912,
      "##/215cm": 2913,
      "##uminous": 2914,
      "dope": 2915,
      "double": 2916,
      "125s": 2917,
      "freezer": 2918,
      "(wijs)": 2919,
      "pfi-th": 2920,
      "textured": 2921,
      "bppl/p-inv": 2922,
      "##ickled": 2923,
      "##mmx2": 2924,
      "6174": 2925,
      "##uary-20": 2926,
      "##enser": 2927,
      "##.09.19": 2928,
      "motorcycl": 2929,
      "clear": 2930,
      "fractions": 2931,
      "point": 2932,
      "sae": 2933,
      "x652b": 2934,
      "transportation": 2935,
      "autom": 2936,
      "monohydrate": 2937,
      "3901": 2938,
      "ecic/1": 2939,
      "switch": 2940,
      "##amino": 2941,
      "##amination": 2942,
      "pi003": 2943,
      "(dty)": 2944,
      "8517.": 2945,
      "ahtl/part": 2946,
      "xpk-map": 2947,
      "elast": 2948,
      "##off": 2949,
      "##k-id": 2950,
      "##gsm/215cm": 2951,
      "degree": 2952,
      "3100049": 2953,
      "31000495": 2954,
      "bbls": 2955,
      "##++++++++++++++++": 2956,
      "emot": 2957,
      "screen": 2958,
      "level": 2959,
      "##/htj/2019-20": 2960,
      "(8)": 2961,
      "##polymer": 2962,
      "0.10mm": 2963,
      "accordance": 2964,
      "basis)": 2965,
      "22005": 2966,
      "hc116": 2967,
      "ncv": 2968,
      "25.4mmx1.2tx": 2969,
      "malaysia": 2970,
      "728004": 2971,
      "bituminous": 2972,
      "cryo": 2973,
      "mult": 2974,
      "oct-2021": 2975,
      "tinplate": 2976,
      "ahl-cd70": 2977,
      "centrif": 2978,
      "purpose": 2979,
      "##/kbk-id": 2980,
      "item)": 2981,
      "certificate": 2982,
      "sjzse19.00": 2983,
      "jtgjrz-rz1912": 2984,
      "dairy": 2985,
      "llc/0": 2986,
      "open": 2987,
      "bottle": 2988,
      "amount": 2989,
      "##/hmc/2019-20": 2990,
      "sg/19/1205/01": 2991,
      "blood": 2992,
      "bctmp": 2993,
      "c(size": 2994,
      "mentioned": 2995,
      "normal": 2996,
      "raffia": 2997,
      "ex-work": 2998,
      "150d/48f": 2999,
      "##/hti/2019-20": 3000,
      "motorcycles": 3001,
      "hc116fb": 3002,
      "ahl-cd70-0": 3003,
      "centrifug": 3004,
      "(e": 3005,
      "(v": 3006,
      "(st": 3007,
      "(9)": 3008,
      "/or": 3009,
      "10.00": 3010,
      "240": 3011,
      "260": 3012,
      "215": 3013,
      "380": 3014,
      "3.50": 3015,
      "390": 3016,
      "317": 3017,
      "30000": 3018,
      "35.00": 3019,
      "320.00": 3020,
      "43": 3021,
      "4+": 3022,
      "4.00": 3023,
      "455": 3024,
      "479": 3025,
      "5)": 3026,
      "501": 3027,
      "56.00": 3028,
      "510.00": 3029,
      "6.5": 3030,
      "74": 3031,
      "73": 3032,
      "720": 3033,
      "880": 3034,
      "810.00": 3035,
      "830.00": 3036,
      "970": 3037,
      "90000": 3038,
      "920.00": 3039,
      "9228": 3040,
      "av": 3041,
      "bod": 3042,
      "bill": 3043,
      "benz": 3044,
      "brow": 3045,
      "ce": 3046,
      "cro": 3047,
      "cel": 3048,
      "cad": 3049,
      "cable": 3050,
      "cpc": 3051,
      "ckd": 3052,
      "dn": 3053,
      "dh": 3054,
      "dd": 3055,
      "dra": 3056,
      "doll": 3057,
      "eg": 3058,
      "fs": 3059,
      "fd": 3060,
      "fol": 3061,
      "fir": 3062,
      "fill": 3063,
      "filled": 3064,
      "factor": 3065,
      "gw": 3066,
      "gent": 3067,
      "garm": 3068,
      "ginn": 3069,
      "gloss": 3070,
      "g.s.": 3071,
      "gold": 3072,
      "gml/": 3073,
      "hm": 3074,
      "ha": 3075,
      "hs": 3076,
      "hd": 3077,
      "hv": 3078,
      "hgx": 3079,
      "jet": 3080,
      "kva": 3081,
      "lm": 3082,
      "lx": 3083,
      "ly": 3084,
      "mem": 3085,
      "mfi": 3086,
      "nam": 3087,
      "pu": 3088,
      "pel": 3089,
      "pot": 3090,
      "penta": 3091,
      "pickled": 3092,
      "qf": 3093,
      "rfs": 3094,
      "russ": 3095,
      "sn": 3096,
      "s/": 3097,
      "siz": 3098,
      "s16": 3099,
      "smart": 3100,
      "s19110": 3101,
      "t19": 3102,
      "tel": 3103,
      "tem": 3104,
      "tri": 3105,
      "tub": 3106,
      "time": 3107,
      "upl": 3108,
      "volat": 3109,
      "wel": 3110,
      "wag": 3111,
      "wip": 3112,
      "wash": 3113,
      "xn": 3114,
      "x-": 3115,
      "##245": 3116,
      "##2.5": 3117,
      "##2-e": 3118,
      "##1a": 3119,
      "##140": 3120,
      "##1.20": 3121,
      "##170": 3122,
      "##59": 3123,
      "##rh": 3124,
      "##rc": 3125,
      "##ril": 3126,
      "##ient": 3127,
      "##iel": 3128,
      "##iam": 3129,
      "##me": 3130,
      "##mo": 3131,
      "##aine": 3132,
      "##azole": 3133,
      "##x6": 3134,
      "##eu": 3135,
      "##s-": 3136,
      "##ten": 3137,
      "##oil": 3138,
      "##oph": 3139,
      "##n8": 3140,
      "##not": 3141,
      "##nov": 3142,
      "##namic": 3143,
      "##.c": 3144,
      "##.90": 3145,
      "##.375": 3146,
      "##hic": 3147,
      "##han": 3148,
      "##hes": 3149,
      "##ham": 3150,
      "##l)": 3151,
      "##ll": 3152,
      "##l-": 3153,
      "##lon": 3154,
      "##/a": 3155,
      "##/6": 3156,
      "##/d": 3157,
      "##/components": 3158,
      "##po": 3159,
      "##p/": 3160,
      "##pol": 3161,
      "##ping": 3162,
      "##-v": 3163,
      "##-(": 3164,
      "##-re": 3165,
      "##-25": 3166,
      "##-70": 3167,
      "##-17": 3168,
      "##-13": 3169,
      "##-100": 3170,
      "##-components": 3171,
      "##bb": 3172,
      "##bu": 3173,
      "##bumin": 3174,
      "##bcr": 3175,
      "##b-pk": 3176,
      "##835": 3177,
      "##700": 3178,
      "##cp": 3179,
      "##ces": 3180,
      "##cial": 3181,
      "##uene": 3182,
      "##uel": 3183,
      "##uch": 3184,
      "##3/": 3185,
      "##370": 3186,
      "##f.": 3187,
      "##dle": 3188,
      "##dtex": 3189,
      "##yer": 3190,
      "##van": 3191,
      "##ves": 3192,
      "##vastatin": 3193,
      "##wo": 3194,
      "##wn": 3195,
      "##wc": 3196,
      "##wan": 3197,
      "##way": 3198,
      "##que": 3199,
      "##(r": 3200,
      "##(l": 3201,
      "##(+/-10": 3202,
      "##0044": 3203,
      "##oring": 3204,
      "##orific": 3205,
      "##ich": 3206,
      "##ict)": 3207,
      "##ature": 3208,
      "##edle": 3209,
      "##1901": 3210,
      "##19-01": 3211,
      "##1922": 3212,
      "##1902": 3213,
      "##anel": 3214,
      "ingot": 3215,
      "no(s).": 3216,
      "##rous": 3217,
      "##ines": 3218,
      "##inol": 3219,
      "##inless": 3220,
      "##201911": 3221,
      "##alvan": 3222,
      "##mad": 3223,
      "karachi-pakistan": 3224,
      "project": 3225,
      "##eas": 3226,
      "##ease": 3227,
      "##itol": 3228,
      "anhyd": 3229,
      "##-2019-12": 3230,
      "cover": 3231,
      "##ilt": 3232,
      "##imv": 3233,
      "##115": 3234,
      "##118": 3235,
      "##ol-t": 3236,
      "##olta": 3237,
      "##503": 3238,
      "##pler": 3239,
      "##ingang": 3240,
      "##els": 3241,
      "##el)": 3242,
      "##otov": 3243,
      "##ury": 3244,
      "##urethane": 3245,
      "##ionine": 3246,
      "##-2018": 3247,
      "stear": 3248,
      "unw": 3249,
      "##obe": 3250,
      "pct.": 3251,
      "20.": 3252,
      "20-01-2020": 3253,
      "organ": 3254,
      "##ulated": 3255,
      "##ulation": 3256,
      "102": 3257,
      "108": 3258,
      "10-12-2019": 3259,
      "10.01.20": 3260,
      "10-12-2019.": 3261,
      "10-dec-2019": 3262,
      "1.9": 3263,
      "1.19": 3264,
      "1.88": 3265,
      "1.33": 3266,
      "12v": 3267,
      "pcs.": 3268,
      "##ument": 3269,
      "190": 3270,
      "198": 3271,
      "19-12-2019.": 3272,
      "19-dec-2019": 3273,
      "lading": 3274,
      "polyurethane": 3275,
      "##ylon": 3276,
      "albumin": 3277,
      "##odity": 3278,
      "0.0": 3279,
      "0.8": 3280,
      "0.7": 3281,
      "0.95": 3282,
      "0.87": 3283,
      "##408": 3284,
      "175": 3285,
      "178": 3286,
      "17%": 3287,
      "1796": 3288,
      "##-115": 3289,
      "photov": 3290,
      "1101": 3291,
      "1100.00": 3292,
      "11-12-2019.": 3293,
      "11-dec-2019": 3294,
      "2.0": 3295,
      "##302": 3296,
      "16.00": 3297,
      "16/1": 3298,
      "16-01-2020": 3299,
      "16-dec-2019": 3300,
      "1680.00": 3301,
      "acryl": 3302,
      "apb/": 3303,
      "##/15": 3304,
      "2400": 3305,
      "24000.00": 3306,
      "purified": 3307,
      "13.12.19": 3308,
      "13-12-2019.": 3309,
      "13.11.2019": 3310,
      "1350.00": 3311,
      "##ithrom": 3312,
      "14.": 3313,
      "14-11-2019": 3314,
      "1416": 3315,
      "14-jan-2020.": 3316,
      "plates": 3317,
      "within": 3318,
      "without": 3319,
      "##75tpcr": 3320,
      "##coc": 3321,
      "##cope": 3322,
      "extr": 3323,
      "excell": 3324,
      "##-07": 3325,
      "##-06": 3326,
      "##-030": 3327,
      "##perature": 3328,
      "bags)": 3329,
      "##456": 3330,
      "##45.00": 3331,
      "18-11-2019": 3332,
      "18.11.19": 3333,
      "##707": 3334,
      "materials": 3335,
      "28.0": 3336,
      "28-11-2019.": 3337,
      "26.11.19": 3338,
      "shenz": 3339,
      "200000.00": 3340,
      "refr": 3341,
      "30.12.19": 3342,
      "3021": 3343,
      "##2250": 3344,
      "##2230": 3345,
      "##149": 3346,
      "##146": 3347,
      "##ether": 3348,
      "##ethionine": 3349,
      "##ersible": 3350,
      "03.01.2020": 3351,
      "##23j": 3352,
      "##ung": 3353,
      "29-11-2019.": 3354,
      "29.10.19": 3355,
      "02-01-2020": 3356,
      "22.11.19": 3357,
      "##/po": 3358,
      "adhes": 3359,
      "##952": 3360,
      "06-01-2020": 3361,
      "##exp": 3362,
      "needle": 3363,
      "symb": 3364,
      "##2895": 3365,
      "09.01.20": 3366,
      "09-dec-2019": 3367,
      "27-11-2019": 3368,
      "27.11.19": 3369,
      "##ose": 3370,
      "##adar": 3371,
      "##/12/19": 3372,
      "stainless": 3373,
      "04.12.2019": 3374,
      "size(mm)": 3375,
      "2017": 3376,
      "07.01.2020": 3377,
      "scrap)": 3378,
      "##-005": 3379,
      "##quid": 3380,
      "##88.00": 3381,
      "soy": 3382,
      "##339": 3383,
      "##assium": 3384,
      "dynamic": 3385,
      "##4.70": 3386,
      "21.11.2019": 3387,
      "21-nov-2019": 3388,
      "4.30": 3389,
      "##ocs": 3390,
      "##ocell": 3391,
      "contamination": 3392,
      "##/ksd": 3393,
      "##934": 3394,
      "bear": 3395,
      "sec": 3396,
      "manufacturer": 3397,
      "##-pak": 3398,
      "(gpt)": 3399,
      "loom": 3400,
      "class": 3401,
      "2)qty": 3402,
      "60/1": 3403,
      "##2.40": 3404,
      "##1126": 3405,
      "vial.": 3406,
      "discre": 3407,
      "strip": 3408,
      "##.2000": 3409,
      "ahl-w": 3410,
      "##lav": 3411,
      "medical": 3412,
      "(5.25": 3413,
      "doz": 3414,
      "based": 3415,
      "##-methionine": 3416,
      "##0374": 3417,
      "boron": 3418,
      "##/rpol": 3419,
      "##6006": 3420,
      "##ized)": 3421,
      "moulding": 3422,
      "italy": 3423,
      "##print": 3424,
      "dihydrate": 3425,
      "##/51": 3426,
      "44000255": 3427,
      "(aocs": 3428,
      "(solar": 3429,
      "(sl)": 3430,
      "40000.00": 3431,
      "calorific": 3432,
      "617407": 3433,
      "carbonate": 3434,
      "51005315": 3435,
      "poultry": 3436,
      "x652a": 3437,
      "transpar": 3438,
      "3.55": 3439,
      "3.5-4.9": 3440,
      "cert": 3441,
      "ceramic": 3442,
      "fb2230": 3443,
      "final": 3444,
      "knitted": 3445,
      "room": 3446,
      "coating": 3447,
      "pfi-004": 3448,
      "agen": 3449,
      "agent": 3450,
      "import": 3451,
      "swrh": 3452,
      "surgical": 3453,
      "##ogy": 3454,
      "##-grade": 3455,
      "jhb": 3456,
      "ahtl/c": 3457,
      "engobe": 3458,
      "(bci": 3459,
      "220gsm/215cm": 3460,
      "bundle": 3461,
      "##geryd": 3462,
      "##.08.2019": 3463,
      "acg1900": 3464,
      "panels)": 3465,
      "8810": 3466,
      "super": 3467,
      "vin/1": 3468,
      "##loss)": 3469,
      "screw": 3470,
      "controll": 3471,
      "according": 3472,
      "engineering": 3473,
      "electric": 3474,
      "rgb-pk": 3475,
      "x650c": 3476,
      "x675tpcr": 3477,
      "yards": 3478,
      "na/1911": 3479,
      "processed": 3480,
      "akulon": 3481,
      "liner": 3482,
      "toluene": 3483,
      "commodity": 3484,
      "14936": 3485,
      "chem/1625": 3486,
      "44000050": 3487,
      "gaipl/s/1219": 3488,
      "(plus": 3489,
      "(10)": 3490,
      "3960000": 3491,
      "511a": 3492,
      "full": 3493,
      "tenacity": 3494,
      "##osphate": 3495,
      "thxpk192895": 3496,
      "loading": 3497,
      "##revised)": 3498,
      "97.70": 3499,
      "digital": 3500,
      "taiwan": 3501,
      "##/fav/2019": 3502,
      "stopper": 3503,
      "(prime": 3504,
      "spares": 3505,
      "spirit": 3506,
      "spcc-sd": 3507,
      "soe/19": 3508,
      "closed": 3509,
      "liquid": 3510,
      "0.15g": 3511,
      "##-11bk03": 3512,
      "1-1/16": 3513,
      "1-1/8": 3514,
      "##/pc/pak": 3515,
      "trb-115": 3516,
      "clause": 3517,
      "automatic": 3518,
      "elastane": 3519,
      "72800446": 3520,
      "##/kbk-id/2019": 3521,
      "4+64": 3522,
      "455400": 3523,
      "brown": 3524,
      "dollar": 3525,
      "follow": 3526,
      "gental": 3527,
      "garments": 3528,
      "g.s.t.": 3529,
      "hgx-030": 3530,
      "potassium": 3531,
      "s/93": 3532,
      "sizes": 3533,
      "temperature": 3534,
      "waggeryd": 3535,
      "wipes": 3536,
      "x-ray": 3537,
      "##ol-two": 3538,
      "##oltaic": 3539,
      "organic": 3540,
      "photovoltaic": 3541,
      "##ithromycin": 3542,
      "excellent": 3543,
      "3021.00": 3544,
      "symbol-two": 3545,
      "discrep": 3546,
      "ahl-whm": 3547,
      "transparent": 3548,
      "(12": 3549,
      "(ea": 3550,
      "(pt": 3551,
      "(am": 3552,
      "(90": 3553,
      "(ad": 3554,
      "(220": 3555,
      "(dept": 3556,
      "+/": 3557,
      ".complete": 3558,
      "/pro": 3559,
      "014": 3560,
      "210": 3561,
      "222": 3562,
      "2ml": 3563,
      "220.00": 3564,
      "350": 3565,
      "330": 3566,
      "375": 3567,
      "327": 3568,
      "3400": 3569,
      "330.00": 3570,
      "368": 3571,
      "410": 3572,
      "4.20": 3573,
      "410.00": 3574,
      "550": 3575,
      "510": 3576,
      "525": 3577,
      "514": 3578,
      "54.00": 3579,
      "51.00": 3580,
      "6)": 3581,
      "6.00": 3582,
      "640": 3583,
      "6.0": 3584,
      "690": 3585,
      "650.00": 3586,
      "676": 3587,
      "640.00": 3588,
      "7.00": 3589,
      "7500": 3590,
      "73.": 3591,
      "73.00": 3592,
      "87": 3593,
      "80.00": 3594,
      "825": 3595,
      "8.0": 3596,
      "8.19": 3597,
      "82b": 3598,
      "8102": 3599,
      "900.00": 3600,
      "93.80": 3601,
      "94.70": 3602,
      "a/c": 3603,
      "a63": 3604,
      "bro": 3605,
      "bet": 3606,
      "berm": 3607,
      "dal": 3608,
      "dod": 3609,
      "dif": 3610,
      "duty": 3611,
      "eb": 3612,
      "fa": 3613,
      "fg": 3614,
      "fire": 3615,
      "fram": 3616,
      "ge": 3617,
      "g3": 3618,
      "gf": 3619,
      "gro": 3620,
      "germ": 3621,
      "hr": 3622,
      "h19": 3623,
      "hem": 3624,
      "h/c": 3625,
      "hom": 3626,
      "h.s.": 3627,
      "ih": 3628,
      "iu": 3629,
      "ig": 3630,
      "if": 3631,
      "image": 3632,
      "jl": 3633,
      "jsc": 3634,
      "km": 3635,
      "kor": 3636,
      "kod": 3637,
      "ls": 3638,
      "lip": 3639,
      "l/c": 3640,
      "loc": 3641,
      "mer": 3642,
      "more": 3643,
      "matter": 3644,
      "mef": 3645,
      "made": 3646,
      "mugh": 3647,
      "nt": 3648,
      "n-": 3649,
      "nim": 3650,
      "nick": 3651,
      "natural": 3652,
      "nylon": 3653,
      "o-r": 3654,
      "p1": 3655,
      "pd": 3656,
      "pol": 3657,
      "pef": 3658,
      "pvc": 3659,
      "pict": 3660,
      "p6006": 3661,
      "rw": 3662,
      "rel": 3663,
      "rack": 3664,
      "rib": 3665,
      "sr": 3666,
      "sty": 3667,
      "sim": 3668,
      "sel": 3669,
      "sod": 3670,
      "ta": 3671,
      "til": 3672,
      "tab": 3673,
      "t2.5": 3674,
      "ue": 3675,
      "uro": 3676,
      "u.m": 3677,
      "ve": 3678,
      "vpt": 3679,
      "wet": 3680,
      "west": 3681,
      "wrap": 3682,
      "ware": 3683,
      "will": 3684,
      "wise": 3685,
      "w/v": 3686,
      "work": 3687,
      "wsi": 3688,
      "xiam": 3689,
      "xingang": 3690,
      "yig": 3691,
      "y-z": 3692,
      "zt": 3693,
      "##212": 3694,
      "##1/2019": 3695,
      "##1/19": 3696,
      "##5-9": 3697,
      "##rm": 3698,
      "##rs": 3699,
      "##rn": 3700,
      "##read": 3701,
      "##ie": 3702,
      "##iator": 3703,
      "##m)": 3704,
      "##med": 3705,
      "##min": 3706,
      "##met": 3707,
      "##mersible": 3708,
      "##ae": 3709,
      "##xb": 3710,
      "##x7": 3711,
      "##x3": 3712,
      "##xon": 3713,
      "##x12": 3714,
      "##xif": 3715,
      "##ev": 3716,
      "##ept": 3717,
      "##eight": 3718,
      "##eering": 3719,
      "##sk": 3720,
      "##sw": 3721,
      "##sor": 3722,
      "##sist": 3723,
      "##s-01": 3724,
      "##sp-": 3725,
      "##sprint": 3726,
      "##tf": 3727,
      "##op-": 3728,
      "##ns": 3729,
      "##np": 3730,
      "##..": 3731,
      "##.9": 3732,
      "##.60": 3733,
      "##.92": 3734,
      "##401": 3735,
      "##4000": 3736,
      "##450": 3737,
      "##4/19": 3738,
      "##ht": 3739,
      "##hl": 3740,
      "##hp": 3741,
      "##h-": 3742,
      "##hk": 3743,
      "##hc": 3744,
      "##hz": 3745,
      "##hw": 3746,
      "##hen": 3747,
      "##las": 3748,
      "##lad": 3749,
      "##l/b": 3750,
      "##/000": 3751,
      "##/us": 3752,
      "##/am": 3753,
      "##/75": 3754,
      "##/26": 3755,
      "##/dept": 3756,
      "##ped": 3757,
      "##pst": 3758,
      "##pin": 3759,
      "##pack": 3760,
      "##9.": 3761,
      "##-7": 3762,
      "##-ac": 3763,
      "##-um": 3764,
      "##-15": 3765,
      "##-35": 3766,
      "##-22": 3767,
      "##-28": 3768,
      "##-26": 3769,
      "##-27": 3770,
      "##-86": 3771,
      "##-rev": 3772,
      "##bp": 3773,
      "##bin": 3774,
      "##bb)": 3775,
      "##bleached": 3776,
      "##bury": 3777,
      "##ke": 3778,
      "##ks": 3779,
      "##kn": 3780,
      "##k/": 3781,
      "##kp": 3782,
      "##kk": 3783,
      "##ket": 3784,
      "##khd": 3785,
      "##kok": 3786,
      "##8ac": 3787,
      "##8000": 3788,
      "##7.": 3789,
      "##7/2019": 3790,
      "##715": 3791,
      "##culated": 3792,
      "##uding": 3793,
      "##uish": 3794,
      "##uah": 3795,
      "##gro": 3796,
      "##grade": 3797,
      "##gc/2019-20": 3798,
      "##3c": 3799,
      "##319": 3800,
      "##301": 3801,
      "##350": 3802,
      "##300.00": 3803,
      "##3khd": 3804,
      "##f's": 3805,
      "##611": 3806,
      "##640": 3807,
      "##613": 3808,
      "##zor": 3809,
      "##dd": 3810,
      "##dam": 3811,
      "##y/": 3812,
      "##ypt": 3813,
      "##vey": 3814,
      "##ware": 3815,
      "##js": 3816,
      "##just": 3817,
      "##(t": 3818,
      "##(b)": 3819,
      "##(a)": 3820,
      "##erance": 3821,
      "##00952": 3822,
      "##arma": 3823,
      "##icle": 3824,
      "##icam": 3825,
      "##att": 3826,
      "##2014": 3827,
      "##20/rbdoln11": 3828,
      "##20xc": 3829,
      "##195": 3830,
      "##194": 3831,
      "##199": 3832,
      "##196": 3833,
      "##19/1": 3834,
      "##eno": 3835,
      "##enamic": 3836,
      "##anical": 3837,
      "##acial": 3838,
      "inject": 3839,
      "index": 3840,
      "inbu": 3841,
      "##ones": 3842,
      "no8ac": 3843,
      "atlas": 3844,
      "no.19": 3845,
      "as/19": 3846,
      "##str": 3847,
      "##stic": 3848,
      "##stan": 3849,
      "##ina": 3850,
      "##inder": 3851,
      "##indles": 3852,
      "usd1.": 3853,
      "##2019112": 3854,
      "pass": 3855,
      "##aled": 3856,
      "##alpur": 3857,
      "beneficiarys": 3858,
      "beneficiary.": 3859,
      "##istor": 3860,
      "##isted": 3861,
      "##max": 3862,
      "##121": 3863,
      "off": 3864,
      "##ets": 3865,
      "##itor": 3866,
      "##ities": 3867,
      "##-2019120": 3868,
      "copolymer": 3869,
      "coke": 3870,
      "##017": 3871,
      "##ilk": 3872,
      "##imal": 3873,
      "##11)": 3874,
      "seaportpakistan": 3875,
      "##oline": 3876,
      "kgs(+/-": 3877,
      "##0002": 3878,
      "##plant": 3879,
      "##plast": 3880,
      "##urs": 3881,
      "##urities": 3882,
      "condu": 3883,
      "consist": 3884,
      "convey": 3885,
      "##10a": 3886,
      "##tri": 3887,
      "##actam": 3888,
      "station": 3889,
      "stick": 3890,
      "steering": 3891,
      "##obal": 3892,
      "204": 3893,
      "orang": 3894,
      "orient": 3895,
      "##ulic": 3896,
      "##ulose": 3897,
      "105.00": 3898,
      "10.01.2020": 3899,
      "1040.00": 3900,
      "10mm)": 3901,
      "1030.00": 3902,
      "1012.00": 3903,
      "1.8": 3904,
      "1.3": 3905,
      "1.6": 3906,
      "1.90": 3907,
      "1.85": 3908,
      "1.95": 3909,
      "124": 3910,
      "12-12-2019": 3911,
      "12-11-2019": 3912,
      "12-11-2019.": 3913,
      "##leece": 3914,
      "##ission": 3915,
      "##chlor": 3916,
      "##usd": 3917,
      "195": 3918,
      "19r": 3919,
      "19.11.2019": 3920,
      "19-11-2019.": 3921,
      "19300": 3922,
      "191203": 3923,
      "alk": 3924,
      "##agno": 3925,
      "0.50": 3926,
      "0.40": 3927,
      "0.88": 3928,
      "0.49": 3929,
      "0.86": 3930,
      "chf": 3931,
      "##iger": 3932,
      "razor": 3933,
      "##40mm": 3934,
      "1750": 3935,
      "1758": 3936,
      "##thers": 3937,
      "phase": 3938,
      "11.12.19": 3939,
      "111901": 3940,
      "2.20": 3941,
      "2.10": 3942,
      "2.40": 3943,
      "2.70": 3944,
      "2.8/": 3945,
      "160": 3946,
      "160.00": 3947,
      "164.00": 3948,
      "16-09-2019": 3949,
      "ace": 3950,
      "acet": 3951,
      "acetic": 3952,
      "25-12-2019": 3953,
      "25-11-2019": 3954,
      "25.11.2019": 3955,
      "##idazole": 3956,
      "##/14": 3957,
      "##/13": 3958,
      "24-12-2019.": 3959,
      "gram": 3960,
      "grain": 3961,
      "(pack": 3962,
      "##ctro": 3963,
      "##ction": 3964,
      "purity": 3965,
      "##2002": 3966,
      "133": 3967,
      "136": 3968,
      "13.00": 3969,
      "13000": 3970,
      "130.00": 3971,
      "13.12.2019": 3972,
      "13.01.20": 3973,
      "13-09-2019.": 3974,
      "1-3": 3975,
      "145": 3976,
      "14.00": 3977,
      "metron": 3978,
      "metamino": 3979,
      "plate": 3980,
      "##/19/0": 3981,
      "##/19/10": 3982,
      "15.": 3983,
      "applian": 3984,
      "##code": 3985,
      "##cover": 3986,
      "##pers": 3987,
      "##perse": 3988,
      "##-1908": 3989,
      "spind": 3990,
      "m.tons)": 3991,
      "##453": 3992,
      "189": 3993,
      "1800": 3994,
      "18.11.2019": 3995,
      "500p": 3996,
      "##154": 3997,
      "28.12.2019": 3998,
      "288.00": 3999,
      "2600": 4000,
      "ship": 4001,
      "shall": 4002,
      "shock": 4003,
      "shiel": 4004,
      "##cies": 4005,
      "##188": 4006,
      "##1801": 4007,
      "para": 4008,
      "parameter": 4009,
      "recover": 4010,
      "##35b": 4011,
      "23.11.19": 4012,
      "##.0mmx": 4013,
      "303": 4014,
      "30.11.19": 4015,
      "##/sc": 4016,
      "##cluding": 4017,
      "shell": 4018,
      "##229": 4019,
      "##14.00": 4020,
      "##riaz": 4021,
      "##-december-2019": 4022,
      "##9020": 4023,
      "mining": 4024,
      "01.01.20": 4025,
      "##659": 4026,
      "05-01-2020": 4027,
      "05/12/2019": 4028,
      "##.5835": 4029,
      "##236": 4030,
      "2019/20": 4031,
      "2019/2020": 4032,
      "29-11-2019": 4033,
      "297.00": 4034,
      "29005": 4035,
      "##1301": 4036,
      "bles": 4037,
      "bluish": 4038,
      "02-01-2020.": 4039,
      "##apse": 4040,
      "2250": 4041,
      "22-11-2019.": 4042,
      "22.2": 4043,
      "adjust": 4044,
      "cheese": 4045,
      "check": 4046,
      "##export": 4047,
      "specifi": 4048,
      "##462": 4049,
      "moham": 4050,
      "moxif": 4051,
      "27.0": 4052,
      "27.11.2019": 4053,
      "##267": 4054,
      "50%": 4055,
      "08.12.19": 4056,
      "08.01.2020": 4057,
      "08/01/2020": 4058,
      "##phis": 4059,
      "therm": 4060,
      "thread": 4061,
      "max.": 4062,
      "##/12-19": 4063,
      "##/122000": 4064,
      "##/cgc/2019-20": 4065,
      "##/011": 4066,
      "##/0120/rbdoln11": 4067,
      "9943": 4068,
      "99.7": 4069,
      "##168": 4070,
      "04.11.2019": 4071,
      "only": 4072,
      "oncol": 4073,
      "##299": 4074,
      "iso": 4075,
      "2014": 4076,
      "##471": 4077,
      "##36.00": 4078,
      "##/003": 4079,
      "##p-35b": 4080,
      "##-002": 4081,
      "##ixime": 4082,
      "##omer": 4083,
      "dye": 4084,
      "##21x": 4085,
      "##191224": 4086,
      "##-sc": 4087,
      "##-sera": 4088,
      "21.11.19": 4089,
      "4.60": 4090,
      "##coterm": 4091,
      "respect": 4092,
      "##ocoll": 4093,
      "eucal": 4094,
      "tran": 4095,
      "009": 4096,
      "dtm": 4097,
      "##-pro": 4098,
      "##798": 4099,
      "(gel)": 4100,
      "(gloss)": 4101,
      "eurostar": 4102,
      "60s": 4103,
      "##2.8": 4104,
      "products)": 4105,
      "shanghai/n": 4106,
      "##/huah": 4107,
      "##-avt": 4108,
      "40/1": 4109,
      "disp": 4110,
      "disco": 4111,
      "dispos": 4112,
      "brightland": 4113,
      "strict": 4114,
      "##191120": 4115,
      "solut": 4116,
      "glacial": 4117,
      "##/january-20": 4118,
      "inclusive": 4119,
      "condom": 4120,
      "condenser": 4121,
      "##-cr": 4122,
      "##3901": 4123,
      "melamine": 4124,
      "abm": 4125,
      "absor": 4126,
      "##-fc": 4127,
      "##-fcl": 4128,
      "##125f": 4129,
      "(waste": 4130,
      "basf": 4131,
      "package": 4132,
      "synapse": 4133,
      "power)": 4134,
      "prem": 4135,
      "insulator": 4136,
      "ins/122000": 4137,
      "generas": 4138,
      "generator": 4139,
      "flanel": 4140,
      "##/3112": 4141,
      "##brid": 4142,
      "systems": 4143,
      "diameter": 4144,
      "diagno": 4145,
      "gran": 4146,
      "grease": 4147,
      "silver": 4148,
      "subst": 4149,
      "submersible": 4150,
      "##2bs": 4151,
      "##200107": 4152,
      "(mic": 4153,
      "(matt)": 4154,
      "tax)": 4155,
      "newsprint": 4156,
      "carbonless": 4157,
      "98.5": 4158,
      "green": 4159,
      "safe": 4160,
      "x652": 4161,
      "x653c": 4162,
      "##191204": 4163,
      "##191209": 4164,
      "transplant": 4165,
      "1010": 4166,
      "##epur": 4167,
      "##/10/2019": 4168,
      "addit": 4169,
      "monoethylene": 4170,
      "hp08": 4171,
      "pulp-": 4172,
      "(chem": 4173,
      "(dry": 4174,
      "cefixime": 4175,
      "##nox": 4176,
      "decimal": 4177,
      "cartons": 4178,
      "22046": 4179,
      "cav": 4180,
      "cause": 4181,
      "hardgro": 4182,
      "same": 4183,
      "sample": 4184,
      "##gsm.": 4185,
      "200848": 4186,
      "##/pi/19-20": 4187,
      "lotrene": 4188,
      "compress": 4189,
      "endo": 4190,
      "74.25": 4191,
      "methanol": 4192,
      "finish)": 4193,
      "##ength)": 4194,
      "japan": 4195,
      "vin/5": 4196,
      "76.50": 4197,
      "##ne/": 4198,
      "##nealed": 4199,
      "electrical": 4200,
      "48gsm.": 4201,
      "arauco": 4202,
      "backup": 4203,
      "cfb": 4204,
      "gcea": 4205,
      "gasoil": 4206,
      "##-850": 4207,
      "25.4mmx2": 4208,
      "na/1910": 4209,
      "malaysian": 4210,
      "730mm": 4211,
      "ed-g": 4212,
      "ferro": 4213,
      "feroz": 4214,
      "further": 4215,
      "svpst": 4216,
      "tolerance": 4217,
      "##.a01": 4218,
      "##utyl": 4219,
      "anti-sera": 4220,
      "la880tr": 4221,
      "metalized": 4222,
      "rev1": 4223,
      "99.85": 4224,
      "##ock)": 4225,
      "surgery/": 4226,
      "gaipl/s/0120/rbdoln11": 4227,
      "77.55": 4228,
      "dl-methionine": 4229,
      "hours": 4230,
      "hybrid": 4231,
      "s.b": 4232,
      "sbr/dept": 4233,
      "trading": 4234,
      "##119.5835": 4235,
      "##oxy": 4236,
      "##kmoff": 4237,
      "##ferent": 4238,
      "2018/19": 4239,
      "790005454": 4240,
      "lovibond)": 4241,
      "sy-api-10": 4242,
      "azithromycin": 4243,
      "cb125f": 4244,
      "dcmm": 4245,
      "impurities": 4246,
      "manganese": 4247,
      "##/786": 4248,
      "infusion": 4249,
      "copco": 4250,
      "radiator": 4251,
      "100000.00(+/-": 4252,
      "discharge)": 4253,
      "34710": 4254,
      "buyer": 4255,
      "bangkok": 4256,
      "effect": 4257,
      "gyne/": 4258,
      "luban": 4259,
      "semi": 4260,
      "s/sdl/1912/rpol": 4261,
      "urethane": 4262,
      "yl330": 4263,
      "##a021x": 4264,
      "##acetam": 4265,
      "##stalline": 4266,
      "kg(40": 4267,
      "##logy/": 4268,
      "##-015b": 4269,
      "bppl/p-inv/12-19": 4270,
      "8517.62": 4271,
      "(stock)": 4272,
      "317.00": 4273,
      "479.00": 4274,
      "fd0374": 4275,
      "first": 4276,
      "filler": 4277,
      "factory": 4278,
      "ginned": 4279,
      "golden": 4280,
      "lx191120": 4281,
      "memphis": 4282,
      "name": 4283,
      "russian": 4284,
      "s1911028": 4285,
      "upl-20": 4286,
      "volatile": 4287,
      "##s-coc": 4288,
      "##nov.2019": 4289,
      "##hicles": 4290,
      "##bbi": 4291,
      "##ces/": 4292,
      "##(r)": 4293,
      "##(length)": 4294,
      "ingots": 4295,
      "karachi-pakistan.": 4296,
      "anhydrous": 4297,
      "unwaxed": 4298,
      "acrylic": 4299,
      "141613": 4300,
      "extrusion": 4301,
      "shenzhen": 4302,
      "refriger": 4303,
      "adhesive": 4304,
      "bearing": 4305,
      "second": 4306,
      "certified": 4307,
      "agencies": 4308,
      "ahtl/chem": 4309,
      "controller": 4310,
      "(prime)": 4311,
      "45540035": 4312,
      "dollars": 4313,
      "discrepant": 4314,
      "ahl-whm-019": 4315,
      "(12bb)": 4316,
      "(ea3khd": 4317,
      "(pta)": 4318,
      "(american": 4319,
      "(adb)": 4320,
      "(depth": 4321,
      "/proforma": 4322,
      "82b-cr": 4323,
      "810285": 4324,
      "a63119.5835": 4325,
      "bermocoll": 4326,
      "different": 4327,
      "frame": 4328,
      "germany": 4329,
      "h19sw": 4330,
      "h.s.code": 4331,
      "jlp": 4332,
      "korea": 4333,
      "lipsol": 4334,
      "mefenamic": 4335,
      "mughalpur": 4336,
      "o-ring": 4337,
      "pefc": 4338,
      "self": 4339,
      "tabs": 4340,
      "ue-90": 4341,
      "urology/": 4342,
      "u.m.": 4343,
      "vehicles": 4344,
      "westbury": 4345,
      "xiamen": 4346,
      "yigli": 4347,
      "##x1220xc": 4348,
      "##s-01mk": 4349,
      "##ladesh": 4350,
      "##pin200": 4351,
      "##-um-2019": 4352,
      "##611tpcr": 4353,
      "##yptus": 4354,
      "inbuilt": 4355,
      "no8aca021x": 4356,
      "usd1.320": 4357,
      "conveyor": 4358,
      "sticker": 4359,
      "orange": 4360,
      "oriented": 4361,
      "##chloride": 4362,
      "191203/pak/sec/rye": 4363,
      "2.8/2.8": 4364,
      "metronidazole": 4365,
      "appliances/": 4366,
      "spindle": 4367,
      "specified": 4368,
      "mohammad": 4369,
      "moxifloxacin": 4370,
      "oncology": 4371,
      "respectiv": 4372,
      "eucalyptus": 4373,
      "shanghai/ningbo": 4374,
      "##/huahong": 4375,
      "absorber": 4376,
      "diagnostic": 4377,
      "transplanter": 4378,
      "causeway": 4379,
      "hardgrove": 4380,
      "25.4mmx2.0mmx": 4381,
      "ferozepur": 4382,
      "svpst/pi/19-20": 4383,
      "sbr/dept.c": 4384,
      "s/sdl/1912/rpol18": 4385,
      "yl330p-35b": 4386,
      "##s-coc-00": 4387,
      "(ea3khd)": 4388,
      "a63119.58359": 4389,
      "mughalpura": 4390,
      "'a": 4391,
      "(k": 4392,
      "(ac": 4393,
      "(us": 4394,
      "(cl": 4395,
      "(fe": 4396,
      "(bl": 4397,
      "(comp": 4398,
      "(+/-10": 4399,
      "(revised)": 4400,
      "(11)": 4401,
      "-2019": 4402,
      "/123": 4403,
      "/1238": 4404,
      "0o": 4405,
      "0y": 4406,
      "0000": 4407,
      "095": 4408,
      "1/": 4409,
      "140": 4410,
      "1ml": 4411,
      "2t": 4412,
      "230": 4413,
      "280": 4414,
      "225": 4415,
      "218": 4416,
      "275.00": 4417,
      "310": 4418,
      "340": 4419,
      "3.20": 4420,
      "315": 4421,
      "395": 4422,
      "3.10": 4423,
      "380.00": 4424,
      "36.00": 4425,
      "34.00": 4426,
      "41": 4427,
      "47": 4428,
      "4000.00": 4429,
      "450.00": 4430,
      "42.00": 4431,
      "59": 4432,
      "520": 4433,
      "580": 4434,
      "545": 4435,
      "518": 4436,
      "522": 4437,
      "5.5": 4438,
      "588": 4439,
      "593": 4440,
      "535.00": 4441,
      "519.00": 4442,
      "60.00": 4443,
      "6.50": 4444,
      "660": 4445,
      "63.": 4446,
      "66.00": 4447,
      "690.00": 4448,
      "645.00": 4449,
      "71": 4450,
      "7)": 4451,
      "7000": 4452,
      "760": 4453,
      "750.00": 4454,
      "765": 4455,
      "758": 4456,
      "735.00": 4457,
      "772": 4458,
      "82": 4459,
      "8)": 4460,
      "8.": 4461,
      "838": 4462,
      "84.": 4463,
      "8500": 4464,
      "8400": 4465,
      "82.00": 4466,
      "815.00": 4467,
      "9.00": 4468,
      "90.00": 4469,
      "930": 4470,
      "9/1": 4471,
      "9100": 4472,
      "940.00": 4473,
      "910.00": 4474,
      "aal": 4475,
      "aid": 4476,
      "ba": 4477,
      "bd": 4478,
      "bob": 4479,
      "band": 4480,
      "bci": 4481,
      "bio": 4482,
      "brom": 4483,
      "bank": 4484,
      "ci": 4485,
      "c.": 4486,
      "can": 4487,
      "cyl": 4488,
      "cab": 4489,
      "case": 4490,
      "ci-": 4491,
      "du": 4492,
      "dj": 4493,
      "dial": 4494,
      "drop": 4495,
      "doc": 4496,
      "dell": 4497,
      "dust": 4498,
      "dop": 4499,
      "es": 4500,
      "eco": 4501,
      "esc": 4502,
      "e1b": 4503,
      "fn": 4504,
      "f0": 4505,
      "fit": 4506,
      "face": 4507,
      "fcl": 4508,
      "flex": 4509,
      "fuel": 4510,
      "flav": 4511,
      "f212": 4512,
      "fleece": 4513,
      "gm": 4514,
      "gear": 4515,
      "g-e": 4516,
      "gbp": 4517,
      "har": 4518,
      "hma": 4519,
      "hil": 4520,
      "h-3": 4521,
      "h-6": 4522,
      "hsd": 4523,
      "io": 4524,
      "ib": 4525,
      "id": 4526,
      "ice": 4527,
      "jis": 4528,
      "jsd": 4529,
      "ke": 4530,
      "ks": 4531,
      "kn": 4532,
      "kl": 4533,
      "ky": 4534,
      "kore": 4535,
      "lk": 4536,
      "lor": 4537,
      "lea": 4538,
      "l500": 4539,
      "long": 4540,
      "l-p": 4541,
      "lup": 4542,
      "lug": 4543,
      "listed": 4544,
      "my": 4545,
      "mat": 4546,
      "mers": 4547,
      "must": 4548,
      "merg": 4549,
      "mrc": 4550,
      "milk": 4551,
      "nl": 4552,
      "n0": 4553,
      "nit": 4554,
      "nether": 4555,
      "os": 4556,
      "oc": 4557,
      "opt": 4558,
      "oper": 4559,
      "oile": 4560,
      "old": 4561,
      "por": 4562,
      "pen": 4563,
      "pac": 4564,
      "ple": 4565,
      "pib": 4566,
      "pesh": 4567,
      "p715": 4568,
      "rn": 4569,
      "rb": 4570,
      "ry": 4571,
      "rpl": 4572,
      "roc": 4573,
      "read": 4574,
      "sf": 4575,
      "sor": 4576,
      "sar": 4577,
      "s12": 4578,
      "ston": 4579,
      "spl": 4580,
      "squ": 4581,
      "sell": 4582,
      "s123": 4583,
      "ti": 4584,
      "t/": 4585,
      "tu": 4586,
      "tcl": 4587,
      "tire": 4588,
      "t-80": 4589,
      "taz": 4590,
      "trade": 4591,
      "ucf": 4592,
      "vx": 4593,
      "vac": 4594,
      "vit": 4595,
      "wx": 4596,
      "wn": 4597,
      "wp": 4598,
      "wc": 4599,
      "wq": 4600,
      "was": 4601,
      "wis": 4602,
      "watt": 4603,
      "xl": 4604,
      "x1912": 4605,
      "yar": 4606,
      "##2k": 4607,
      "##219": 4608,
      "##250.00": 4609,
      "##249": 4610,
      "##1.50": 4611,
      "##501": 4612,
      "##515": 4613,
      "##535": 4614,
      "##rl": 4615,
      "##rp": 4616,
      "##ran": 4617,
      "##rin": 4618,
      "##ration": 4619,
      "##rine": 4620,
      "##rint": 4621,
      "##ritol": 4622,
      "##i)": 4623,
      "##ik": 4624,
      "##iet": 4625,
      "##iang": 4626,
      "##m91": 4627,
      "##m/6": 4628,
      "##aa": 4629,
      "##a.": 4630,
      "##a01": 4631,
      "##a1912": 4632,
      "##a-r": 4633,
      "##x20": 4634,
      "##x38": 4635,
      "##e19": 4636,
      "##eated": 4637,
      "##eet": 4638,
      "##eans": 4639,
      "##e04": 4640,
      "##even": 4641,
      "##son": 4642,
      "##sine": 4643,
      "##scop": 4644,
      "##tc": 4645,
      "##tj": 4646,
      "##tis": 4647,
      "##t/2019-20": 4648,
      "##tens": 4649,
      "##oate": 4650,
      "##n0": 4651,
      "##nd": 4652,
      "##nan": 4653,
      "##nes": 4654,
      "##nace": 4655,
      "##).": 4656,
      "##)/2018": 4657,
      "##.r": 4658,
      "##.p": 4659,
      "##.6": 4660,
      "##.28": 4661,
      "##.32": 4662,
      "##.96": 4663,
      "##.49": 4664,
      "##.89": 4665,
      "##.oct": 4666,
      "##.nov.2019": 4667,
      "##420": 4668,
      "##410": 4669,
      "##475": 4670,
      "##445": 4671,
      "##hb": 4672,
      "##hpt": 4673,
      "##hpk19": 4674,
      "##house": 4675,
      "##lob": 4676,
      "##/ea": 4677,
      "##/50": 4678,
      "##/ib": 4679,
      "##/23": 4680,
      "##/fe": 4681,
      "##/44": 4682,
      "##/ldpe": 4683,
      "##/ass": 4684,
      "##//pak/sec/rye": 4685,
      "##/36f": 4686,
      "##/export": 4687,
      "##pb": 4688,
      "##p00": 4689,
      "##pal": 4690,
      "##012": 4691,
      "##025": 4692,
      "##9000": 4693,
      "##9120": 4694,
      "##-i": 4695,
      "##-75": 4696,
      "##-45": 4697,
      "##-ph": 4698,
      "##-76": 4699,
      "##-53": 4700,
      "##-br": 4701,
      "##-ii": 4702,
      "##b00": 4703,
      "##ban": 4704,
      "##block": 4705,
      "##batch": 4706,
      "##ka": 4707,
      "##k3": 4708,
      "##kv": 4709,
      "##ker": 4710,
      "##8/2019": 4711,
      "##895": 4712,
      "##701": 4713,
      "##750": 4714,
      "##760": 4715,
      "##732": 4716,
      "##739": 4717,
      "##7/17": 4718,
      "##c3": 4719,
      "##cer": 4720,
      "##c00": 4721,
      "##con": 4722,
      "##cing": 4723,
      "##cine": 4724,
      "##c1911": 4725,
      "##c5-9": 4726,
      "##uh-": 4727,
      "##gz": 4728,
      "##gin": 4729,
      "##gest": 4730,
      "##g125": 4731,
      "##gs-coc-00": 4732,
      "##318": 4733,
      "##314": 4734,
      "##385": 4735,
      "##3-25": 4736,
      "##f)": 4737,
      "##far": 4738,
      "##6r": 4739,
      "##6)": 4740,
      "##610": 4741,
      "##6/2019": 4742,
      "##642": 4743,
      "##za": 4744,
      "##zd": 4745,
      "##zar": 4746,
      "##dom": 4747,
      "##d/sc": 4748,
      "##yj": 4749,
      "##yro": 4750,
      "##ylo": 4751,
      "##vo": 4752,
      "##val": 4753,
      "##vir": 4754,
      "##v/2019-20": 4755,
      "##v-a": 4756,
      "##work": 4757,
      "##jz": 4758,
      "##jhpk": 4759,
      "##jiang": 4760,
      "##(g": 4761,
      "##+2": 4762,
      "##ered": 4763,
      "##eral": 4764,
      "##00x": 4765,
      "##009": 4766,
      "##00000": 4767,
      "##orvastatin": 4768,
      "##arter": 4769,
      "##ario": 4770,
      "##arbon": 4771,
      "##ico": 4772,
      "##ication": 4773,
      "##at)": 4774,
      "##atl": 4775,
      "##206": 4776,
      "##2018": 4777,
      "##2055": 4778,
      "##2023j": 4779,
      "##eda": 4780,
      "##ediol": 4781,
      "##ener": 4782,
      "##ency": 4783,
      "##anufactur": 4784,
      "##anediol": 4785,
      "##acqu": 4786,
      "##aclor": 4787,
      "##acitor": 4788,
      "instr": 4789,
      "incoterm": 4790,
      "##ont": 4791,
      "##onide": 4792,
      "##ated.": 4793,
      "atorvastatin": 4794,
      "no.1238": 4795,
      "no.wc": 4796,
      "##orthy": 4797,
      "ask/": 4798,
      "usa": 4799,
      "used": 4800,
      "usa19": 4801,
      "##room": 4802,
      "##iness": 4803,
      "##inted": 4804,
      "##20190": 4805,
      "##201910": 4806,
      "##2019-rev": 4807,
      "##als": 4808,
      "##alate": 4809,
      "benef's": 4810,
      "beneficiery": 4811,
      "##ister": 4812,
      "karachi-": 4813,
      "##122": 4814,
      "##122019": 4815,
      "##1212": 4816,
      "invoice/": 4817,
      "##etir": 4818,
      "##etch": 4819,
      "##east": 4820,
      "##es)": 4821,
      "##hel": 4822,
      "##hest": 4823,
      "mtons": 4824,
      "##itom": 4825,
      "port(s)": 4826,
      "antis": 4827,
      "##asl": 4828,
      "##asound": 4829,
      "##-201912": 4830,
      "co.": 4831,
      "col": 4832,
      "coun": 4833,
      "copy": 4834,
      "cocon": 4835,
      "##014": 4836,
      "##018": 4837,
      "##016": 4838,
      "##0131": 4839,
      "##ility": 4840,
      "##ilized)": 4841,
      "##il/26": 4842,
      "##imin": 4843,
      "##112019": 4844,
      "##pl19/1": 4845,
      "##ely": 4846,
      "##oto": 4847,
      "##urance": 4848,
      "##.1200": 4849,
      "##treated": 4850,
      "##trasound": 4851,
      "##irab": 4852,
      "##-201": 4853,
      "stated": 4854,
      "stamp": 4855,
      "starter": 4856,
      "##raulic": 4857,
      "##-125": 4858,
      "compl": 4859,
      "uniso": 4860,
      "uneven": 4861,
      "untreated": 4862,
      "20-12-2019": 4863,
      "20''": 4864,
      "20-11-2019.": 4865,
      "20-f": 4866,
      "form": 4867,
      "orth": 4868,
      "detal": 4869,
      "detect": 4870,
      "##ula": 4871,
      "##ule": 4872,
      "##ult": 4873,
      "##ull": 4874,
      "##ults": 4875,
      "106": 4876,
      "1050": 4877,
      "104.": 4878,
      "10500": 4879,
      "10-01-2020.": 4880,
      "1.40": 4881,
      "1.75": 4882,
      "1.38": 4883,
      "1.32": 4884,
      "1.43": 4885,
      "1.55": 4886,
      "1.67": 4887,
      "12.11.19": 4888,
      "1267.": 4889,
      "##/2019/12": 4890,
      "##ations": 4891,
      "##ales/export": 4892,
      "pcs/": 4893,
      "##loc": 4894,
      "##isol": 4895,
      "##reg": 4896,
      "##rees": 4897,
      "indones": 4898,
      "##ush": 4899,
      "19.": 4900,
      "19b": 4901,
      "19200": 4902,
      "19-dec-2019.": 4903,
      "191126": 4904,
      "la611tpcr": 4905,
      "##-01/2019": 4906,
      "polymer": 4907,
      "polypro": 4908,
      "polyster": 4909,
      "##uts": 4910,
      "##uting": 4911,
      "##ial)": 4912,
      "##ylac": 4913,
      "##ylla": 4914,
      "ali": 4915,
      "alath": 4916,
      "al-re": 4917,
      "alriaz": 4918,
      "##agement": 4919,
      "0.3": 4920,
      "0.70": 4921,
      "0.90": 4922,
      "0.85": 4923,
      "0.36": 4924,
      "0.33": 4925,
      "##ign": 4926,
      "10000.00": 4927,
      "1000000": 4928,
      "##4075": 4929,
      "17000": 4930,
      "17-12-2019.": 4931,
      "17.10.2019": 4932,
      "17-09-2019.": 4933,
      "##thritol": 4934,
      "##-110": 4935,
      "##-1119": 4936,
      "pharm": 4937,
      "phenol": 4938,
      "phosphate": 4939,
      "11.00": 4940,
      "11-11-2019": 4941,
      "11-01-2020": 4942,
      "11.11.19": 4943,
      "11-11-2019.": 4944,
      "2.50": 4945,
      "2.80": 4946,
      "2.13": 4947,
      "2.48": 4948,
      "2.83": 4949,
      "2.08": 4950,
      "2.05": 4951,
      "##308": 4952,
      "##808": 4953,
      "##806": 4954,
      "16.50": 4955,
      "16-jan-2020": 4956,
      "162.00": 4957,
      "257": 4958,
      "2500.00": 4959,
      "25-nov-2019": 4960,
      "##idgest": 4961,
      "##tern": 4962,
      "##termingled": 4963,
      "##terdam": 4964,
      "apb": 4965,
      "##/162": 4966,
      "24b": 4967,
      "24g": 4968,
      "246": 4969,
      "24.00": 4970,
      "24-dec-2019": 4971,
      "24mt": 4972,
      "247.50": 4973,
      "24-oct-2019": 4974,
      "24-06": 4975,
      "mts(+/-": 4976,
      "##.2020": 4977,
      "(pict)": 4978,
      "##ab)": 4979,
      "##aben": 4980,
      "##ability": 4981,
      "##251": 4982,
      "##254": 4983,
      "##258": 4984,
      "##mmun": 4985,
      "##200l": 4986,
      "##2009": 4987,
      "##2003": 4988,
      "139": 4989,
      "13.10": 4990,
      "13-01-2020.": 4991,
      "132000": 4992,
      "grade.": 4993,
      "##aments": 4994,
      "lb.": 4995,
      "141": 4996,
      "1440": 4997,
      "14.12.2019": 4998,
      "14.11.19": 4999,
      "14-jan-2020": 5000,
      "plat": 5001,
      "##/19/12": 5002,
      "##/19/huahong": 5003,
      "15.12.2019": 5004,
      "15000.00": 5005,
      "15-11-2019.": 5006,
      "##757": 5007,
      "exp": 5008,
      "exxon": 5009,
      "extens": 5010,
      "##-19120": 5011,
      "##-191203": 5012,
      "space": 5013,
      "##607": 5014,
      "##457": 5015,
      "1840": 5016,
      "18-11-2019.": 5017,
      "##axone": 5018,
      "500000": 5019,
      "##155": 5020,
      "cotton)": 5021,
      "28.10.2019": 5022,
      "266": 5023,
      "260.00": 5024,
      "26-dec-2019": 5025,
      "26-nov-2019": 5026,
      "26-november-2019": 5027,
      "##185": 5028,
      "##18(t)": 5029,
      "200000": 5030,
      "paraf": 5031,
      "rece": 5032,
      "2300": 5033,
      "23.00": 5034,
      "23-11-2019": 5035,
      "23-12-2019.": 5036,
      "23.11.2019": 5037,
      "23.52": 5038,
      "##.02": 5039,
      "##.05": 5040,
      "30-12-2019": 5041,
      "30-11-2019": 5042,
      "30''": 5043,
      "30.40": 5044,
      "##/sgs-coc-00": 5045,
      "##/sales/export": 5046,
      "##223": 5047,
      "##22kmoff": 5048,
      "##147": 5049,
      "##ride": 5050,
      "##-dec-19": 5051,
      "spec)": 5052,
      "special": 5053,
      "sc201912": 5054,
      "eur8": 5055,
      "01-11-2019": 5056,
      "01-01-2020.": 5057,
      "01-03": 5058,
      "05.01.20": 5059,
      "05/0": 5060,
      "05-dec-2019.": 5061,
      "piper": 5062,
      "pi/g": 5063,
      "##.56": 5064,
      "##2300": 5065,
      "##2332": 5066,
      "##centre": 5067,
      "(100": 5068,
      "(10000": 5069,
      "comput": 5070,
      "295.00": 5071,
      "29-nov-2019": 5072,
      "29-10-2019": 5073,
      "##171": 5074,
      "##179": 5075,
      "##137": 5076,
      "##13.00": 5077,
      "##132-e": 5078,
      "##olla": 5079,
      "##853": 5080,
      "limits": 5081,
      "226": 5082,
      "22.00": 5083,
      "22000.00": 5084,
      "22-nov-2019.": 5085,
      "bridgest": 5086,
      "06-dec-2019": 5087,
      "##ube": 5088,
      "ne21": 5089,
      "##281": 5090,
      "##289": 5091,
      "##28(t)": 5092,
      "##46.29": 5093,
      "moder": 5094,
      "09-01-2020": 5095,
      "27.12.2019": 5096,
      "27-12-2019.": 5097,
      "##264": 5098,
      "506": 5099,
      "505.00": 5100,
      "50kg": 5101,
      "50-55": 5102,
      "50hz": 5103,
      "08.11.2019": 5104,
      "08-jan-2020": 5105,
      "##-103": 5106,
      "chemcentre": 5107,
      "##/02": 5108,
      "that": 5109,
      "three": 5110,
      "##lysine": 5111,
      "##anger": 5112,
      "##/cust": 5113,
      "##/01/20": 5114,
      "04-12-2019.": 5115,
      "##ia)": 5116,
      "##1006": 5117,
      "##aster": 5118,
      "3.80": 5119,
      "3.60": 5120,
      "3.15": 5121,
      "3.85": 5122,
      "3.88": 5123,
      "dew": 5124,
      "##48/2019": 5125,
      "##4880": 5126,
      "07.11.2019": 5127,
      "07-11-2019.": 5128,
      "07-01-2020.": 5129,
      "##-nf": 5130,
      "lbs.": 5131,
      "##279": 5132,
      "##/005": 5133,
      "##/004": 5134,
      "##/006": 5135,
      "##p-ga": 5136,
      "cart": 5137,
      "cargo": 5138,
      "##880.00": 5139,
      "module": 5140,
      "##767": 5141,
      "##ives": 5142,
      "machine-s": 5143,
      "##ainst": 5144,
      "so0": 5145,
      "so03": 5146,
      "ltd22kmoff": 5147,
      "manso": 5148,
      "management": 5149,
      "##21/2019": 5150,
      "##4.60": 5151,
      "44.00": 5152,
      "rolled/g": 5153,
      "21-11-2019": 5154,
      "4.95": 5155,
      "##49.13": 5156,
      "resist": 5157,
      "results": 5158,
      "##8619001": 5159,
      "##erythritol": 5160,
      "fabrics": 5161,
      "crates": 5162,
      "eu)": 5163,
      "##439": 5164,
      "##/kcc": 5165,
      "##-january": 5166,
      "usp42": 5167,
      "##eavoring": 5168,
      "##/manufactur": 5169,
      "002": 5170,
      "0076": 5171,
      "00pc": 5172,
      "38-": 5173,
      "38.00": 5174,
      "seat": 5175,
      "separ": 5176,
      "seeds": 5177,
      "manufacturers": 5178,
      "##7929": 5179,
      "printer": 5180,
      "##584": 5181,
      "##ml-8": 5182,
      "amd/sc": 5183,
      "clamp": 5184,
      "slit": 5185,
      "type)": 5186,
      "euro.": 5187,
      "608": 5188,
      "603": 5189,
      "leban": 5190,
      "##/g/2020": 5191,
      "##ugan": 5192,
      "production": 5193,
      "##mpi": 5194,
      "##-r080": 5195,
      "##-a)": 5196,
      "##3.6": 5197,
      "##3.75": 5198,
      "##dpe)": 5199,
      "40.32": 5200,
      "disodium": 5201,
      "##899": 5202,
      "street": 5203,
      "stretch": 5204,
      "struts": 5205,
      "##opram": 5206,
      "##-3/4": 5207,
      "##191101": 5208,
      "75000": 5209,
      "75d/": 5210,
      "soleda": 5211,
      "incoterms-201": 5212,
      "manufacturing/ass": 5213,
      "micum": 5214,
      "na99": 5215,
      "##.71": 5216,
      "##.74": 5217,
      "352": 5218,
      "##-996": 5219,
      "(440": 5220,
      "125f": 5221,
      "(w/w": 5222,
      "(wash": 5223,
      "(weight": 5224,
      "basic": 5225,
      "mlldpe": 5226,
      "##031": 5227,
      "insulation": 5228,
      "5.45": 5229,
      "flu": 5230,
      "flat": 5231,
      "fluff": 5232,
      "films": 5233,
      "##/rm/6": 5234,
      "sulphon": 5235,
      "70000.00": 5236,
      "907": 5237,
      "it/l": 5238,
      "148400": 5239,
      "''not": 5240,
      "(hs": 5241,
      "(hdpe)": 5242,
      "diam": 5243,
      "##/1119": 5244,
      "(lab)": 5245,
      "grid": 5246,
      "grind": 5247,
      "gr/m2": 5248,
      "sub-components": 5249,
      "##1013": 5250,
      "##1016": 5251,
      "##-l-2019-12": 5252,
      "width(mm)": 5253,
      "(med": 5254,
      "(min": 5255,
      "555.00": 5256,
      "556)": 5257,
      "6174075": 5258,
      "##ensor": 5259,
      "51005318": 5260,
      "51005316": 5261,
      "quotations": 5262,
      "(in-h": 5263,
      "(including": 5264,
      "capacity": 5265,
      "capacitor": 5266,
      "greater": 5267,
      "pouch": 5268,
      "sapt": 5269,
      "##box": 5270,
      "chlorate": 5271,
      "(non": 5272,
      "3.56": 5273,
      "cell)": 5274,
      "cellulose": 5275,
      "roque": 5276,
      "##1907": 5277,
      "##19012": 5278,
      "sterilized)": 5279,
      "202002": 5280,
      "pfi-0033": 5281,
      "32mm": 5282,
      "32+2": 5283,
      "390.00": 5284,
      "3928": 5285,
      "6.40": 5286,
      "against": 5287,
      "hp11": 5288,
      "hp2023j": 5289,
      "surf": 5290,
      "ultrasound": 5291,
      "##echanical": 5292,
      "##ogical": 5293,
      "alumina": 5294,
      "pi0035": 5295,
      "(chest": 5296,
      "1102k": 5297,
      "46000.00": 5298,
      "ceftri": 5299,
      "cefaclor": 5300,
      "guard": 5301,
      "heat": 5302,
      "heater": 5303,
      "htv-a": 5304,
      "whey": 5305,
      "##-510": 5306,
      "ahtl/misc": 5307,
      "(bp": 5308,
      "(biol": 5309,
      "954": 5310,
      "ca025": 5311,
      "electro": 5312,
      "network": 5313,
      "##205tf": 5314,
      "degrees": 5315,
      "310004": 5316,
      "dtex/51": 5317,
      "corolla": 5318,
      "lotion": 5319,
      "non-in": 5320,
      "##-xc1911": 5321,
      "##20191223": 5322,
      "pakstan": 5323,
      "(pharma": 5324,
      "(photo": 5325,
      "##.08.19": 5326,
      "silico": 5327,
      "ctcp": 5328,
      "##/v)": 5329,
      "##/vial)": 5330,
      "##94/2019": 5331,
      "methylene": 5332,
      "types": 5333,
      "micronized": 5334,
      "45000": 5335,
      "54000": 5336,
      "8850": 5337,
      "88.30": 5338,
      "bowc": 5339,
      "suit": 5340,
      "suction": 5341,
      "sjv": 5342,
      "wooden": 5343,
      "##airport": 5344,
      "##ppm": 5345,
      "##058619001": 5346,
      "##stern": 5347,
      "spinning''": 5348,
      "##/010/hti/2019-20": 5349,
      "##/htt/2019-20": 5350,
      "##/htv/2019-20": 5351,
      "(80000": 5352,
      "aa-grade": 5353,
      "ethylene": 5354,
      "ethanol": 5355,
      "##poly)": 5356,
      "##-zm": 5357,
      "cooled": 5358,
      "0.250": 5359,
      "0.2408": 5360,
      "recycl": 5361,
      "software": 5362,
      "22007": 5363,
      "4850": 5364,
      "8446.29": 5365,
      "ara/19/huahong": 5366,
      "blowroom": 5367,
      "hc205tf": 5368,
      "techn": 5369,
      "yard.": 5370,
      "##awa": 5371,
      "##awar": 5372,
      "##endeavoring": 5373,
      "20191247": 5374,
      "xpk-tr20010": 5375,
      "xpk-tr912": 5376,
      "processing": 5377,
      "7280044": 5378,
      "akuh-": 5379,
      "crystalline": 5380,
      "furnace": 5381,
      "link": 5382,
      "multi": 5383,
      "##hman": 5384,
      "propylene": 5385,
      "##126/g/2019": 5386,
      "1.4dtex": 5387,
      "la880t": 5388,
      "chem/1626": 5389,
      "99.9": 5390,
      "##/007/2019": 5391,
      "440000515": 5392,
      "ahl-cg125": 5393,
      "market": 5394,
      "marking": 5395,
      "hydrochloride": 5396,
      "(150000": 5397,
      "business": 5398,
      "cc3-25": 5399,
      "fully": 5400,
      "l-lysine": 5401,
      "mainten": 5402,
      "mills": 5403,
      "niax": 5404,
      "nikk": 5405,
      "ptml-8": 5406,
      "rhoph": 5407,
      "rotary": 5408,
      "rotterdam": 5409,
      "##ze/am": 5410,
      "##df-xc1911": 5411,
      "##annel": 5412,
      "##formed": 5413,
      "##italopram": 5414,
      "##olata-r": 5415,
      "116.92": 5416,
      "50549.13": 5417,
      "medicines": 5418,
      "medicaments": 5419,
      "filters": 5420,
      "tj530-201b": 5421,
      "8020269": 5422,
      "93.50": 5423,
      "citric": 5424,
      "citrate": 5425,
      "gsn8": 5426,
      "msr": 5427,
      "r6618(t)": 5428,
      "r6628(t)": 5429,
      "tp/rm/6": 5430,
      "copper": 5431,
      "##-08-2019": 5432,
      "pi/psf/ind/9": 5433,
      "##uffed": 5434,
      "##/002/2020": 5435,
      "discharge": 5436,
      "ahl/ckd/009": 5437,
      "##ouse/cust": 5438,
      "555.71": 5439,
      "oxalate": 5440,
      "sby-850": 5441,
      "tricot": 5442,
      "primary": 5443,
      "exceed": 5444,
      "exceeds": 5445,
      "##.07.19": 5446,
      "sc-idhpk": 5447,
      "sc-idhpk19": 5448,
      "sae1006": 5449,
      "3901.2000": 5450,
      "pi00345": 5451,
      "jtgjrz-rz191212": 5452,
      "ex-works": 5453,
      "ahl-cd70-040": 5454,
      "ahl-cd70-041": 5455,
      "centrifuge": 5456,
      "centrifugal": 5457,
      "74.08": 5458,
      "avg": 5459,
      "body": 5460,
      "benzene": 5461,
      "cross": 5462,
      "cpcm": 5463,
      "dd85": 5464,
      "glossy": 5465,
      "gml/ai": 5466,
      "hvsp-": 5467,
      "lyocell": 5468,
      "pentaerythritol": 5469,
      "qfze/am": 5470,
      "smart4": 5471,
      "t19yj": 5472,
      "tubes": 5473,
      "##eup-": 5474,
      "##lon''": 5475,
      "##inolone": 5476,
      "##alvannealed": 5477,
      "##imv)": 5478,
      "stearic": 5479,
      "110115.00": 5480,
      "##-07-2019": 5481,
      "##707cf": 5482,
      "##exp/2": 5483,
      "acg190015": 5484,
      "14936k00": 5485,
      "gaipl/s/1219/rbdoln11": 5486,
      "##/pc/pak/": 5487,
      "following": 5488,
      "s/93/19": 5489,
      "210.375": 5490,
      "brothers": 5491,
      "kodak": 5492,
      "nickel": 5493,
      "p1c5-9": 5494,
      "pd60": 5495,
      "racks": 5496,
      "style": 5497,
      "warehouse": 5498,
      "wsi85": 5499,
      "##/used": 5500,
      "##dd12": 5501,
      "injectable": 5502,
      "conductor": 5503,
      "consisting": 5504,
      "alkyl": 5505,
      "acetonide": 5506,
      "(package": 5507,
      "metamino(r)": 5508,
      "shield": 5509,
      "22502.40": 5510,
      "cheese-z": 5511,
      "thermo": 5512,
      "99.7%": 5513,
      "dyeing": 5514,
      "##-sc-2019": 5515,
      "disposable": 5516,
      "strictly": 5517,
      "solutions": 5518,
      "abm-9": 5519,
      "premises": 5520,
      "substation": 5521,
      "(micron": 5522,
      "10102055": 5523,
      "cavity": 5524,
      "##/786/5": 5525,
      "effected": 5526,
      "bppl/p-inv/12-19/01": 5527,
      "memphis/ea": 5528,
      "refrigerated": 5529,
      "sbr/dept.c/": 5530,
      "(feed": 5531,
      "(+/-10mm)": 5532,
      "0y058619001": 5533,
      "772.50": 5534,
      "aal/ckd": 5535,
      "biofar": 5536,
      "cylinder": 5537,
      "ci-29": 5538,
      "dialy": 5539,
      "doppler": 5540,
      "escitalopram": 5541,
      "e1b3901": 5542,
      "fitting": 5543,
      "f2122bs": 5544,
      "g-epl19/1": 5545,
      "hilux": 5546,
      "h-350": 5547,
      "idylla": 5548,
      "ice-": 5549,
      "jsddd12": 5550,
      "kemari": 5551,
      "korean": 5552,
      "l5005": 5553,
      "l-p.i": 5554,
      "lupran": 5555,
      "mersin": 5556,
      "merge": 5557,
      "mrc/sales/export": 5558,
      "nlgi": 5559,
      "netherland": 5560,
      "optical": 5561,
      "oilein": 5562,
      "old/used": 5563,
      "poram": 5564,
      "pibt": 5565,
      "peshawar": 5566,
      "p715-3": 5567,
      "rb707cf": 5568,
      "ready": 5569,
      "stone": 5570,
      "spl-86": 5571,
      "square": 5572,
      "seller": 5573,
      "s12318.00": 5574,
      "ti/786/5": 5575,
      "t/olata-r": 5576,
      "tcl-l-2019-12": 5577,
      "tire(s)": 5578,
      "ucf/19/10": 5579,
      "vitamin": 5580,
      "wq1922": 5581,
      "wisdom": 5582,
      "x1912pin200": 5583,
      "##scopes": 5584,
      "##.oct.2019": 5585,
      "##/ibm": 5586,
      "##/febr": 5587,
      "##yrogen": 5588,
      "instrument": 5589,
      "no.wcdf-xc1911": 5590,
      "beneficiery's": 5591,
      "coconut": 5592,
      "unisoft": 5593,
      "20-fy": 5594,
      "1267.63": 5595,
      "indonesian": 5596,
      "191126//pak/sec/rye": 5597,
      "alathon": 5598,
      "al-rehman": 5599,
      "24-06-2019": 5600,
      "extension": 5601,
      "paraffin": 5602,
      "sc201912000": 5603,
      "##132-e1": 5604,
      "bridgestone": 5605,
      "##p-ga/19": 5606,
      "mansoor": 5607,
      "rolled/galvannealed": 5608,
      "##-january-2020": 5609,
      "00pcs": 5610,
      "separator": 5611,
      "amd/sc/3": 5612,
      "lebanon": 5613,
      "75d/36f": 5614,
      "manufacturing/assembly": 5615,
      "na99001": 5616,
      "(w/w)": 5617,
      "(washed": 5618,
      "grindability": 5619,
      "(in-house/cust": 5620,
      "ceftriaxone": 5621,
      "(biological": 5622,
      "non-intermingled": 5623,
      "recycled": 5624,
      "8446.2900": 5625,
      "ara/19/huahong/": 5626,
      "akuh-bd": 5627,
      "ahl-cg125-0": 5628,
      "cc3-25)": 5629,
      "maintenance": 5630,
      "nikkiso": 5631,
      "rhophylac": 5632,
      "sc-idhpk1901": 5633,
      "hvsp-a1912": 5634,
      "qfze/amil/26": 5635,
      "memphis/eastern": 5636,
      "g-epl19/1129": 5637,
      "lupranate": 5638,
      "no.wcdf-xc1911124": 5639,
      "(in-house/customer": 5640,
      "'lotrene": 5641,
      "'not": 5642,
      "(2": 5643,
      "(q": 5644,
      "(50": 5645,
      "(ra": 5646,
      "(yl": 5647,
      "(40": 5648,
      "(30": 5649,
      "(em": 5650,
      "(un": 5651,
      "(46": 5652,
      "(400": 5653,
      "(nit": 5654,
      "(cal": 5655,
      "(110": 5656,
      "(cop": 5657,
      "(at)": 5658,
      "(ia)": 5659,
      "(endeavoring": 5660,
      "(imv)": 5661,
      "+m": 5662,
      "++": 5663,
      "+qty": 5664,
      "+++++++++++++++++": 5665,
      "-grade": 5666,
      "-1016": 5667,
      "/c": 5668,
      "090": 5669,
      "065": 5670,
      "1l": 5671,
      "12019": 5672,
      "1.12": 5673,
      "120.00": 5674,
      "1/2": 5675,
      "1123": 5676,
      "1/4": 5677,
      "112.00": 5678,
      "1n0": 5679,
      "2.11": 5680,
      "270": 5681,
      "217": 5682,
      "21911": 5683,
      "210.00": 5684,
      "235.00": 5685,
      "2mk": 5686,
      "2nd": 5687,
      "312": 5688,
      "3/1": 5689,
      "313": 5690,
      "385": 5691,
      "348": 5692,
      "349": 5693,
      "3500": 5694,
      "363": 5695,
      "360.00": 5696,
      "319.00": 5697,
      "385.00": 5698,
      "318.00": 5699,
      "3rs": 5700,
      "314.00": 5701,
      "4200": 5702,
      "460": 5703,
      "4.0": 5704,
      "413": 5705,
      "448": 5706,
      "476": 5707,
      "486": 5708,
      "4500": 5709,
      "477": 5710,
      "439": 5711,
      "470.00": 5712,
      "430.00": 5713,
      "47.00": 5714,
      "43.00": 5715,
      "435.00": 5716,
      "475.00": 5717,
      "41-": 5718,
      "42250": 5719,
      "42300": 5720,
      "58": 5721,
      "5'": 5722,
      "519": 5723,
      "540": 5724,
      "575": 5725,
      "570": 5726,
      "515": 5727,
      "535": 5728,
      "517": 5729,
      "528": 5730,
      "5.10": 5731,
      "596": 5732,
      "544": 5733,
      "580.00": 5734,
      "540.00": 5735,
      "5.7": 5736,
      "570.00": 5737,
      "583": 5738,
      "52.00": 5739,
      "515.00": 5740,
      "5010": 5741,
      "58/": 5742,
      "675": 5743,
      "6100": 5744,
      "65.00": 5745,
      "686": 5746,
      "693": 5747,
      "655": 5748,
      "692": 5749,
      "69.00": 5750,
      "64-": 5751,
      "615.00": 5752,
      "620000": 5753,
      "70.00": 5754,
      "7-01": 5755,
      "780": 5756,
      "725": 5757,
      "790": 5758,
      "75.00": 5759,
      "732": 5760,
      "736": 5761,
      "780.00": 5762,
      "753": 5763,
      "777": 5764,
      "7.2": 5765,
      "76.00": 5766,
      "770.00": 5767,
      "72.00": 5768,
      "730.00": 5769,
      "72000": 5770,
      "775.00": 5771,
      "71.": 5772,
      "764": 5773,
      "7123": 5774,
      "725.00": 5775,
      "765.00": 5776,
      "767.": 5777,
      "72332": 5778,
      "74880": 5779,
      "8-": 5780,
      "810": 5781,
      "8-11": 5782,
      "830": 5783,
      "860": 5784,
      "815": 5785,
      "814": 5786,
      "8.5": 5787,
      "823": 5788,
      "85.00": 5789,
      "876": 5790,
      "886": 5791,
      "879": 5792,
      "820.00": 5793,
      "86.00": 5794,
      "81.00": 5795,
      "8600": 5796,
      "81.": 5797,
      "840mm": 5798,
      "83.75": 5799,
      "9o": 5800,
      "9)": 5801,
      "940": 5802,
      "960": 5803,
      "985": 5804,
      "995": 5805,
      "929": 5806,
      "9500": 5807,
      "9400": 5808,
      "98.00": 5809,
      "9.75": 5810,
      "930.00": 5811,
      "975.00": 5812,
      "9005": 5813,
      "@ib": 5814,
      "ax": 5815,
      "ae": 5816,
      "a)": 5817,
      "a7": 5818,
      "ari": 5819,
      "aft": 5820,
      "aux": 5821,
      "apex": 5822,
      "a-grade": 5823,
      "bm": 5824,
      "bt": 5825,
      "b)": 5826,
      "bb": 5827,
      "bc": 5828,
      "bf": 5829,
      "ben": 5830,
      "bir": 5831,
      "bare": 5832,
      "ball": 5833,
      "berg": 5834,
      "b/l": 5835,
      "bold": 5836,
      "block": 5837,
      "b54": 5838,
      "batch": 5839,
      "butyl": 5840,
      "cat": 5841,
      "cac": 5842,
      "clo": 5843,
      "cut": 5844,
      "cig": 5845,
      "city": 5846,
      "ccl": 5847,
      "cip": 5848,
      "cyc": 5849,
      "cane": 5850,
      "c(mm)": 5851,
      "csp": 5852,
      "cvc": 5853,
      "cult": 5854,
      "df": 5855,
      "dz": 5856,
      "der": 5857,
      "dor": 5858,
      "dat": 5859,
      "das": 5860,
      "dil": 5861,
      "dim": 5862,
      "dow": 5863,
      "dri": 5864,
      "dip": 5865,
      "dap": 5866,
      "dex": 5867,
      "daw": 5868,
      "ez": 5869,
      "est": 5870,
      "ether": 5871,
      "ery": 5872,
      "e02": 5873,
      "emer": 5874,
      "even": 5875,
      "e/o": 5876,
      "f1": 5877,
      "fc": 5878,
      "fj": 5879,
      "fat": 5880,
      "fort": 5881,
      "fum": 5882,
      "f-11": 5883,
      "fem": 5884,
      "fos": 5885,
      "fall": 5886,
      "flour": 5887,
      "f211": 5888,
      "f1a": 5889,
      "f00952": 5890,
      "g1": 5891,
      "gi": 5892,
      "gj": 5893,
      "gel": 5894,
      "gul": 5895,
      "glo": 5896,
      "gun": 5897,
      "garn": 5898,
      "g-m": 5899,
      "g/m2": 5900,
      "hl": 5901,
      "hb": 5902,
      "hk": 5903,
      "him": 5904,
      "hab": 5905,
      "hex": 5906,
      "hfa": 5907,
      "hps": 5908,
      "hte": 5909,
      "hno": 5910,
      "head": 5911,
      "hsf": 5912,
      "hanger": 5913,
      "iod": 5914,
      "ici": 5915,
      "ifl": 5916,
      "i251": 5917,
      "immun": 5918,
      "ja": 5919,
      "js": 5920,
      "jy": 5921,
      "jun": 5922,
      "jub": 5923,
      "joc": 5924,
      "jaf": 5925,
      "jkm": 5926,
      "kr": 5927,
      "kh": 5928,
      "kit": 5929,
      "kot": 5930,
      "khd": 5931,
      "kict": 5932,
      "k245": 5933,
      "ld": 5934,
      "lw": 5935,
      "let": 5936,
      "lid": 5937,
      "lith": 5938,
      "lmt": 5939,
      "los": 5940,
      "liv": 5941,
      "length": 5942,
      "lux": 5943,
      "lons": 5944,
      "lung": 5945,
      "lacqu": 5946,
      "mi": 5947,
      "mp": 5948,
      "m0": 5949,
      "mb": 5950,
      "mf": 5951,
      "men": 5952,
      "mir": 5953,
      "m27": 5954,
      "marg": 5955,
      "mpa": 5956,
      "mec": 5957,
      "male": 5958,
      "mold": 5959,
      "mdf": 5960,
      "m(+/-10": 5961,
      "master": 5962,
      "mechanical": 5963,
      "nx": 5964,
      "nb": 5965,
      "nk": 5966,
      "nic": 5967,
      "nas": 5968,
      "nine": 5969,
      "nbr": 5970,
      "nlc": 5971,
      "ngr": 5972,
      "nylo": 5973,
      "om": 5974,
      "od": 5975,
      "our": 5976,
      "option": 5977,
      "oxide": 5978,
      "oli": 5979,
      "o/o": 5980,
      "pm": 5981,
      "ps": 5982,
      "pn": 5983,
      "p.": 5984,
      "pv": 5985,
      "pic": 5986,
      "pid": 5987,
      "p85": 5988,
      "p/01": 5989,
      "pom": 5990,
      "pell": 5991,
      "p-9": 5992,
      "p82": 5993,
      "pmg": 5994,
      "polar": 5995,
      "p-v": 5996,
      "peas": 5997,
      "pyrogen": 5998,
      "qs": 5999,
      "qsm": 6000,
      "q-s": 6001,
      "qte": 6002,
      "rx": 6003,
      "r6": 6004,
      "rea": 6005,
      "rob": 6006,
      "ros": 6007,
      "r500": 6008,
      "rup": 6009,
      "r-6": 6010,
      "round": 6011,
      "r407": 6012,
      "reno": 6013,
      "r-996": 6014,
      "s0": 6015,
      "s-": 6016,
      "sb": 6017,
      "sed": 6018,
      "san": 6019,
      "sach": 6020,
      "sob": 6021,
      "sum": 6022,
      "sun": 6023,
      "sap": 6024,
      "sry": 6025,
      "site": 6026,
      "sug": 6027,
      "s125": 6028,
      "sint": 6029,
      "sfl": 6030,
      "satin": 6031,
      "sie": 6032,
      "sxb": 6033,
      "s191204": 6034,
      "s219": 6035,
      "sensor": 6036,
      "tt": 6037,
      "tk": 6038,
      "tim": 6039,
      "tpt": 6040,
      "tob": 6041,
      "tre": 6042,
      "t500": 6043,
      "trol": 6044,
      "tied": 6045,
      "tkg": 6046,
      "tso": 6047,
      "tier": 6048,
      "ut": 6049,
      "ug": 6050,
      "ups": 6051,
      "ukp": 6052,
      "uhb": 6053,
      "vs": 6054,
      "vt": 6055,
      "vol": 6056,
      "vir": 6057,
      "vess": 6058,
      "vib": 6059,
      "verm": 6060,
      "via": 6061,
      "vide": 6062,
      "very": 6063,
      "v600": 6064,
      "vcm": 6065,
      "veter": 6066,
      "wa": 6067,
      "wy": 6068,
      "wv": 6069,
      "w19": 6070,
      "wax": 6071,
      "wap": 6072,
      "wdf": 6073,
      "woven": 6074,
      "worthy": 6075,
      "x1": 6076,
      "xrp": 6077,
      "yh": 6078,
      "yd": 6079,
      "yant": 6080,
      "ybd": 6081,
      "zh": 6082,
      "zg": 6083,
      "zy": 6084,
      "##2/": 6085,
      "##2v": 6086,
      "##2/2019": 6087,
      "##230": 6088,
      "##270": 6089,
      "##2400": 6090,
      "##2-11bk03": 6091,
      "##2rn": 6092,
      "##1)": 6093,
      "##1d": 6094,
      "##12019": 6095,
      "##130": 6096,
      "##175": 6097,
      "##145": 6098,
      "##135": 6099,
      "##165": 6100,
      "##1/g/2019": 6101,
      "##1cf": 6102,
      "##57": 6103,
      "##5c": 6104,
      "##5mm": 6105,
      "##523": 6106,
      "##517": 6107,
      "##5-00": 6108,
      "##576": 6109,
      "##5600": 6110,
      "##5101": 6111,
      "##51-": 6112,
      "##5mk": 6113,
      "##5pct": 6114,
      "##5853": 6115,
      "##rat": 6116,
      "##res": 6117,
      "##rase": 6118,
      "##rub": 6119,
      "##r-17": 6120,
      "##iu": 6121,
      "##iac": 6122,
      "##iester": 6123,
      "##iery": 6124,
      "##ihydrate": 6125,
      "##iplast": 6126,
      "##i-pro": 6127,
      "##m-": 6128,
      "##mc": 6129,
      "##md": 6130,
      "##mj": 6131,
      "##mob": 6132,
      "##meth": 6133,
      "##m/001": 6134,
      "##minal": 6135,
      "##mosph": 6136,
      "##methyl": 6137,
      "##a-": 6138,
      "##a00": 6139,
      "##apl": 6140,
      "##apt": 6141,
      "##apt)": 6142,
      "##xx": 6143,
      "##x0": 6144,
      "##xg": 6145,
      "##xin": 6146,
      "##xing": 6147,
      "##x16": 6148,
      "##x47": 6149,
      "##x600": 6150,
      "##xanol": 6151,
      "##x1000": 6152,
      "##x180": 6153,
      "##x-510": 6154,
      "##e5": 6155,
      "##ee": 6156,
      "##eg": 6157,
      "##ema": 6158,
      "##e22": 6159,
      "##sa": 6160,
      "##sn": 6161,
      "##s4": 6162,
      "##s/": 6163,
      "##set": 6164,
      "##sea": 6165,
      "##s01": 6166,
      "##s/1": 6167,
      "##s23": 6168,
      "##s/00": 6169,
      "##samine": 6170,
      "##tt": 6171,
      "##t-": 6172,
      "##tro": 6173,
      "##tes": 6174,
      "##the": 6175,
      "##tim": 6176,
      "##tag": 6177,
      "##tax": 6178,
      "##test": 6179,
      "##t/20": 6180,
      "##tect": 6181,
      "##tof": 6182,
      "##t-11bk03": 6183,
      "##t2-11bk03": 6184,
      "##o.": 6185,
      "##oy": 6186,
      "##o00": 6187,
      "##oma": 6188,
      "##our": 6189,
      "##o25": 6190,
      "##oper": 6191,
      "##oci": 6192,
      "##o2014": 6193,
      "##oiet": 6194,
      "##nn": 6195,
      "##ng": 6196,
      "##nated": 6197,
      "##nese": 6198,
      "##n2018": 6199,
      "##)g": 6200,
      "##)cc": 6201,
      "##.e": 6202,
      "##.k": 6203,
      "##.3": 6204,
      "##.co": 6205,
      "##.45": 6206,
      "##.35": 6207,
      "##.36": 6208,
      "##.93": 6209,
      "##.77": 6210,
      "##.99": 6211,
      "##.68": 6212,
      "##.37": 6213,
      "##.98": 6214,
      "##.84": 6215,
      "##.complete": 6216,
      "##4)": 6217,
      "##4c": 6218,
      "##4j": 6219,
      "##4(": 6220,
      "##4/2019": 6221,
      "##400.00": 6222,
      "##480": 6223,
      "##425": 6224,
      "##415": 6225,
      "##4/s": 6226,
      "##446": 6227,
      "##416": 6228,
      "##421": 6229,
      "##4a19": 6230,
      "##ho": 6231,
      "##hort": 6232,
      "##had": 6233,
      "##hup": 6234,
      "##lk": 6235,
      "##lac": 6236,
      "##lin": 6237,
      "##lif": 6238,
      "##lak": 6239,
      "##ltd": 6240,
      "##l-2": 6241,
      "##l-l": 6242,
      "##luel": 6243,
      "##laben": 6244,
      "##/-": 6245,
      "##/8": 6246,
      "##/j": 6247,
      "##/al": 6248,
      "##/it": 6249,
      "##/re": 6250,
      "##/ig": 6251,
      "##/70": 6252,
      "##/os": 6253,
      "##/29": 6254,
      "##/38": 6255,
      "##/47": 6256,
      "##/77": 6257,
      "##/no": 6258,
      "##/af": 6259,
      "##/48f": 6260,
      "##/asl": 6261,
      "##/eup-": 6262,
      "##pty": 6263,
      "##pan": 6264,
      "##pet": 6265,
      "##pea": 6266,
      "##pel": 6267,
      "##put": 6268,
      "##pia": 6269,
      "##pak": 6270,
      "##pp-": 6271,
      "##poln11": 6272,
      "##p-1908": 6273,
      "##p/007/2019": 6274,
      "##p)g": 6275,
      "##09": 6276,
      "##06": 6277,
      "##029": 6278,
      "##0.29": 6279,
      "##0o2014": 6280,
      "##9b": 6281,
      "##910": 6282,
      "##900.00": 6283,
      "##980": 6284,
      "##943": 6285,
      "##9112": 6286,
      "##9.75": 6287,
      "##-o": 6288,
      "##-q": 6289,
      "##-er": 6290,
      "##-st": 6291,
      "##-000": 6292,
      "##-120": 6293,
      "##-29": 6294,
      "##-32": 6295,
      "##-88": 6296,
      "##-ass": 6297,
      "##-21": 6298,
      "##-oc": 6299,
      "##--a": 6300,
      "##-63": 6301,
      "##-42": 6302,
      "##-bl": 6303,
      "##-20010": 6304,
      "##-68": 6305,
      "##-74": 6306,
      "##-ins": 6307,
      "##-thal": 6308,
      "##-off": 6309,
      "##ba": 6310,
      "##bul": 6311,
      "##bine": 6312,
      "##bies": 6313,
      "##b1912": 6314,
      "##b-1": 6315,
      "##b-2": 6316,
      "##bn8": 6317,
      "##bitol": 6318,
      "##bactam": 6319,
      "##beans": 6320,
      "##kw": 6321,
      "##kot": 6322,
      "##kong": 6323,
      "##krom": 6324,
      "##kesh": 6325,
      "##krc": 6326,
      "##8)": 6327,
      "##8-20": 6328,
      "##800.00": 6329,
      "##8mm": 6330,
      "##875": 6331,
      "##870": 6332,
      "##890": 6333,
      "##817": 6334,
      "##828": 6335,
      "##840mm": 6336,
      "##8-avt": 6337,
      "##8x47": 6338,
      "##712": 6339,
      "##7000": 6340,
      "##745": 6341,
      "##7.0": 6342,
      "##714": 6343,
      "##765": 6344,
      "##736": 6345,
      "##786": 6346,
      "##7/k": 6347,
      "##7205": 6348,
      "##c2": 6349,
      "##cs": 6350,
      "##cb": 6351,
      "##c01": 6352,
      "##core": 6353,
      "##c-0": 6354,
      "##c/0": 6355,
      "##carbon": 6356,
      "##cinolone": 6357,
      "##c029": 6358,
      "##ual": 6359,
      "##uit": 6360,
      "##uct": 6361,
      "##u18": 6362,
      "##uple": 6363,
      "##ucing": 6364,
      "##uario": 6365,
      "##ukesh": 6366,
      "##g3": 6367,
      "##gd": 6368,
      "##ger": 6369,
      "##gra": 6370,
      "##gpt": 6371,
      "##gue": 6372,
      "##gak": 6373,
      "##gage": 6374,
      "##gram": 6375,
      "##gement": 6376,
      "##gladesh": 6377,
      "##3)": 6378,
      "##340": 6379,
      "##3.5": 6380,
      "##346": 6381,
      "##3-1": 6382,
      "##3.2020": 6383,
      "##fk": 6384,
      "##fz": 6385,
      "##fine": 6386,
      "##fib": 6387,
      "##fcl": 6388,
      "##fos": 6389,
      "##fix": 6390,
      "##flex": 6391,
      "##fc)": 6392,
      "##f132-e1": 6393,
      "##620": 6394,
      "##6000": 6395,
      "##650": 6396,
      "##645": 6397,
      "##649": 6398,
      "##682": 6399,
      "##6/17": 6400,
      "##6934": 6401,
      "##6236": 6402,
      "##6hpt": 6403,
      "##6607": 6404,
      "##6767": 6405,
      "##zy": 6406,
      "##z19": 6407,
      "##zin": 6408,
      "##z-l": 6409,
      "##di": 6410,
      "##dn": 6411,
      "##d19": 6412,
      "##dies": 6413,
      "##d/12": 6414,
      "##d/b": 6415,
      "##dins": 6416,
      "##delivery": 6417,
      "##dull": 6418,
      "##d-ins": 6419,
      "##y-": 6420,
      "##y4j": 6421,
      "##vel": 6422,
      "##vis": 6423,
      "##vest": 6424,
      "##vers": 6425,
      "##via": 6426,
      "##ved)": 6427,
      "##wl": 6428,
      "##wil": 6429,
      "##wear": 6430,
      "##w/kg": 6431,
      "##w/v)": 6432,
      "##wt-11bk03": 6433,
      "##j/19-20": 6434,
      "##q-m": 6435,
      "##(id": 6436,
      "##(ef": 6437,
      "##(ps": 6438,
      "##(revised)": 6439,
      "##(max": 6440,
      "##(usd": 6441,
      "##(p)g": 6442,
      "##(w/v)": 6443,
      "##+r.": 6444,
      "##%(w/v)": 6445,
      "##erz": 6446,
      "##erum": 6447,
      "##ere)": 6448,
      "##erapeutic": 6449,
      "##er/components": 6450,
      "##0053": 6451,
      "##orus": 6452,
      "##orld": 6453,
      "##ording": 6454,
      "##orage": 6455,
      "##orocell": 6456,
      "##arton": 6457,
      "##artr": 6458,
      "##arine": 6459,
      "##aries": 6460,
      "##arfeen": 6461,
      "perip": 6462,
      "perkin": 6463,
      "##icit": 6464,
      "##icul": 6465,
      "##icl-l": 6466,
      "##atment": 6467,
      "##209": 6468,
      "##20g": 6469,
      "##2011": 6470,
      "##20mm": 6471,
      "##2038": 6472,
      "##192": 6473,
      "##19g": 6474,
      "##19q": 6475,
      "##1910": 6476,
      "##19/12": 6477,
      "##19-2": 6478,
      "##1908": 6479,
      "##ening": 6480,
      "##ence": 6481,
      "##type": 6482,
      "##acc": 6483,
      "##aces": 6484,
      "##aclo": 6485,
      "##acill": 6486,
      "inh": 6487,
      "ink": 6488,
      "inco": 6489,
      "inorgan": 6490,
      "incr": 6491,
      "install": 6492,
      "informed": 6493,
      "##onic": 6494,
      "no126": 6495,
      "nominal": 6496,
      "at-s": 6497,
      "atenol": 6498,
      "atusd": 6499,
      "atmosph": 6500,
      "no.0": 6501,
      "no.z": 6502,
      "no.44": 6503,
      "no.(s)": 6504,
      "no.pi": 6505,
      "no.mg": 6506,
      "no.hk": 6507,
      "no.hw": 6508,
      "no.tj": 6509,
      "no.f132-e1": 6510,
      "##ortuary": 6511,
      "aspa": 6512,
      "asept": 6513,
      "ascore": 6514,
      "##ste": 6515,
      "##stal": 6516,
      "##stone": 6517,
      "##strev": 6518,
      "##st19.00": 6519,
      "##rox": 6520,
      "##roit": 6521,
      "##rod-ins": 6522,
      "##inated": 6523,
      "##inary": 6524,
      "##inate": 6525,
      "##inod": 6526,
      "##inid": 6527,
      "##inding": 6528,
      "##inda": 6529,
      "##in-s": 6530,
      "##in/3": 6531,
      "usda": 6532,
      "usd.": 6533,
      "##2019110": 6534,
      "##201905": 6535,
      "##20191203": 6536,
      "pad": 6537,
      "pay": 6538,
      "pair": 6539,
      "painted": 6540,
      "##ali": 6541,
      "##ald": 6542,
      "##alab": 6543,
      "##alized": 6544,
      "##al2019120": 6545,
      "##ficial": 6546,
      "##ficiency": 6547,
      "##istol": 6548,
      "##master": 6549,
      "##ices": 6550,
      "karachi/": 6551,
      "pro-13": 6552,
      "protect": 6553,
      "program": 6554,
      "##former": 6555,
      "##128": 6556,
      "##127": 6557,
      "##1200": 6558,
      "##1219": 6559,
      "##12-2": 6560,
      "invoices": 6561,
      "proformas": 6562,
      "offic": 6563,
      "ofloxacin": 6564,
      "offer": 6565,
      "##ets)": 6566,
      "##etone": 6567,
      "##ette": 6568,
      "##eak": 6569,
      "##esistor": 6570,
      "##hever": 6571,
      "##hejiang": 6572,
      "##hexanol": 6573,
      "mton": 6574,
      "mtas": 6575,
      "mtr.": 6576,
      "mtml/": 6577,
      "##ittag": 6578,
      "angladesh": 6579,
      "##aspan": 6580,
      "##-2019/20": 6581,
      "coex": 6582,
      "cosm": 6583,
      "coom": 6584,
      "couple": 6585,
      "cowl": 6586,
      "##015": 6587,
      "##01.1200": 6588,
      "##ili": 6589,
      "##iler": 6590,
      "##ilers": 6591,
      "##ilding": 6592,
      "##il-1911": 6593,
      "##ims": 6594,
      "##imet": 6595,
      "##tons": 6596,
      "seaml": 6597,
      "seablock": 6598,
      "##117": 6599,
      "##1101": 6600,
      "##11001": 6601,
      "##11010": 6602,
      "##olol": 6603,
      "and/": 6604,
      "##00026": 6605,
      "##000/mt": 6606,
      "##502": 6607,
      "##504": 6608,
      "##5050": 6609,
      "##5076": 6610,
      "##50-ii": 6611,
      "##50-125": 6612,
      "##508mm": 6613,
      "##plene": 6614,
      "##pl/k": 6615,
      "##eling": 6616,
      "##ello": 6617,
      "##elber": 6618,
      "##elpi": 6619,
      "##ote": 6620,
      "##otax": 6621,
      "##otwear": 6622,
      "##ura": 6623,
      "##ures": 6624,
      "##uration": 6625,
      "##uryl": 6626,
      "##urpos": 6627,
      "m/t": 6628,
      "m/e)": 6629,
      "##dehy": 6630,
      "##ional": 6631,
      "##.125": 6632,
      "conc": 6633,
      "##10p": 6634,
      "##10ch": 6635,
      "##1040": 6636,
      "##102019-rev": 6637,
      "##trin": 6638,
      "##trid": 6639,
      "##iran": 6640,
      "##active": 6641,
      "##acted)": 6642,
      "##-2012": 6643,
      "##-202001": 6644,
      "##-20-30": 6645,
      "sting": 6646,
      "stud": 6647,
      "states": 6648,
      "stkm": 6649,
      "stuffed": 6650,
      "storage": 6651,
      "##rabbi": 6652,
      "##-1200": 6653,
      "##-1219-01": 6654,
      "commer": 6655,
      "##pec": 6656,
      "union": 6657,
      "unless": 6658,
      "unbleached": 6659,
      "##obs": 6660,
      "##ober": 6661,
      "##obactam": 6662,
      "##obutyl": 6663,
      "202": 6664,
      "20'": 6665,
      "2080": 6666,
      "20/1": 6667,
      "20mm": 6668,
      "20-dec-2019": 6669,
      "2028": 6670,
      "20500": 6671,
      "20/12/2019": 6672,
      "20-nov-2019": 6673,
      "20-dec-2019.": 6674,
      "202000": 6675,
      "20-09-2019": 6676,
      "20-nov-2019.": 6677,
      "20-12-19": 6678,
      "20245": 6679,
      "20-december-2019": 6680,
      "fork": 6681,
      "##uld": 6682,
      "##uly": 6683,
      "##ulin": 6684,
      "##ulux": 6685,
      "10)": 6686,
      "109": 6687,
      "1040": 6688,
      "10.50": 6689,
      "10/s": 6690,
      "10.10": 6691,
      "102.": 6692,
      "10-jan-2020": 6693,
      "1063": 6694,
      "103.00": 6695,
      "1090.00": 6696,
      "10300": 6697,
      "1.80": 6698,
      "1.60": 6699,
      "1.35": 6700,
      "1.28": 6701,
      "1.48": 6702,
      "1.21": 6703,
      "1.93": 6704,
      "1.02": 6705,
      "1.52": 6706,
      "12.": 6707,
      "129": 6708,
      "1200.00": 6709,
      "12200": 6710,
      "12.50": 6711,
      "12000.00": 6712,
      "12.11.2019": 6713,
      "12/12": 6714,
      "125.00": 6715,
      "1221": 6716,
      "1237": 6717,
      "12-10-2019.": 6718,
      "12250.00": 6719,
      "##/2019-18": 6720,
      "##/2019-fc": 6721,
      "contract/": 6722,
      "united": 6723,
      "units)": 6724,
      "##olymer": 6725,
      "##anti": 6726,
      "##ley": 6727,
      "##le/manufactur": 6728,
      "##load": 6729,
      "##lozin": 6730,
      "##iset": 6731,
      "##ispers": 6732,
      "##isalab": 6733,
      "m/ton)cc": 6734,
      "airport-": 6735,
      "##reen": 6736,
      "indic": 6737,
      "##usa": 6738,
      "##us/2019": 6739,
      "##usher": 6740,
      "1911": 6741,
      "19000": 6742,
      "19/s": 6743,
      "190000": 6744,
      "195.00": 6745,
      "19-nov-2019": 6746,
      "19cm": 6747,
      "19110": 6748,
      "19.8": 6749,
      "19e04": 6750,
      "19jhpk": 6751,
      "last": 6752,
      "laem": 6753,
      "lamb": 6754,
      "lamin": 6755,
      "ladies": 6756,
      "lauryl": 6757,
      "##-016": 6758,
      "##-0120": 6759,
      "polylin": 6760,
      "##ialysis": 6761,
      "##ylate": 6762,
      "##ylhexanol": 6763,
      "along": 6764,
      "altern": 6765,
      "##aga": 6766,
      "##ages": 6767,
      "##aglif": 6768,
      "##-2020.": 6769,
      "##odules": 6770,
      "##odimet": 6771,
      "##odialysis": 6772,
      "0.80": 6773,
      "0.75": 6774,
      "0.35": 6775,
      "0.14": 6776,
      "0.23": 6777,
      "0.96": 6778,
      "0.77": 6779,
      "0.89": 6780,
      "0.03": 6781,
      "0.69": 6782,
      "0.451": 6783,
      "0.370": 6784,
      "0.445": 6785,
      "chab": 6786,
      "cham": 6787,
      "chip": 6788,
      "chese": 6789,
      "chick": 6790,
      "chond": 6791,
      "channel": 6792,
      "chittag": 6793,
      "##iguration": 6794,
      "rapi": 6795,
      "rabbi": 6796,
      "1008.00": 6797,
      "100800": 6798,
      "100ppm": 6799,
      "##405": 6800,
      "##4090": 6801,
      "##4065": 6802,
      "##4038": 6803,
      "##40250": 6804,
      "##40s/1": 6805,
      "170": 6806,
      "17.00": 6807,
      "17.01.20": 6808,
      "17.5": 6809,
      "175.00": 6810,
      "##throp": 6811,
      "##th(s)": 6812,
      "##-11-19": 6813,
      "##market": 6814,
      "pho25": 6815,
      "11)": 6816,
      "11.": 6817,
      "114": 6818,
      "113": 6819,
      "11000": 6820,
      "1150": 6821,
      "1140": 6822,
      "1175": 6823,
      "110000": 6824,
      "1138": 6825,
      "115.00": 6826,
      "1180.00": 6827,
      "11-jan-2020": 6828,
      "11-10-2019": 6829,
      "11-dec-2019.": 6830,
      "11-28": 6831,
      "11880.00": 6832,
      "2.1": 6833,
      "2.75": 6834,
      "2.45": 6835,
      "2.18": 6836,
      "2.35": 6837,
      "2.85": 6838,
      "2.29": 6839,
      "2.98": 6840,
      "2.160": 6841,
      "2.080": 6842,
      "2.150": 6843,
      "2.980": 6844,
      "##80s": 6845,
      "##807": 6846,
      "16-11-2019": 6847,
      "16000.00": 6848,
      "16/12/2019": 6849,
      "16.10.2019": 6850,
      "163.6": 6851,
      "16x16": 6852,
      "acessor": 6853,
      "ackn": 6854,
      "25.12.19": 6855,
      "25200": 6856,
      "25000.00": 6857,
      "25.5": 6858,
      "25-10-2019": 6859,
      "25kg": 6860,
      "25.09.19": 6861,
      "##ido": 6862,
      "##iddling": 6863,
      "##idaclo": 6864,
      "##idelber": 6865,
      "lahore/n": 6866,
      "appro": 6867,
      "april": 6868,
      "prc": 6869,
      "prd": 6870,
      "pres": 6871,
      "##/133": 6872,
      "##/153": 6873,
      "##/182": 6874,
      "##/151": 6875,
      "2412": 6876,
      "2400.00": 6877,
      "24/1": 6878,
      "245.00": 6879,
      "2448": 6880,
      "24.10.2019": 6881,
      "24-dec-2019.": 6882,
      "24.oct.2019": 6883,
      "graph": 6884,
      "grams": 6885,
      "(pns": 6886,
      "##abine": 6887,
      "##above": 6888,
      "##25)": 6889,
      "##2501": 6890,
      "##25(length)": 6891,
      "##25--a": 6892,
      "##ctif": 6893,
      "##ardcoated": 6894,
      "##mm-6": 6895,
      "##20001": 6896,
      "##200004": 6897,
      "##200113": 6898,
      "##ine)": 6899,
      "##ineph": 6900,
      "##emicit": 6901,
      "1350": 6902,
      "13-11-2019": 6903,
      "13.50": 6904,
      "132-e": 6905,
      "13-dec-19": 6906,
      "##amo": 6907,
      "##amcinolone": 6908,
      "##am19q": 6909,
      "1-50": 6910,
      "146": 6911,
      "14000": 6912,
      "1450": 6913,
      "14.12.19": 6914,
      "14-dec-2019": 6915,
      "140000": 6916,
      "145.00": 6917,
      "14.40": 6918,
      "setting": 6919,
      "##ights": 6920,
      "pla": 6921,
      "ply": 6922,
      "place": 6923,
      "plain": 6924,
      "pl/in": 6925,
      "155": 6926,
      "159": 6927,
      "158": 6928,
      "1520": 6929,
      "15.00": 6930,
      "1530": 6931,
      "15.01.20": 6932,
      "15-12-2019.": 6933,
      "15.11.2019": 6934,
      "1523": 6935,
      "150000": 6936,
      "154.00": 6937,
      "15.10.2019": 6938,
      "15ec": 6939,
      "15cm": 6940,
      "##755": 6941,
      "##7594": 6942,
      "applicable": 6943,
      "##ibra": 6944,
      "##ibout": 6945,
      "applicant'": 6946,
      "ex-": 6947,
      "exten": 6948,
      "exoline": 6949,
      "##-025": 6950,
      "##-047": 6951,
      "##-049": 6952,
      "##.01.19": 6953,
      "##-19/1": 6954,
      "##-19-0": 6955,
      "##-19/0": 6956,
      "##-19101": 6957,
      "##-19-05": 6958,
      "spc": 6959,
      "spray": 6960,
      "sp/t": 6961,
      "sphc": 6962,
      "spindles": 6963,
      "spk3": 6964,
      "spp-1908": 6965,
      "spices": 6966,
      "sppl/k": 6967,
      "spelpi": 6968,
      "##602": 6969,
      "##45/": 6970,
      "steel)": 6971,
      "185": 6972,
      "18b": 6973,
      "18000": 6974,
      "18-12-2019.": 6975,
      "18-dec-2019": 6976,
      "185.00": 6977,
      "18500": 6978,
      "18/12/2019": 6979,
      "18.7": 6980,
      "18-nov-2019": 6981,
      "18-dec-2019.": 6982,
      "18.09.2019": 6983,
      "##705": 6984,
      "##704": 6985,
      "##706": 6986,
      "##7095": 6987,
      "material/sub": 6988,
      "##159": 6989,
      "##158": 6990,
      "288": 6991,
      "28.12.19": 6992,
      "285.00": 6993,
      "28-10-2019": 6994,
      "28.10.19": 6995,
      "265": 6996,
      "268": 6997,
      "26.00": 6998,
      "26000": 6999,
      "2600.00": 7000,
      "26.12.2019": 7001,
      "26/s": 7002,
      "265.00": 7003,
      "268.00": 7004,
      "26-nov-2019.": 7005,
      "26c3": 7006,
      "26-08-2019": 7007,
      "show": 7008,
      "shah": 7009,
      "shunt": 7010,
      "shawa": 7011,
      "##183": 7012,
      "##1819": 7013,
      "##1880": 7014,
      "##18-j": 7015,
      "##18.375": 7016,
      "##184.60": 7017,
      "pharmaceuticals": 7018,
      "200o": 7019,
      "200mt": 7020,
      "2007/k": 7021,
      "party": 7022,
      "paracetam": 7023,
      "##ization": 7024,
      "ref": 7025,
      "re-m": 7026,
      "recom": 7027,
      "re-re": 7028,
      "re420": 7029,
      "rectif": 7030,
      "##35e": 7031,
      "##358": 7032,
      "##356": 7033,
      "##35/2019": 7034,
      "##3562": 7035,
      "##estuario": 7036,
      "232": 7037,
      "2300.00": 7038,
      "23/0": 7039,
      "23.68": 7040,
      "##.0tx": 7041,
      "##.03.2020": 7042,
      "##owled": 7043,
      "307": 7044,
      "30/s": 7045,
      "30/12/2019": 7046,
      "30-nov-2019": 7047,
      "3099": 7048,
      "30.10.19": 7049,
      "30-09-2019": 7050,
      "##/sp": 7051,
      "##/sea": 7052,
      "##/sca": 7053,
      "##/slc": 7054,
      "##/srm": 7055,
      "##/sobs": 7056,
      "##cl)": 7057,
      "##clusive": 7058,
      "sheik": 7059,
      "##2225": 7060,
      "##22/19": 7061,
      "##22-a": 7062,
      "##223/": 7063,
      "##142": 7064,
      "##144": 7065,
      "##tsop-": 7066,
      "##-december": 7067,
      "##/20/000": 7068,
      "##ers/": 7069,
      "m/s.da": 7070,
      "sc/5": 7071,
      "scann": 7072,
      "scrub": 7073,
      "##ova": 7074,
      "##oval": 7075,
      "##902": 7076,
      "##909": 7077,
      "##908": 7078,
      "##9021": 7079,
      "03-dec-2019": 7080,
      "03-01-2020.": 7081,
      "mineral": 7082,
      "01/0": 7083,
      "01-jan-2020": 7084,
      "01.10.19": 7085,
      "##65mm": 7086,
      "##652.00": 7087,
      "##65m)": 7088,
      "piv": 7089,
      "pima": 7090,
      "pi-s": 7091,
      "pi/o": 7092,
      "pi2020010": 7093,
      "pi-pak": 7094,
      "##ight)": 7095,
      "##239": 7096,
      "##238": 7097,
      "##237": 7098,
      "##23.00": 7099,
      "##23.49": 7100,
      "##23nn": 7101,
      "seaport/any": 7102,
      "seaport/airport": 7103,
      "2019-": 7104,
      "2019-2020": 7105,
      "2019ry": 7106,
      "201921": 7107,
      "(16": 7108,
      "(1000": 7109,
      "(160": 7110,
      "##und": 7111,
      "##un-f": 7112,
      "##unication": 7113,
      "##unsea": 7114,
      "294": 7115,
      "296.00": 7116,
      "292400": 7117,
      "29-32": 7118,
      "##178": 7119,
      "##176": 7120,
      "##1319": 7121,
      "##1300.00": 7122,
      "##1330": 7123,
      "##13a.": 7124,
      "blend": 7125,
      "blusher": 7126,
      "##iph": 7127,
      "##ip19/12": 7128,
      "##ipurpos": 7129,
      "##8589": 7130,
      "##00005": 7131,
      "02-jan": 7132,
      "02-jan-2020.": 7133,
      "02.01.19": 7134,
      "##aprint": 7135,
      "##apam19q": 7136,
      "22b": 7137,
      "22206": 7138,
      "##/pk": 7139,
      "##/pf": 7140,
      "##/p-c": 7141,
      "##/prm": 7142,
      "adb": 7143,
      "brt": 7144,
      "##951": 7145,
      "paperbo": 7146,
      "paper-oc": 7147,
      "06-12-2019.": 7148,
      "06-nov-2019": 7149,
      "06-jan-2020.": 7150,
      "tongue": 7151,
      "tonello": 7152,
      "nevia": 7153,
      "syz19": 7154,
      "##28/2019": 7155,
      "##ife": 7156,
      "##ify": 7157,
      "##467": 7158,
      "##466": 7159,
      "##460.00": 7160,
      "##4660": 7161,
      "##4696": 7162,
      "denier": 7163,
      "mount": 7164,
      "percent)": 7165,
      "percent/": 7166,
      "09.11.19": 7167,
      "09.10.19": 7168,
      "09-12-19": 7169,
      "278": 7170,
      "27.00": 7171,
      "27000": 7172,
      "2710": 7173,
      "270.00": 7174,
      "27-12-2019": 7175,
      "27000.00": 7176,
      "272.": 7177,
      "279.00": 7178,
      "27.09.19": 7179,
      "roller": 7180,
      "##261": 7181,
      "##269": 7182,
      "##268": 7183,
      "##263": 7184,
      "##2635": 7185,
      "##26-mt": 7186,
      "allied": 7187,
      "specification(": 7188,
      "5032": 7189,
      "50ml": 7190,
      "50400.00": 7191,
      "tool": 7192,
      "toys": 7193,
      "touch": 7194,
      "toatl": 7195,
      "##osul": 7196,
      "##oscope": 7197,
      "08-11-2019.": 7198,
      "08-10-2019.": 7199,
      "08-november-2019": 7200,
      "##rystal": 7201,
      "##-105": 7202,
      "##-1050-ii": 7203,
      "##/04": 7204,
      "##/019": 7205,
      "##/062": 7206,
      "##/082": 7207,
      "##/09/2019": 7208,
      "thy": 7209,
      "thar": 7210,
      "then": 7211,
      "thai": 7212,
      "thous": 7213,
      "therapeutic": 7214,
      "##add": 7215,
      "##adin-s": 7216,
      "max)": 7217,
      "##/12/2020": 7218,
      "##/cw": 7219,
      "##/cast": 7220,
      "##/cpo": 7221,
      "##/cng": 7222,
      "##/carton": 7223,
      "##/017": 7224,
      "##+++": 7225,
      "##163": 7226,
      "##16.00": 7227,
      "##1601": 7228,
      "##1201": 7229,
      "##12030": 7230,
      "stahl": 7231,
      "04.01.20": 7232,
      "04/12/2019": 7233,
      "##294": 7234,
      "##298": 7235,
      "##2911": 7236,
      "##29.10.2019": 7237,
      "##iao": 7238,
      "##iaz": 7239,
      "##1001": 7240,
      "##sm)": 7241,
      "##smission": 7242,
      "##astol": 7243,
      "##38/2019": 7244,
      "##3899": 7245,
      "2010.00": 7246,
      "##aixin": 7247,
      "3.7": 7248,
      "3.40": 7249,
      "3.25": 7250,
      "3.45": 7251,
      "defect": 7252,
      "devel": 7253,
      "##486": 7254,
      "##472": 7255,
      "##474": 7256,
      "standards": 7257,
      "07.12.19": 7258,
      "07.12.2019": 7259,
      "07126": 7260,
      "##-natural": 7261,
      "##324": 7262,
      "##3230": 7263,
      "lbs(usd": 7264,
      "##274": 7265,
      "##277": 7266,
      "##/008": 7267,
      "##p-3": 7268,
      "##-004": 7269,
      "##-009": 7270,
      "##-007": 7271,
      "##-003": 7272,
      "##-0001": 7273,
      "##berth": 7274,
      "carbox": 7275,
      "cartrid": 7276,
      "##ixed": 7277,
      "##omat": 7278,
      "##ometer": 7279,
      "##om/slc": 7280,
      "##964": 7281,
      "##9685": 7282,
      "##966hpt": 7283,
      "##886": 7284,
      "coated)": 7285,
      "mod.": 7286,
      "##766": 7287,
      "arti": 7288,
      "##ivr": 7289,
      "##ived": 7290,
      "##ivity": 7291,
      "##ain)": 7292,
      "##''3.5": 7293,
      "ppakistan": 7294,
      "##4400": 7295,
      "##44184.60": 7296,
      "coil(max": 7297,
      "soap": 7298,
      "sock": 7299,
      "##33.": 7300,
      "##33.00": 7301,
      "cdx": 7302,
      "##4.4090": 7303,
      "##dazole": 7304,
      "##191220": 7305,
      "##191219": 7306,
      "##191210": 7307,
      "##191218": 7308,
      "##191213": 7309,
      "##-spel": 7310,
      "dated.29.10.2019": 7311,
      "21-dec-2019": 7312,
      "21-11-2019.": 7313,
      "31.12.19": 7314,
      "31.10.19": 7315,
      "4.9": 7316,
      "4.40": 7317,
      "4.70": 7318,
      "4.16": 7319,
      "4.76": 7320,
      "4.83": 7321,
      "##ios)": 7322,
      "##iopia": 7323,
      "##.19807": 7324,
      "##-150": 7325,
      "##-1/2": 7326,
      "3-25)": 7327,
      "70d": 7328,
      "70.50": 7329,
      "reser": 7330,
      "##539": 7331,
      "##ocaine": 7332,
      "##862": 7333,
      "fabric.": 7334,
      "crd": 7335,
      "##43.00": 7336,
      "##43-x": 7337,
      "##/karachi": 7338,
      "##9350": 7339,
      "##937095": 7340,
      "##ella": 7341,
      "track": 7342,
      "usp40": 7343,
      "boards": 7344,
      "specifications(mm)": 7345,
      "valve": 7346,
      "valves": 7347,
      "(300": 7348,
      "equirab": 7349,
      "equine)": 7350,
      "##/m-c": 7351,
      "007": 7352,
      "003": 7353,
      "382.00": 7354,
      "seven": 7355,
      "byco": 7356,
      "drc": 7357,
      "##/order": 7358,
      "##-pi": 7359,
      "##-penta": 7360,
      "##799": 7361,
      "##79/2019": 7362,
      "##79/0": 7363,
      "print": 7364,
      "(pvt)ltd": 7365,
      "(g1": 7366,
      "(g2)": 7367,
      "(gemicit": 7368,
      "log": 7369,
      "whip": 7370,
      "which": 7371,
      "##5838": 7372,
      "##5844": 7373,
      "96.00": 7374,
      "962.": 7375,
      "ame": 7376,
      "ampro": 7377,
      "amend": 7378,
      "amx-510": 7379,
      "clip": 7380,
      "slm": 7381,
      "sles": 7382,
      "slight": 7383,
      "150/48f": 7384,
      "60-60": 7385,
      "60-40": 7386,
      "le6607": 7387,
      "##2.1000": 7388,
      "##1125": 7389,
      "##/green": 7390,
      "##mppt": 7391,
      "##-r299": 7392,
      "##-rs4": 7393,
      "##-az": 7394,
      "##3.65m)": 7395,
      "##yc-penta": 7396,
      "assemb": 7397,
      "40d": 7398,
      "40-d": 7399,
      "40937095": 7400,
      "discription": 7401,
      "sko": 7402,
      "skin": 7403,
      "sd)": 7404,
      "sdgz": 7405,
      "##894": 7406,
      "##89-x": 7407,
      "##631cf": 7408,
      "##zolamide": 7409,
      "##sc19": 7410,
      "##sc12": 7411,
      "##sc-26": 7412,
      "##opments": 7413,
      "##op/it": 7414,
      "##opolymer": 7415,
      "##.250": 7416,
      "##.2mm": 7417,
      "##-210a": 7418,
      "##-300": 7419,
      "##-3001": 7420,
      "##191118": 7421,
      "##191114": 7422,
      "ahl/part": 7423,
      "ahl/misc": 7424,
      "ahl/sp": 7425,
      "ahl/cast": 7426,
      "75000.00": 7427,
      "75.30": 7428,
      "75/36f": 7429,
      "75.84": 7430,
      "891a": 7431,
      "8900000": 7432,
      "sole": 7433,
      "##6230": 7434,
      "##67mm": 7435,
      "##67bcr": 7436,
      "##eltam": 7437,
      "gluco": 7438,
      "global": 7439,
      "mica": 7440,
      "inclinning": 7441,
      "##/12/2019.": 7442,
      "genset": 7443,
      "sulf": 7444,
      "sulbactam": 7445,
      "##.72": 7446,
      "##42bcr": 7447,
      "##/badar": 7448,
      "##/bluel": 7449,
      "##392": 7450,
      "##398": 7451,
      "35000": 7452,
      "3500.00": 7453,
      "##-983": 7454,
      "##87/19": 7455,
      "##87-e": 7456,
      "brand'": 7457,
      "(550": 7458,
      "(5/14": 7459,
      "8040": 7460,
      "80-80": 7461,
      "about": 7462,
      "door": 7463,
      "do04": 7464,
      "doctor": 7465,
      "##41.00": 7466,
      "##4170": 7467,
      "##125/g/2019": 7468,
      "125000": 7469,
      "125mm": 7470,
      "(w)": 7471,
      "basetone": 7472,
      "reducing": 7473,
      "redispers": 7474,
      "##02k": 7475,
      "##0265": 7476,
      "##-mil-1911": 7477,
      "##-modules": 7478,
      "cardiac": 7479,
      "desi": 7480,
      "design": 7481,
      "monit": 7482,
      "prepar": 7483,
      "prepolymer": 7484,
      "insert": 7485,
      "inspect": 7486,
      "insurance": 7487,
      "##itional": 7488,
      "chinese/": 7489,
      "drums)": 7490,
      "generating": 7491,
      "(fob": 7492,
      "(fc)": 7493,
      "5.80": 7494,
      "5.35": 7495,
      "bormed": 7496,
      "flash": 7497,
      "flxc": 7498,
      "makrol": 7499,
      "remote": 7500,
      "##/rr": 7501,
      "##/rus/2019": 7502,
      "##allet": 7503,
      "configuration": 7504,
      "118n": 7505,
      "118.93": 7506,
      "contains": 7507,
      "sulphate)": 7508,
      "(resistor": 7509,
      "300000": 7510,
      "300mg": 7511,
      "90.70": 7512,
      "itema": 7513,
      "##/3/50": 7514,
      "##prid": 7515,
      "##pc-az": 7516,
      "''nan": 7517,
      "''apl": 7518,
      "''dins": 7519,
      "(hi-pro": 7520,
      "turq": 7521,
      "turbine": 7522,
      "##e)(": 7523,
      "##ounded": 7524,
      "##/5ml": 7525,
      "##/110": 7526,
      "##/11/19": 7527,
      "##/dec/19": 7528,
      "noshad": 7529,
      "combiset": 7530,
      "100003230": 7531,
      "conditions": 7532,
      "(size": 7533,
      "(sodium": 7534,
      "(sapt)": 7535,
      "(short": 7536,
      "(sunsea": 7537,
      "(lme": 7538,
      "400/3/50": 7539,
      "400097": 7540,
      "calc": 7541,
      "calculated": 7542,
      "gr)": 7543,
      "np-82": 7544,
      "silastol": 7545,
      "sub-modules": 7546,
      "web": 7547,
      "wego": 7548,
      "##2bn": 7549,
      "##101001": 7550,
      "##d/exp/2": 7551,
      "##200102": 7552,
      "##2001043-x": 7553,
      "##/191219": 7554,
      "2110.29": 7555,
      "657.50": 7556,
      "61738": 7557,
      "sera": 7558,
      "series": 7559,
      "servo": 7560,
      "##ensions": 7561,
      "##ensers/": 7562,
      "newly": 7563,
      "51005317": 7564,
      "(injection": 7565,
      "792.00": 7566,
      "clevis": 7567,
      "sait": 7568,
      "##2419": 7569,
      "##.4000": 7570,
      "##kdj": 7571,
      "##191205": 7572,
      "##191207": 7573,
      "color)": 7574,
      "chlorinated": 7575,
      "transformer": 7576,
      "1015": 7577,
      "10107": 7578,
      "60007594": 7579,
      "fb5600": 7580,
      "mg)": 7581,
      "mgb": 7582,
      "pannox": 7583,
      "supima": 7584,
      "suprase": 7585,
      "year-2019/20": 7586,
      "##972": 7587,
      "##9700": 7588,
      "##1909": 7589,
      "additional": 7590,
      "pfi-0045": 7591,
      "pfi-0035": 7592,
      "3250": 7593,
      "92-21": 7594,
      "hp40": 7595,
      "hpu18": 7596,
      "swap": 7597,
      "ultim": 7598,
      "##ogram": 7599,
      "##oglob": 7600,
      "##-woven": 7601,
      "invoice/cont": 7602,
      "0.56": 7603,
      "0.540": 7604,
      "pi00368": 7605,
      "(csm)": 7606,
      "(dpp": 7607,
      "46.50": 7608,
      "463562": 7609,
      "8523.49": 7610,
      "cefoper": 7611,
      "cefotax": 7612,
      "four": 7613,
      "foam": 7614,
      "footwear": 7615,
      "heidelber": 7616,
      "ht031": 7617,
      "pumps": 7618,
      "##tx145": 7619,
      "##tx3.65m)": 7620,
      "##pi1912": 7621,
      "##-bb": 7622,
      "##71)": 7623,
      "##71/2019": 7624,
      "label": 7625,
      "labels": 7626,
      "carton)": 7627,
      "220kv": 7628,
      "956934": 7629,
      "elastic": 7630,
      "el535": 7631,
      "elaspan": 7632,
      "##1bs": 7633,
      "##ofloxacin": 7634,
      "##oflav": 7635,
      "##k-d": 7636,
      "##k-revised": 7637,
      "##7895": 7638,
      "2008475": 7639,
      "partial": 7640,
      "regular": 7641,
      "regulator": 7642,
      "register": 7643,
      "##/pi/19": 7644,
      "3300.00": 7645,
      "330000": 7646,
      "3300026": 7647,
      "450c": 7648,
      "non-woven": 7649,
      "twill": 7650,
      "titanpro": 7651,
      "##-xf": 7652,
      "##-80-46": 7653,
      "##-2009": 7654,
      "##-2002000": 7655,
      "##-200113": 7656,
      "##20191212": 7657,
      "chromium": 7658,
      "comprised": 7659,
      "6648": 7660,
      "74.75": 7661,
      "74.250": 7662,
      "ctg": 7663,
      "flyers": 7664,
      "flyerz": 7665,
      "sgd": 7666,
      "##/lhr": 7667,
      "##/vp-ga/19": 7668,
      "##/wso": 7669,
      "##191122": 7670,
      "##191128": 7671,
      "##191126": 7672,
      "methyl": 7673,
      "micronised": 7674,
      "finish.": 7675,
      "finishing": 7676,
      "panels": 7677,
      "supplied": 7678,
      "3700": 7679,
      "3650": 7680,
      "36mg": 7681,
      "4550": 7682,
      "7.45": 7683,
      "ft6236": 7684,
      "ft6230": 7685,
      "hosiery": 7686,
      "hongkong": 7687,
      "me4": 7688,
      "meh": 7689,
      "meal": 7690,
      "mega": 7691,
      "single": 7692,
      "vin/3": 7693,
      "##azone": 7694,
      "##4-36": 7695,
      "##6990": 7696,
      "spinning'": 7697,
      "##/s/09020": 7698,
      "minimum)": 7699,
      "##/010/hmc/2019-20": 7700,
      "##/010/cgc/2019-20": 7701,
      "sealed": 7702,
      "sealing": 7703,
      "sealable": 7704,
      "levetir": 7705,
      "levofloxacin": 7706,
      "mould.": 7707,
      "##mmx1.0tx": 7708,
      "76.2mm": 7709,
      "cps/00": 7710,
      "epineph": 7711,
      "epiao": 7712,
      "ethylhexanol": 7713,
      "ethiopia": 7714,
      "h1030": 7715,
      "hydraulic": 7716,
      "irpc-az": 7717,
      "lcd": 7718,
      "lcyc-penta": 7719,
      "latest": 7720,
      "##sius": 7721,
      "##sika": 7722,
      "##tg2": 7723,
      "inverters": 7724,
      "1.59": 7725,
      "##/001/2019": 7726,
      "##/001/2020": 7727,
      "electronic": 7728,
      "5640250": 7729,
      "9.3": 7730,
      "9.85": 7731,
      "arab": 7732,
      "blow-off": 7733,
      "blower/components": 7734,
      "glycer": 7735,
      "rgd/exp/2": 7736,
      "tankrom": 7737,
      "techno": 7738,
      "##spindles": 7739,
      "##b/op/it": 7740,
      "##flets)": 7741,
      "1.0mm": 7742,
      "0.9mm": 7743,
      "boxes/": 7744,
      "##/rbdpoln11": 7745,
      "cleaned": 7746,
      "xpk-tr9112": 7747,
      "##mmx1.2x180": 7748,
      "3.05": 7749,
      "4955": 7750,
      "49500": 7751,
      "495.00": 7752,
      "49553": 7753,
      "8504.4090": 7754,
      "bitartr": 7755,
      "furnit": 7756,
      "pfgd": 7757,
      "##561": 7758,
      "##i-dull": 7759,
      "##iolo": 7760,
      "##sole": 7761,
      "##.a.": 7762,
      "##.a00": 7763,
      "##/fel": 7764,
      "##0081": 7765,
      "november": 7766,
      "novibra": 7767,
      "propanol": 7768,
      "propanediol": 7769,
      "antique": 7770,
      "commission": 7771,
      "communication": 7772,
      "19/s/079": 7773,
      "19/s/09020": 7774,
      "19/s/09021": 7775,
      "la880wt-11bk03": 7776,
      "0.20mm": 7777,
      "##/18-19": 7778,
      "##200002": 7779,
      "14940.00": 7780,
      "revised": 7781,
      "99.99": 7782,
      "deodorized": 7783,
      "microscopes": 7784,
      "microfib": 7785,
      "marked": 7786,
      "hydrous": 7787,
      "(tfc)": 7788,
      "(taixin": 7789,
      "(plain)": 7790,
      "120.96": 7791,
      "1195.00": 7792,
      "34.10": 7793,
      "396.00": 7794,
      "51187": 7795,
      "665.00": 7796,
      "77000/mt": 7797,
      "busan": 7798,
      "ccw": 7799,
      "hook": 7800,
      "hygen": 7801,
      "l-isol": 7802,
      "lightly": 7803,
      "outsole": 7804,
      "ptfe": 7805,
      "rhodimet": 7806,
      "s.tax": 7807,
      "trailers": 7808,
      "testing": 7809,
      "wool": 7810,
      "wooven": 7811,
      "##l/200l": 7812,
      "##/32''": 7813,
      "##/32/32": 7814,
      "##07009": 7815,
      "##gi/19/0": 7816,
      "19.12.2019.": 7817,
      "116.8": 7818,
      "116/14": 7819,
      "2.57": 7820,
      "purposes": 7821,
      "##455mm": 7822,
      "thxpk19318": 7823,
      "2018-2019": 7824,
      "##/kbm": 7825,
      "loadport": 7826,
      "medicaine": 7827,
      "items": 7828,
      "790005455": 7829,
      "790005453": 7830,
      "certification": 7831,
      "sjzst19.00": 7832,
      "tj530-015b": 7833,
      "tj530-natural": 7834,
      "##mmx1.2tx455mm": 7835,
      "##/sdl/1912/cpo": 7836,
      "jtgjrz-rz2001043-x": 7837,
      "130.19807": 7838,
      "4.545": 7839,
      "4.546": 7840,
      "52''": 7841,
      "78000": 7842,
      "950-1000": 7843,
      "digit": 7844,
      "feet": 7845,
      "fe8000": 7846,
      "gsbn8": 7847,
      "hole": 7848,
      "hollow": 7849,
      "hologram": 7850,
      "impreg": 7851,
      "mangnese": 7852,
      "s12077": 7853,
      "s12089": 7854,
      "tpu": 7855,
      "taixing": 7856,
      "zippers": 7857,
      "##/faiz": 7858,
      "##73/2019": 7859,
      "##61p/": 7860,
      "##orsk": 7861,
      "0.30x7": 7862,
      "##-05102019-rev": 7863,
      "##-08-2019.": 7864,
      "spark": 7865,
      "spiral": 7866,
      "##/sub-components": 7867,
      "##/sub-ass": 7868,
      "2200034": 7869,
      "soe/20": 7870,
      "##-r1g3": 7871,
      "cg125s": 7872,
      "20084787-e": 7873,
      "420111065": 7874,
      "0.0033": 7875,
      "0.00375": 7876,
      "347102": 7877,
      "440920": 7878,
      "63000.00": 7879,
      "6336.00": 7880,
      "60000.00": 7881,
      "786/d": 7882,
      "building": 7883,
      "beriplast": 7884,
      "berth(s)": 7885,
      "bangladesh": 7886,
      "cystone": 7887,
      "ds-1911": 7888,
      "efficiency": 7889,
      "jf-3001": 7890,
      "jf-2009": 7891,
      "mcapam19q": 7892,
      "mago": 7893,
      "magnes": 7894,
      "oxol": 7895,
      "small": 7896,
      "semi-dull": 7897,
      "s/sdl/1912/sdl/1912/cpo": 7898,
      "triclaben": 7899,
      "ws18": 7900,
      "##460mm": 7901,
      "##herals": 7902,
      "##/253": 7903,
      "##-dated.": 7904,
      "##-5040": 7905,
      "##-1472": 7906,
      "##-238": 7907,
      "##-mtli": 7908,
      "##acetical": 7909,
      "profile": 7910,
      "profoma": 7911,
      "connector": 7912,
      "1.7t": 7913,
      "1.775": 7914,
      "##logger": 7915,
      "##-01-20.": 7916,
      "100000)": 7917,
      "primorsk": 7918,
      "plants": 7919,
      "##-04-2019.": 7920,
      "shoe": 7921,
      "shoes": 7922,
      "should": 7923,
      "##.07.2019": 7924,
      "##.06.19": 7925,
      "pallets": 7926,
      "double-br": 7927,
      "pfi-th-thal": 7928,
      "pfi-th-spel": 7929,
      "pfi-th-mtli": 7930,
      "##mmx2mm": 7931,
      "3901.4000": 7932,
      "8517.6990": 7933,
      "ahtl/part/010": 7934,
      "ahtl/part/011": 7935,
      "xpk-map20010": 7936,
      "xpk-map912": 7937,
      "##+++++++++++++++++++": 7938,
      "2200501": 7939,
      "2200563": 7940,
      "25.4mmx1.2tx1301": 7941,
      "25.4mmx1.2tx840mm": 7942,
      "25.4mmx1.2tx460mm": 7943,
      "multipurpos": 7944,
      "ex-workstrev": 7945,
      "(eq-m": 7946,
      "(vestuario": 7947,
      "380v": 7948,
      "3902.1000": 7949,
      "bodies": 7950,
      "benzoate": 7951,
      "ce(p)g": 7952,
      "celzar": 7953,
      "celsius": 7954,
      "dhfz": 7955,
      "drawn": 7956,
      "fsl/b": 7957,
      "hm200107": 7958,
      "hd631cf": 7959,
      "hvi": 7960,
      "lm-l": 7961,
      "pel/af": 7962,
      "pel/badar": 7963,
      "sn-35": 7964,
      "s16642": 7965,
      "t19jz": 7966,
      "tele": 7967,
      "triamcinolone": 7968,
      "tube": 7969,
      "welding": 7970,
      "washing": 7971,
      "##170t2-11bk03": 7972,
      "##moiz": 7973,
      "##x6s": 7974,
      "##x620mm": 7975,
      "##eucine": 7976,
      "##l-add": 7977,
      "##p/9b": 7978,
      "##-(89": 7979,
      "##(+/-10)": 7980,
      "##alvanized": 7981,
      "##eased": 7982,
      "covered": 7983,
      "20.18": 7984,
      "1.930": 7985,
      "190392": 7986,
      "0.078": 7987,
      "0.0324": 7988,
      "0.860": 7989,
      "17550.00": 7990,
      "178b": 7991,
      "14.35": 7992,
      "soya": 7993,
      "soybeans": 7994,
      "##/ksd/001/2019": 7995,
      "classic": 7996,
      "strips": 7997,
      "61740748": 7998,
      "61740747": 7999,
      "pfi-00448": 8000,
      "swrh67bcr": 8001,
      "swrh42bcr": 8002,
      "(bci)": 8003,
      "(bci+r.": 8004,
      "acg190013": 8005,
      "superfine": 8006,
      "supermarket": 8007,
      "vin/1126/g/2019": 8008,
      "x675tpcr-r299": 8009,
      "x675tpcr-r1g3": 8010,
      "14936g": 8011,
      "gaipl/s/1219/rbdpoln11": 8012,
      "1-1/8''3.5": 8013,
      "##/pc/pak/01": 8014,
      "hgx-030sp": 8015,
      "s/93/20/000": 8016,
      "(220460": 8017,
      "(220460.00": 8018,
      "+/-": 8019,
      "01416": 8020,
      "222.75": 8021,
      "368a": 8022,
      "410200": 8023,
      "5502bn": 8024,
      "514.250": 8025,
      "73.149": 8026,
      "87o00": 8027,
      "8.0mmx1.0tx": 8028,
      "better": 8029,
      "daltof": 8030,
      "dalgak": 8031,
      "ebm": 8032,
      "fa6767": 8033,
      "faisalab": 8034,
      "fgwil": 8035,
      "g3131": 8036,
      "gf/fel": 8037,
      "gross": 8038,
      "group": 8039,
      "hemihydrate": 8040,
      "hemodialysis": 8041,
      "home": 8042,
      "homopolymer": 8043,
      "ihs": 8044,
      "iu/vial)": 8045,
      "iu/5ml": 8046,
      "jsc-46": 8047,
      "l/c.": 8048,
      "loc/100": 8049,
      "nt-11": 8050,
      "n-ethyl": 8051,
      "n-anti": 8052,
      "poliester": 8053,
      "p6006n": 8054,
      "relev": 8055,
      "riboflav": 8056,
      "srmpi": 8057,
      "soda": 8058,
      "sodra": 8059,
      "tiles": 8060,
      "t2.5ba": 8061,
      "works": 8062,
      "y-zip": 8063,
      "y-zipper": 8064,
      "ztml": 8065,
      "##x765mm": 8066,
      "##op-p-": 8067,
      "##hpat": 8068,
      "##l/bgi/19/0": 8069,
      "##/75/75": 8070,
      "##packing": 8071,
      "##-35147": 8072,
      "##binant": 8073,
      "##culated)": 8074,
      "##19935": 8075,
      "no.19/s/09020": 8076,
      "##20191127": 8077,
      "##-20191206": 8078,
      "##0002/00": 8079,
      "##obalamin": 8080,
      "1.8ml": 8081,
      "195000": 8082,
      "19r4038": 8083,
      "19r4170": 8084,
      "0.499": 8085,
      "17584.00": 8086,
      "17582.40": 8087,
      "ace/0": 8088,
      "grammage": 8089,
      "13644": 8090,
      "1-3/32''": 8091,
      "15.88": 8092,
      "18944184.60": 8093,
      "##1801008": 8094,
      "recoverd": 8095,
      "recovered": 8096,
      "2900529": 8097,
      "##13012020": 8098,
      "bles-4": 8099,
      "22.2mmx1.2x180": 8100,
      "22.2mmx1.2tx455mm": 8101,
      "adjusted": 8102,
      "adjustment": 8103,
      "9943000": 8104,
      "transmission": 8105,
      "dispenser": 8106,
      "dispensers/": 8107,
      "discount": 8108,
      "discofix": 8109,
      "##-fcl-2019": 8110,
      "##-fcl-2020": 8111,
      "ins/12200019": 8112,
      "##/311225": 8113,
      "granular": 8114,
      "additive": 8115,
      "additives": 8116,
      "hp0823j": 8117,
      "hp0823nn": 8118,
      "pulp-18.375": 8119,
      "##noxicam": 8120,
      "2204600": 8121,
      "20084801": 8122,
      "compressed": 8123,
      "compression": 8124,
      "tolerance)": 8125,
      "la880tr-2": 8126,
      "gaipl/s/0120/rbdoln115853": 8127,
      "s.b.r.": 8128,
      "s.b.r": 8129,
      "34710224": 8130,
      "buyer.": 8131,
      "8517.6270": 8132,
      "8517.6290": 8133,
      "##(length)x765mm": 8134,
      "141613456": 8135,
      "141613462": 8136,
      "secondary": 8137,
      "discrepant.": 8138,
      "8102856": 8139,
      "81028567": 8140,
      "h19sw07009": 8141,
      "jlp20g": 8142,
      "jlp19g": 8143,
      "o-ring(s)": 8144,
      "ue-902b": 8145,
      "ue-902a": 8146,
      "respectivels": 8147,
      "respectively": 8148,
      "svpst/pi/19-20/0": 8149,
      "'a'": 8150,
      "(acid": 8151,
      "(clay": 8152,
      "(black": 8153,
      "(compacted)": 8154,
      "-2019.": 8155,
      "/12377": 8156,
      "0o0o2014": 8157,
      "1/80s": 8158,
      "140/75/75": 8159,
      "218.29": 8160,
      "340/32/32": 8161,
      "395.00": 8162,
      "522.00": 8163,
      "63.70": 8164,
      "758.00": 8165,
      "910088": 8166,
      "bdcom": 8167,
      "bobbin": 8168,
      "bandage": 8169,
      "bromobutyl": 8170,
      "ci4/s": 8171,
      "c.f.": 8172,
      "cables": 8173,
      "djibout": 8174,
      "document": 8175,
      "fntt": 8176,
      "f04660": 8177,
      "flavor": 8178,
      "harvest": 8179,
      "h-612": 8180,
      "ibc": 8181,
      "knife": 8182,
      "klang": 8183,
      "lk19120": 8184,
      "lornoxicam": 8185,
      "leaflets)": 8186,
      "longrod-ins": 8187,
      "luggage": 8188,
      "myco": 8189,
      "n07929": 8190,
      "nitric": 8191,
      "oc2019": 8192,
      "operating": 8193,
      "penc": 8194,
      "pleater": 8195,
      "rnc": 8196,
      "ryzd": 8197,
      "sorbitol": 8198,
      "tazobactam": 8199,
      "vxl/bgi/19/0": 8200,
      "wnr": 8201,
      "wc-60": 8202,
      "yara": 8203,
      "##x20fcl": 8204,
      "##.6mm": 8205,
      "##pbml": 8206,
      "##p00y4j": 8207,
      "##-75mm-6": 8208,
      "##6r-": 8209,
      "##(gf)": 8210,
      "ask/45": 8211,
      "usa19-0": 8212,
      "##itomo": 8213,
      "port(s)/": 8214,
      "antiserum": 8215,
      "country": 8216,
      "ortho": 8217,
      "detector": 8218,
      "104.79": 8219,
      "##loc-10": 8220,
      "##ushed": 8221,
      "la611tpcr-201b": 8222,
      "polyproplene": 8223,
      "0.39350": 8224,
      "0.90w/kg": 8225,
      "pharmacetical": 8226,
      "##/162/19": 8227,
      "24612.00": 8228,
      "24mts)": 8229,
      "platform": 8230,
      "exxonmob": 8231,
      "received": 8232,
      "##/sgs-coc-006": 8233,
      "01-03-2020.": 8234,
      "piperacill": 8235,
      "pi/gcl": 8236,
      "computer": 8237,
      "moderlan": 8238,
      "506p": 8239,
      "so0353": 8240,
      "resistivity": 8241,
      "(440920": 8242,
      "sulphonamide": 8243,
      "90726": 8244,
      "it/lsc": 8245,
      "(medical": 8246,
      "hp1102k": 8247,
      "surface": 8248,
      "htv-ahl": 8249,
      "networking": 8250,
      "3100049685": 8251,
      "dtex/51mm": 8252,
      "suitable": 8253,
      "technical": 8254,
      "xpk-tr2001080": 8255,
      "1.4dtex/51": 8256,
      "la880t-015b": 8257,
      "tp/rm/6200004": 8258,
      "sc-idhpk19012": 8259,
      "3901.2000)": 8260,
      "jtgjrz-rz19121289-x": 8261,
      "cpcm40s/1": 8262,
      "gml/ai/133": 8263,
      "gaipl/s/1219/rbdoln114696": 8264,
      "s/93/19/007": 8265,
      "cheese-z7205": 8266,
      "sbr/dept.c/58": 8267,
      "dialyzer": 8268,
      "fittings": 8269,
      "jsddd12114": 8270,
      "l-p.i/2": 8271,
      "mrc/sales/export/2019/12": 8272,
      "netherlands": 8273,
      "ucf/19/10-27": 8274,
      "##/ibm/2019-fc": 8275,
      "##/february-20": 8276,
      "amd/sc/329": 8277,
      "ahl-cg125-040": 8278,
      "hvsp-a191223": 8279,
      "'lotrene'": 8280,
      "(qict)": 8281,
      "(rabies": 8282,
      "(yla)": 8283,
      "(empty": 8284,
      "(nitration": 8285,
      "(calculated)": 8286,
      "(copper": 8287,
      "+mortuary": 8288,
      "++++++++++++++++++++++++++++++++++++": 8289,
      "/contract": 8290,
      "090-23": 8291,
      "1/4)": 8292,
      "217.08": 8293,
      "41-4-36": 8294,
      "54432": 8295,
      "5010503": 8296,
      "58/60": 8297,
      "62000045": 8298,
      "732mm": 8299,
      "736.6mm": 8300,
      "753.00": 8301,
      "777.50": 8302,
      "767.28": 8303,
      "72332-74": 8304,
      "8791.20": 8305,
      "@ibc": 8306,
      "axtra": 8307,
      "aft(id": 8308,
      "auxili": 8309,
      "bc-l": 8310,
      "birlac": 8311,
      "bergamo": 8312,
      "b5429": 8313,
      "cutter": 8314,
      "cultus": 8315,
      "df-5040": 8316,
      "dzire": 8317,
      "derugan": 8318,
      "dorzolamide": 8319,
      "diluting": 8320,
      "dimensions": 8321,
      "dapaglif": 8322,
      "dextro": 8323,
      "ezlogger": 8324,
      "est3": 8325,
      "erythrop": 8326,
      "e02l": 8327,
      "emerald": 8328,
      "e/ou": 8329,
      "fj00952": 8330,
      "fatty": 8331,
      "female": 8332,
      "foshan": 8333,
      "f2111bs": 8334,
      "gj19": 8335,
      "gloves": 8336,
      "garnish": 8337,
      "g-mip19/12": 8338,
      "habib": 8339,
      "hfae19": 8340,
      "hps-68": 8341,
      "hteom/slc": 8342,
      "hsfo": 8343,
      "iodine": 8344,
      "immunoglob": 8345,
      "june": 8346,
      "jubail": 8347,
      "joc4a19": 8348,
      "jaf-": 8349,
      "kotlak": 8350,
      "k245-20": 8351,
      "letter": 8352,
      "lidocaine": 8353,
      "lithium": 8354,
      "loss": 8355,
      "liv.52": 8356,
      "lonsperse": 8357,
      "lacquered": 8358,
      "m061p/": 8359,
      "mirinda": 8360,
      "margarine": 8361,
      "mecobalamin": 8362,
      "maleate": 8363,
      "masterbatch": 8364,
      "nbsk": 8365,
      "nasa": 8366,
      "olien": 8367,
      "o/o)": 8368,
      "p.o.": 8369,
      "pellets": 8370,
      "p-vam": 8371,
      "qspa": 8372,
      "q-smart": 8373,
      "qte-19-05": 8374,
      "rx-300": 8375,
      "r665": 8376,
      "robol": 8377,
      "r50035e": 8378,
      "r-687": 8379,
      "r407c": 8380,
      "renoir": 8381,
      "s033.": 8382,
      "sedol": 8383,
      "sob-2002000": 8384,
      "sumitomo": 8385,
      "sugar": 8386,
      "s12570.00": 8387,
      "sieve": 8388,
      "sxbx": 8389,
      "s2197": 8390,
      "ttca": 8391,
      "tksc19": 8392,
      "treatment": 8393,
      "trolley": 8394,
      "tkg-mil-1911": 8395,
      "tso1801008": 8396,
      "tieraprint": 8397,
      "vt191224": 8398,
      "virgin": 8399,
      "vessel": 8400,
      "vermicul": 8401,
      "veterinary": 8402,
      "waukesh": 8403,
      "xrp170t2-11bk03": 8404,
      "yhsc-26": 8405,
      "yantian": 8406,
      "##5pct)": 8407,
      "##r-174(": 8408,
      "##x600x": 8409,
      "##x1000(length)x765mm": 8410,
      "##t/20o": 8411,
      "##oietin": 8412,
      "##.coil": 8413,
      "##hupura": 8414,
      "##lk/182": 8415,
      "##/almoiz": 8416,
      "##/ig/2019": 8417,
      "##/70d/12": 8418,
      "##/29inod": 8419,
      "##peak-revised": 8420,
      "##b-1x0": 8421,
      "##carbonate": 8422,
      "##ually": 8423,
      "##zyme": 8424,
      "##d/badin-s": 8425,
      "##(ef)": 8426,
      "##arfeen/pi": 8427,
      "peripherals": 8428,
      "perkins": 8429,
      "##icl-lc/0": 8430,
      "##20387": 8431,
      "incoive": 8432,
      "inorganic": 8433,
      "increased": 8434,
      "installation": 8435,
      "no126223/": 8436,
      "at-sph": 8437,
      "atenolol": 8438,
      "atmosphere)": 8439,
      "no.4400025": 8440,
      "no.mgl": 8441,
      "no.hw1912": 8442,
      "aseptic": 8443,
      "##roitin": 8444,
      "##inid/29inod": 8445,
      "##in/3inid/29inod": 8446,
      "##20191109": 8447,
      "pairs": 8448,
      "mtml/loc-10": 8449,
      "coexas": 8450,
      "coomplete": 8451,
      "seamless": 8452,
      "##dehyde": 8453,
      "##10chb": 8454,
      "##-202001-1": 8455,
      "##-20-3071": 8456,
      "study": 8457,
      "stkm13a.": 8458,
      "commercial": 8459,
      "20245-1000": 8460,
      "102.43": 8461,
      "1220013012020": 8462,
      "##le/manufacture": 8463,
      "m/ton)ccording": 8464,
      "19/ss/00": 8465,
      "19e04c029": 8466,
      "polylinks": 8467,
      "alternator": 8468,
      "0.35x1000(length)x765mm": 8469,
      "0.23mm": 8470,
      "chabang": 8471,
      "chamber": 8472,
      "chips": 8473,
      "chondroitin": 8474,
      "chittagong": 8475,
      "rapier": 8476,
      "113818.00": 8477,
      "11-28-2019.": 8478,
      "163.625": 8479,
      "16x16/70d/12": 8480,
      "acessorios)": 8481,
      "acknowled": 8482,
      "25.565": 8483,
      "##iddling)": 8484,
      "##idacloprid": 8485,
      "lahore/nlc": 8486,
      "approved)": 8487,
      "24480.00": 8488,
      "24.oct.2019.": 8489,
      "graphite": 8490,
      "##25(length)x620mm": 8491,
      "##25--a-nf": 8492,
      "pl/in/15": 8493,
      "extended": 8494,
      "sp/tulux": 8495,
      "sphc-m": 8496,
      "spp-190826-mt": 8497,
      "sppl/kmd": 8498,
      "shahsika": 8499,
      "2007/kt/20o": 8500,
      "paracetamol": 8501,
      "re-meltable": 8502,
      "recombinant": 8503,
      "re-reeling": 8504,
      "re420mo": 8505,
      "rectifier": 8506,
      "##/sca/2019-20": 8507,
      "##/srm/2019-20": 8508,
      "sheikhupura": 8509,
      "##tsop-7)": 8510,
      "m/s.dawn": 8511,
      "pi-sun-f": 8512,
      "pi/oj/19-20": 8513,
      "2019ry018": 8514,
      "paperboardcoated": 8515,
      "paper-occ": 8516,
      "mountain": 8517,
      "5032e5": 8518,
      "thousand": 8519,
      "defects": 8520,
      "developments": 8521,
      "cartridge": 8522,
      "##966hpt-201b": 8523,
      "artificial": 8524,
      "coil(max.coil": 8525,
      "socket": 8526,
      "(gemicitabine": 8527,
      "962.85": 8528,
      "amprosol": 8529,
      "amendment": 8530,
      "amx-51025--a-nf": 8531,
      "60-40-70": 8532,
      "le6607-ph": 8533,
      "##-rs485": 8534,
      "assemble/manufacture": 8535,
      "sdgzal2019120": 8536,
      "891a-9": 8537,
      "8900000745": 8538,
      "glucosamine": 8539,
      "##/bluelines": 8540,
      "redispersible": 8541,
      "preparations": 8542,
      "flxcel": 8543,
      "makrolon": 8544,
      "(resistor)": 8545,
      "''nanlon''": 8546,
      "''aplio": 8547,
      "''dins''": 8548,
      "(hi-pro)": 8549,
      "sub-modules/sub-components": 8550,
      "suprasec": 8551,
      "92-21-35147": 8552,
      "hpu18112019": 8553,
      "ultimate": 8554,
      "invoice/contact": 8555,
      "8523.4910": 8556,
      "cefoperazone": 8557,
      "cefotaxime": 8558,
      "heidelberg": 8559,
      "956934/os": 8560,
      "20084754-": 8561,
      "registered)": 8562,
      "##/wso/bluelines": 8563,
      "levetiracetam": 8564,
      "epinephrine": 8565,
      "lcyc-penta-19": 8566,
      "5640250.99": 8567,
      "blower/components/sub-ass": 8568,
      "glycerine": 8569,
      "##b/op/itr-174(": 8570,
      "bitartrate": 8571,
      "commissioning": 8572,
      "communication-rs485": 8573,
      "microfiber": 8574,
      "(taixin)": 8575,
      "hygenic": 8576,
      "l-isoleucine": 8577,
      "##l/200ls": 8578,
      "116.875": 8579,
      "950-1000mm": 8580,
      "impregnated": 8581,
      "0.30x725(length)x620mm": 8582,
      "##-05102019-rev.00": 8583,
      "786/dicl-lc/0": 8584,
      "magnesium": 8585,
      "s/sdl/1912/sdl/1912/cpo18": 8586,
      "triclabendazole": 8587,
      "double-brushed": 8588,
      "pfi-th-thal-1911": 8589,
      "25.4mmx1.2tx1301mm": 8590,
      "multipurpose": 8591,
      "ex-workstreviolo": 8592,
      "(eq-middling)": 8593,
      "ce(p)gb/op/itr-174(": 8594,
      "dhfz-zm": 8595,
      "fsl/blk/182": 8596,
      "pel/afd/badin-s": 8597,
      "sn-3510chb": 8598,
      "s16642/2001": 8599,
      "(bci+r.poly)": 8600,
      "1-1/8''3.5-4.9": 8601,
      "8.0mmx1.0tx508mm": 8602,
      "daltoflex": 8603,
      "dalgakiran": 8604,
      "faisalabad": 8605,
      "fgwilson": 8606,
      "relevant": 8607,
      "riboflavin": 8608,
      "srmpi-12": 8609,
      "22.2mmx1.2x1805mm": 8610,
      "ci4/sl/200ls": 8611,
      "djibouti": 8612,
      "fnttp/007/2019": 8613,
      "longrod-insulator": 8614,
      "n07929/10": 8615,
      "ryzd-1050-ii": 8616,
      "exxonmobil": 8617,
      "piperacillin": 8618,
      "gml/ai/13335": 8619,
      "72332-74p00y4j": 8620,
      "aft(idt": 8621,
      "birlacril": 8622,
      "dapagliflozin": 8623,
      "dextrose": 8624,
      "erythropoietin": 8625,
      "g-mip19/1211": 8626,
      "immunoglobulin": 8627,
      "joc4a19101001": 8628,
      "kotlakhpat": 8629,
      "m061p/79/0": 8630,
      "vermiculite": 8631,
      "waukesha": 8632,
      "no126223/2009": 8633,
      "##in/3inid/29inod/wso/bluelines": 8634,
      "16x16/70d/128x47": 8635,
      "acknowledgement": 8636,
      "spp-190826-mtl-add": 8637,
      "pi-sun-fac": 8638,
      "sub-modules/sub-components/components": 8639,
      "blower/components/sub-assy": 8640,
      "ce(p)gb/op/itr-174(i)": 8641,
      "%)": 8642,
      "'1": 8643,
      "'j": 8644,
      "'med": 8645,
      "'east": 8646,
      "'test": 8647,
      "(u": 8648,
      "(z": 8649,
      "(j": 8650,
      "(ic": 8651,
      "(20": 8652,
      "(fr": 8653,
      "(im": 8654,
      "(is": 8655,
      "(re": 8656,
      "(80": 8657,
      "(ab": 8658,
      "(200": 8659,
      "(qty": 8660,
      "(co": 8661,
      "(45": 8662,
      "(22": 8663,
      "(14": 8664,
      "(65": 8665,
      "(95": 8666,
      "(ex": 8667,
      "(28": 8668,
      "(29": 8669,
      "(38": 8670,
      "(32": 8671,
      "(qu": 8672,
      "(44": 8673,
      "(500": 8674,
      "(77": 8675,
      "(red": 8676,
      "(b)": 8677,
      "(600": 8678,
      "(br": 8679,
      "(e)": 8680,
      "(ck": 8681,
      "(04": 8682,
      "(tpc": 8683,
      "(90)": 8684,
      "(20000": 8685,
      "(ii": 8686,
      "(form": 8687,
      "(240": 8688,
      "(408": 8689,
      "(coc": 8690,
      "(2014": 8691,
      "(195": 8692,
      "(254": 8693,
      "(185": 8694,
      "(584": 8695,
      "(7.0": 8696,
      "(master": 8697,
      "(704": 8698,
      "(19935": 8699,
      "(tsop-7)": 8700,
      ")met": 8701,
      "+in": 8702,
      "+17": 8703,
      "+hyd": 8704,
      "-1": 8705,
      "-5": 8706,
      "-12": 8707,
      "-ak": 8708,
      "-pk": 8709,
      "-2.": 8710,
      "-bl": 8711,
      "-4-": 8712,
      "-04": 8713,
      "-ne": 8714,
      "-1000": 8715,
      "-160": 8716,
      "-51": 8717,
      "-2020": 8718,
      "-700": 8719,
      "-115": 8720,
      "-above": 8721,
      ".0": 8722,
      ".c": 8723,
      ".(": 8724,
      ".2019": 8725,
      ".60": 8726,
      ".tons": 8727,
      ".0081": 8728,
      "/5": 8729,
      "/ad": 8730,
      "/29": 8731,
      "/export": 8732,
      "/flex": 8733,
      "012": 8734,
      "011": 8735,
      "010": 8736,
      "025": 8737,
      "075": 8738,
      "060": 8739,
      "015": 8740,
      "00000": 8741,
      "0102": 8742,
      "0/mt": 8743,
      "0-50": 8744,
      "0707": 8745,
      "045/": 8746,
      "1x": 8747,
      "1e": 8748,
      "1s": 8749,
      "1-01": 8750,
      "1mm": 8751,
      "1/2020": 8752,
      "110.00": 8753,
      "119.00": 8754,
      "1pct": 8755,
      "1-2019-12": 8756,
      "1(b)": 8757,
      "1(a)": 8758,
      "1x20fcl": 8759,
      "2e": 8760,
      "2b": 8761,
      "2w": 8762,
      "2%": 8763,
      "219": 8764,
      "2.12": 8765,
      "2-01": 8766,
      "214": 8767,
      "213": 8768,
      "21912": 8769,
      "2ft": 8770,
      "2125": 8771,
      "215.00": 8772,
      "2js": 8773,
      "2(b)": 8774,
      "2(a)": 8775,
      "214.00": 8776,
      "2238": 8777,
      "216.00": 8778,
      "212030": 8779,
      "2mppt": 8780,
      "3r": 8781,
      "3x": 8782,
      "3e": 8783,
      "3s": 8784,
      "3p": 8785,
      "3b": 8786,
      "301": 8787,
      "311": 8788,
      "3-01": 8789,
      "360": 8790,
      "314": 8791,
      "365": 8792,
      "328": 8793,
      "3ph": 8794,
      "316": 8795,
      "329": 8796,
      "338": 8797,
      "332": 8798,
      "336": 8799,
      "353": 8800,
      "343": 8801,
      "355": 8802,
      "377": 8803,
      "362": 8804,
      "367": 8805,
      "370.00": 8806,
      "3125": 8807,
      "3600": 8808,
      "32.00": 8809,
      "32000": 8810,
      "315.00": 8811,
      "367.": 8812,
      "3118": 8813,
      "3(b)": 8814,
      "3(a)": 8815,
      "3n0": 8816,
      "3584": 8817,
      "33.6": 8818,
      "3358": 8819,
      "32635": 8820,
      "401": 8821,
      "4-01": 8822,
      "4th": 8823,
      "480": 8824,
      "425": 8825,
      "475": 8826,
      "4.50": 8827,
      "4-0": 8828,
      "445": 8829,
      "415": 8830,
      "435": 8831,
      "422": 8832,
      "446": 8833,
      "426": 8834,
      "4.10": 8835,
      "416": 8836,
      "429": 8837,
      "45.00": 8838,
      "458": 8839,
      "43.": 8840,
      "48.00": 8841,
      "474": 8842,
      "478": 8843,
      "4300": 8844,
      "485.00": 8845,
      "420000": 8846,
      "465.00": 8847,
      "414.00": 8848,
      "4ppm": 8849,
      "4.125": 8850,
      "4/sobs": 8851,
      "4mppt": 8852,
      "5r": 8853,
      "5l": 8854,
      "5%": 8855,
      "5-01": 8856,
      "5th": 8857,
      "5.20": 8858,
      "5200": 8859,
      "560": 8860,
      "590": 8861,
      "513": 8862,
      "595": 8863,
      "526": 8864,
      "516": 8865,
      "5120": 8866,
      "547": 8867,
      "527": 8868,
      "576": 8869,
      "5pk": 8870,
      "521": 8871,
      "553": 8872,
      "543": 8873,
      "5400": 8874,
      "579": 8875,
      "558": 8876,
      "52.": 8877,
      "5.2": 8878,
      "58.00": 8879,
      "5125": 8880,
      "5.75": 8881,
      "599": 8882,
      "5600": 8883,
      "530.00": 8884,
      "5101": 8885,
      "534": 8886,
      "52000": 8887,
      "597": 8888,
      "57.00": 8889,
      "59.00": 8890,
      "575.00": 8891,
      "51.": 8892,
      "560.00": 8893,
      "531": 8894,
      "51-": 8895,
      "5920": 8896,
      "573": 8897,
      "565.00": 8898,
      "588.00": 8899,
      "58000": 8900,
      "5350": 8901,
      "5300.00": 8902,
      "5154": 8903,
      "5308": 8904,
      "5.05": 8905,
      "57929": 8906,
      "5467": 8907,
      "533.00": 8908,
      "567mm": 8909,
      "61": 8910,
      "620": 8911,
      "612": 8912,
      "6.12": 8913,
      "6-01": 8914,
      "6.20": 8915,
      "625": 8916,
      "670": 8917,
      "615": 8918,
      "623": 8919,
      "60000": 8920,
      "646": 8921,
      "647": 8922,
      "627": 8923,
      "696": 8924,
      "688": 8925,
      "6400": 8926,
      "658": 8927,
      "663": 8928,
      "620.00": 8929,
      "662": 8930,
      "667": 8931,
      "68.00": 8932,
      "6/12/2019": 8933,
      "670.00": 8934,
      "683": 8935,
      "62000": 8936,
      "668": 8937,
      "63.00": 8938,
      "671": 8939,
      "625.00": 8940,
      "6300": 8941,
      "61000": 8942,
      "688.00": 8943,
      "6236": 8944,
      "636.00": 8945,
      "64.60": 8946,
      "6015": 8947,
      "61300.00": 8948,
      "6486": 8949,
      "711": 8950,
      "710": 8951,
      "7/1": 8952,
      "7.20": 8953,
      "7-01-2020": 8954,
      "775": 8955,
      "7.50": 8956,
      "770": 8957,
      "7000.00": 8958,
      "722": 8959,
      "717": 8960,
      "70000": 8961,
      "7mt": 8962,
      "727": 8963,
      "796": 8964,
      "788": 8965,
      "776": 8966,
      "743": 8967,
      "7up": 8968,
      "789": 8969,
      "787": 8970,
      "760.00": 8971,
      "7.30": 8972,
      "731": 8973,
      "7368": 8974,
      "7707": 8975,
      "7196": 8976,
      "7014": 8977,
      "7.05": 8978,
      "7183": 8979,
      "71300.00": 8980,
      "7x20fcl": 8981,
      "81": 8982,
      "83": 8983,
      "8%": 8984,
      "8.00": 8985,
      "812": 8986,
      "8-01": 8987,
      "840": 8988,
      "875": 8989,
      "8.50": 8990,
      "8000.00": 8991,
      "885": 8992,
      "828": 8993,
      "816": 8994,
      "8100": 8995,
      "847": 8996,
      "836": 8997,
      "844": 8998,
      "880.00": 8999,
      "8-s": 9000,
      "855": 9001,
      "858": 9002,
      "8ml": 9003,
      "8-jan-2020": 9004,
      "88.00": 9005,
      "8.7": 9006,
      "882": 9007,
      "870.00": 9008,
      "8.10.19": 9009,
      "8800": 9010,
      "87.00": 9011,
      "835.00": 9012,
      "875.00": 9013,
      "872": 9014,
      "825.00": 9015,
      "8-30": 9016,
      "8126": 9017,
      "8160": 9018,
      "8.80": 9019,
      "8.13": 9020,
      "8.55": 9021,
      "8408": 9022,
      "81.50": 9023,
      "8899": 9024,
      "873/2019": 9025,
      "9m": 9026,
      "9a": 9027,
      "9h": 9028,
      "9-": 9029,
      "901": 9030,
      "980": 9031,
      "9.20": 9032,
      "9.50": 9033,
      "915": 9034,
      "9000.00": 9035,
      "9.0": 9036,
      "990": 9037,
      "923": 9038,
      "913": 9039,
      "946": 9040,
      "933": 9041,
      "9-1": 9042,
      "943": 9043,
      "989": 9044,
      "9.2": 9045,
      "94.00": 9046,
      "902": 9047,
      "92000": 9048,
      "9.4": 9049,
      "93.00": 9050,
      "935.00": 9051,
      "9.30": 9052,
      "92020": 9053,
      "9a19": 9054,
      "9.55": 9055,
      "9a0": 9056,
      "988.00": 9057,
      "9299": 9058,
      "9155": 9059,
      "948/2019": 9060,
      "921/2019": 9061,
      "92419": 9062,
      ">3": 9063,
      "a-": 9064,
      "ay": 9065,
      "aw": 9066,
      "aar": 9067,
      "aed": 9068,
      "abd": 9069,
      "a21": 9070,
      "a79": 9071,
      "aust": 9072,
      "aigin": 9073,
      "a2001": 9074,
      "aram": 9075,
      "ave": 9076,
      "a-22": 9077,
      "a.e": 9078,
      "bi": 9079,
      "b0": 9080,
      "bg": 9081,
      "b6": 9082,
      "bv": 9083,
      "bac": 9084,
      "bon": 9085,
      "bal": 9086,
      "bil": 9087,
      "bim": 9088,
      "bol": 9089,
      "b10": 9090,
      "btr": 9091,
      "bact": 9092,
      "but": 9093,
      "big": 9094,
      "best": 9095,
      "bts": 9096,
      "b2)": 9097,
      "buf": 9098,
      "bone": 9099,
      "bak": 9100,
      "bbd": 9101,
      "bte": 9102,
      "bloss": 9103,
      "bay": 9104,
      "bead": 9105,
      "b56": 9106,
      "bisc": 9107,
      "b180": 9108,
      "badar": 9109,
      "bisol": 9110,
      "bz-l": 9111,
      "cs": 9112,
      "cp": 9113,
      "c-": 9114,
      "c3": 9115,
      "cv": 9116,
      "cw": 9117,
      "cj": 9118,
      "cil": 9119,
      "cur": 9120,
      "cis": 9121,
      "cum": 9122,
      "cam": 9123,
      "cater": 9124,
      "c75": 9125,
      "cath": 9126,
      "cast": 9127,
      "clor": 9128,
      "c-1": 9129,
      "cca": 9130,
      "crom": 9131,
      "c-r": 9132,
      "c-3": 9133,
      "c1911": 9134,
      "cpr": 9135,
      "cec": 9136,
      "c-b": 9137,
      "ccc": 9138,
      "csd": 9139,
      "cind": 9140,
      "c.i": 9141,
      "cann": 9142,
      "c-40": 9143,
      "c-55": 9144,
      "cjs": 9145,
      "c-45": 9146,
      "cetir": 9147,
      "c200113": 9148,
[...]
